<unk>	0
<s>	0
</s>	0
▁k	-0
▁n	-1
an	-2
▁y	-3
▁b	-4
▁m	-5
▁ka	-6
▁t	-7
▁a	-8
▁s	-9
▁l	-10
▁ye	-11
▁d	-12
in	-13
▁f	-14
▁be	-15
▁ko	-16
un	-17
▁la	-18
ra	-19
▁ma	-20
en	-21
ɔn	-22
la	-23
▁w	-24
ma	-25
▁i	-26
▁ni	-27
▁o	-28
li	-29
ga	-30
▁na	-31
▁kɛ	-32
ri	-33
▁j	-34
▁ne	-35
▁min	-36
ɔg	-37
ɛn	-38
▁an	-39
ya	-40
aa	-41
ba	-42
▁kan	-43
ɔr	-44
ɔgɔ	-45
na	-46
▁sa	-47
▁aw	-48
▁c	-49
ɔrɔ	-50
on	-51
▁u	-52
▁ɲ	-53
ti	-54
▁lo	-55
▁fɔ	-56
gi	-57
▁si	-58
▁ba	-59
▁se	-60
ɛɛ	-61
▁tun	-62
man	-63
ug	-64
▁ta	-65
ka	-66
le	-67
▁di	-68
▁bɛɛ	-69
..	-70
sa	-71
si	-72
ugu	-73
ana	-74
lo	-75
▁mɔgɔ	-76
▁h	-77
rɛ	-78
▁wa	-79
▁ala	-80
▁fɛ	-81
uma	-82
▁yo	-83
ko	-84
ɛrɛ	-85
▁to	-86
▁le	-87
▁ti	-88
▁e	-89
go	-90
▁da	-91
▁nin	-92
▁bena	-93
▁"	-94
so	-95
▁dɔ	-96
▁fa	-97
len	-98
▁kɔn	-99
▁bi	-100
▁ya	-101
▁te	-102
▁tɛ	-103
▁ke	-104
▁ki	-105
lɛ	-106
ru	-107
▁koo	-108
ta	-109
."	-110
lu	-111
▁fi	-112
▁ani	-113
▁g	-114
▁p	-115
▁ha	-116
mu	-117
den	-118
▁de	-119
▁kɔ	-120
▁kɔnɔ	-121
da	-122
▁taga	-123
ki	-124
yi	-125
tigi	-126
zu	-127
▁den	-128
▁bari	-129
▁kelen	-130
▁ja	-131
bi	-132
oo	-133
▁bɔ	-134
▁mu	-135
ogo	-136
▁man	-137
lan	-138
▁mi	-139
▁sɔrɔ	-140
cɛ	-141
▁lɔn	-142
▁mun	-143
▁fana	-144
▁du	-145
▁yɛrɛ	-146
aw	-147
▁kun	-148
▁wo	-149
▁bo	-150
ɲɛ	-151
▁masa	-152
▁minw	-153
▁san	-154
re	-155
▁yi	-156
fa	-157
uman	-158
▁kuma	-159
▁-	-160
▁ji	-161
su	-162
▁kos	-163
▁baa	-164
▁don	-165
mɛ	-166
ni	-167
▁dugu	-168
▁ten	-169
kɛ	-170
mi	-171
anna	-172
▁yen	-173
ro	-174
bu	-175
▁su	-176
...	-177
ɔgɔn	-178
▁ɲin	-179
▁tuma	-180
baga	-181
▁cogo	-182
▁kana	-183
ran	-184
di	-185
▁ale	-186
▁ku	-187
▁nga	-188
▁ɲa	-189
lɔ	-190
▁yezu	-191
▁baara	-192
bɛ	-193
▁z	-194
▁kɔrɔ	-195
denw	-196
▁fo	-197
▁kɛra	-198
▁tugu	-199
ne	-200
se	-201
to	-202
▁cɛ	-203
▁nka	-204
min	-205
▁ban	-206
▁kanu	-207
mɔgɔ	-208
▁kalan	-209
▁yɔrɔ	-210
▁sara	-211
ɛlɛ	-212
▁muso	-213
▁wanna	-214
uru	-215
▁mɛn	-216
▁fan	-217
▁olu	-218
nin	-219
wa	-220
riya	-221
▁ci	-222
▁tu	-223
▁no	-224
▁tɔ	-225
▁dɛ	-226
▁saan	-227
yɛ	-228
lima	-229
▁ɲɔgɔn	-230
kolo	-231
òn	-232
kili	-233
lon	-234
▁wɛrɛ	-235
▁gw	-236
▁saba	-237
▁loon	-238
▁faa	-239
▁mɔgɔw	-240
te	-241
gɛ	-242
▁nun	-243
ye	-244
▁fɔlɔ	-245
san	-246
mana	-247
ɛna	-248
▁so	-249
uni	-250
ge	-251
▁sira	-252
yɔrɔ	-253
wu	-254
▁taa	-255
▁tena	-256
▁jaa	-257
fɛ	-258
▁fɛɛn	-259
▁fɔɔ	-260
▁barika	-261
▁waa	-262
▁li	-263
▁?	-264
▁bè	-265
ini	-266
▁tan	-267
▁jigi	-268
?"	-269
▁ɲinin	-270
ji	-271
▁wi	-272
muso	-273
▁deen	-274
aaman	-275
▁matigi	-276
sira	-277
▁ga	-278
▁tile	-279
▁bon	-280
▁caaman	-281
▁tɔgɔ	-282
▁kama	-283
kan	-284
▁kri	-285
▁kè	-286
ɔrɔn	-287
▁mii	-288
▁sigi	-289
▁do	-290
▁daa	-291
yɛli	-292
tɔ	-293
be	-294
mɛn	-295
▁kala	-296
▁dencɛ	-297
▁jamana	-298
òg	-299
▁hakili	-300
ɔbɛ	-301
▁lab	-302
▁nunu	-303
▁dɔw	-304
▁kosɔn	-305
▁jan	-306
zi	-307
▁tigi	-308
ani	-309
ku	-310
▁we	-311
ɔni	-312
▁tɛmɛ	-313
▁fila	-314
za	-315
▁ju	-316
▁ben	-317
▁yira	-318
▁jaabi	-319
▁foyi	-320
▁ra	-321
▁yan	-322
jugu	-323
ɲa	-324
▁fò	-325
fu	-326
▁.	-327
de	-328
▁faga	-329
bo	-330
▁bolo	-331
▁sen	-332
▁filɛ	-333
sɔn	-334
▁soo	-335
▁sisan	-336
▁nii	-337
▁masacɛ	-338
ve	-339
▁sɔn	-340
▁bu	-341
▁mara	-342
▁jama	-343
▁_	-344
òr	-345
▁siran	-346
sta	-347
▁see	-348
▁sɔ	-349
▁dan	-350
▁wu	-351
fe	-352
bagaw	-353
▁cɛɛ	-354
▁diɲɛ	-355
sirayɛli	-356
▁(	-357
dama	-358
kun	-359
▁kɛlɛ	-360
▁kosɔbɛ	-361
▁mo	-362
▁dusu	-363
▁minɛ	-364
yara	-365
▁ɲininga	-366
▁sin	-367
▁bɛ	-368
òrò	-369
▁yesu	-370
▁lɔ	-371
tan	-372
▁waga	-373
muni	-374
▁isirayɛli	-375
▁krista	-376
▁me	-377
▁bila	-378
ke	-379
▁bɔra	-380
èn	-381
▁sɛ	-382
bali	-383
mɔgɔw	-384
▁taama	-385
▁kuntigi	-386
ògò	-387
▁dɛmɛ	-388
▁fara	-389
▁damin	-390
▁masaya	-391
▁nana	-392
pi	-393
▁kisi	-394
ja	-395
fɛn	-396
fi	-397
▁sariya	-398
▁masaba	-399
▁ze	-400
kaw	-401
▁adama	-402
▁x	-403
▁je	-404
▁balima	-405
▁dumuni	-406
▁ɲi	-407
▁tiɲɛ	-408
gu	-409
▁walima	-410
▁nan	-411
▁jugu	-412
ha	-413
▁tagara	-414
wɛ	-415
▁ɲɛ	-416
anin	-417
▁fari	-418
▁ho	-419
▁zu	-420
▁yala	-421
▁wagati	-422
▁in	-423
▁miiri	-424
▁ɲini	-425
lila	-426
▁kɔni	-427
run	-428
▁cɛma	-429
▁v	-430
▁too	-431
▁ɲana	-432
▁ayi	-433
fo	-434
▁'	-435
▁yɛlɛ	-436
▁lon	-437
▁nisɔn	-438
▁dɔɔni	-439
kɔrɔ	-440
ɔɔ	-441
yo	-442
diya	-443
▁jɔn	-444
ho	-445
▁dugukolo	-446
▁hali	-447
▁pe	-448
▁kaba	-449
▁jɛn	-450
▁wolo	-451
▁tɔɔrɔ	-452
▁sera	-453
st	-454
nu	-455
▁fu	-456
▁sankolo	-457
▁wele	-458
▁ca	-459
▁bii	-460
ina	-461
▁saa	-462
▁fe	-463
▁nu	-464
▁sun	-465
hi	-466
▁waati	-467
▁saraka	-468
tu	-469
▁yafa	-470
inin	-471
me	-472
▁fisa	-473
nɛ	-474
▁en	-475
▁saga	-476
▁kalo	-477
▁wɛrɛw	-478
▁bato	-479
ar	-480
sɛn	-481
mo	-482
▁mògò	-483
laki	-484
▁suu	-485
▁dun	-486
bɔ	-487
ɲuman	-488
▁teri	-489
▁kaan	-490
pe	-491
▁daminɛ	-492
▁kojugu	-493
liw	-494
nan	-495
▁nisɔndiya	-496
▁say	-497
kari	-498
▁siya	-499
▁jo	-500
▁laj	-501
lisa	-502
▁ele	-503
èr	-504
!"	-505
do	-506
▁kab	-507
ɲɛn	-508
▁laga	-509
▁kiba	-510
va	-511
sɛ	-512
bɛn	-513
▁kalandenw	-514
▁yɛ	-515
▁dama	-516
▁tè	-517
▁bana	-518
mun	-519
wuda	-520
ugun	-521
ch	-522
fɔ	-523
▁fili	-524
lɛmu	-525
▁furu	-526
▁!	-527
▁go	-528
ɲɔgɔn	-529
▁dafa	-530
kɛla	-531
zalɛmu	-532
bari	-533
ruzalɛmu	-534
ɔgɔma	-535
ze	-536
▁senuman	-537
▁fɔra	-538
▁walisa	-539
▁lu	-540
▁janko	-541
▁zeruzalɛmu	-542
wi	-543
▁pi	-544
▁dɔrɔn	-545
baa	-546
▁yu	-547
èrè	-548
....	-549
gwɛ	-550
du	-551
piti	-552
▁labɛn	-553
▁seen	-554
▁kɛnɛ	-555
▁bɔn	-556
▁denmi	-557
▁boɲa	-558
▁nɔgɔ	-559
▁mana	-560
▁...	-561
▁kabako	-562
kɔ	-563
nga	-564
▁wari	-565
▁co	-566
▁r	-567
▁tora	-568
▁ɲɛna	-569
▁isirayɛlidenw	-570
▁,	-571
▁un	-572
▁laban	-573
▁kaso	-574
▁gwɛlɛ	-575
jan	-576
▁daali	-577
▁bara	-578
ala	-579
▁sɔgɔma	-580
▁dɔgɔ	-581
▁tugun	-582
▁dawuda	-583
▁jumɛn	-584
▁koow	-585
▁joo	-586
▁love	-587
ban	-588
▁musa	-589
▁pa	-590
▁anw	-591
▁nafa	-592
gɛn	-593
▁ɲaa	-594
▁can	-595
▁diyara	-596
▁po	-597
▁mako	-598
▁ri	-599
▁ezi	-600
▁faamu	-601
▁dòn	-602
inw	-603
▁saya	-604
▁‹	-605
maya	-606
▁fè	-607
▁kabini	-608
cogo	-609
sita	-610
▁ɲuman	-611
tigɛ	-612
▁zan	-613
ce	-614
baw	-615
▁kp	-616
gɔ	-617
▁ɔ	-618
▁kibaru	-619
▁lagaw	-620
▁ezipiti	-621
ɛnɛ	-622
▁segi	-623
▁kon	-624
he	-625
▁he	-626
▁bèè	-627
▁sababu	-628
masa	-629
▁kunna	-630
.›	-631
▁deli	-632
.'	-633
kè	-634
▁sabu	-635
▁deenw	-636
▁lajɛn	-637
▁kira	-638
▁denmuso	-639
folo	-640
mɔ	-641
▁ny	-642
▁dè	-643
▁makari	-644
▁kow	-645
▁sii	-646
lase	-647
▁juman	-648
▁dɔn	-649
▁denw	-650
▁facɛ	-651
▁jii	-652
▁sago	-653
▁denmisɛn	-654
yezu	-655
▁hɛrɛ	-656
▁fanga	-657
▁ŋ	-658
▁kunun	-659
▁kiti	-660
segi	-661
▁tiɲɛn	-662
▁al	-663
▁cɛn	-664
▁loo	-665
▁kɛmɛ	-666
▁ge	-667
▁faan	-668
ck	-669
▁yaa	-670
▁re	-671
▁wɔ	-672
▁kuun	-673
bolo	-674
▁tilen	-675
hun	-676
▁gi	-677
▁bibu	-678
.†	-679
▁wala	-680
▁balimaw	-681
▁aga	-682
▁kulu	-683
▁hai	-684
▁kasi	-685
tuma	-686
rɛn	-687
bato	-688
▁kɔsegi	-689
wo	-690
▁kara	-691
▁tigɛ	-692
▁adamaden	-693
▁vi	-694
▁bibulu	-695
▁mɛlɛ	-696
▁yee	-697
▁ak	-698
▁kanuya	-699
▁mɛlɛkɛ	-700
▁nafolo	-701
▁krisita	-702
▁aba	-703
▁diya	-704
▁minkɛ	-705
▁mɛ	-706
▁hakɛ	-707
▁bɛn	-708
▁wasa	-709
hova	-710
▁wili	-711
anw	-712
▁joona	-713
ilu	-714
▁donna	-715
▁ai	-716
▁ago	-717
▁mɔ	-718
▁ah	-719
manw	-720
▁minnu	-721
▁how	-722
ùn	-723
ògòn	-724
▁fani	-725
▁sarakalase	-726
▁tɔɔ	-727
don	-728
ble	-729
bra	-730
▁kita	-731
lè	-732
▁kat	-733
▁ɲɛnamaya	-734
▁yɛn	-735
▁jehova	-736
▁nɛ	-737
▁kɔmɔgɔw	-738
ɲè	-739
▁abada	-740
▁wolon	-741
▁fɛn	-742
batoso	-743
rin	-744
sen	-745
▁mari	-746
kuma	-747
▁juru	-748
▁muru	-749
rô	-750
ugan	-751
▁sɛbɛ	-752
▁alabatoso	-753
▁kaa	-754
buru	-755
umana	-756
▁bamuso	-757
lɔsi	-758
▁tɔw	-759
oni	-760
niya	-761
tigiw	-762
mani	-763
▁gu	-764
▁ɲògòn	-765
▁*	-766
▁nɔ	-767
wifu	-768
olu	-769
we	-770
▁mɛnni	-771
▁nɛn	-772
▁kɛɲɛ	-773
▁yiri	-774
kd	-775
▁waasa	-776
▁yé	-777
▁jija	-778
▁tila	-779
▁lara	-780
ju	-781
ayi	-782
mm	-783
▁siɲɛ	-784
▁ɲaga	-785
▁sir	-786
kdc	-787
▁akkdc	-788
▁malo	-789
▁wuli	-790
tɛ	-791
tigiya	-792
▁kitabu	-793
▁sini	-794
▁kam	-795
▁halaki	-796
suma	-797
▁kosòn	-798
▁ɔrɔ	-799
kin	-800
▁kar	-801
▁kɛwa	-802
▁yèrè	-803
ɛbɛ	-804
mini	-805
▁teli	-806
▁kosɛbɛ	-807
je	-808
▁bata	-809
tion	-810
▁lafi	-811
▁kɔlɔsi	-812
▁ɔrɔmu	-813
ôrô	-814
▁duni	-815
▁ɛ	-816
▁jalaki	-817
▁adamadenw	-818
▁bati	-819
ci	-820
▁diman	-821
pa	-822
lanan	-823
▁again	-824
▁kò	-825
ginin	-826
tin	-827
wula	-828
▁sòrò	-829
▁pani	-830
▁tanu	-831
▁fura	-832
ɔɔn	-833
ou	-834
kolon	-835
▁kelenpe	-836
▁kà	-837
kow	-838
▁komi	-839
sigi	-840
▁dariya	-841
▁bali	-842
bagatɔ	-843
▁gwɛlɛya	-844
▁faran	-845
▁zuwifu	-846
ale	-847
bili	-848
▁ladi	-849
▁à	-850
▁lɔnniya	-851
ent	-852
yima	-853
▁tulo	-854
▁cè	-855
▁bò	-856
▁joli	-857
sin	-858
▁ibra	-859
bila	-860
fɛnw	-861
▁kumana	-862
▁kura	-863
▁jati	-864
!!	-865
vi	-866
▁bible	-867
lɔn	-868
▁tilan	-869
▁dò	-870
gin	-871
▁kak	-872
▁foro	-873
▁mugan	-874
yan	-875
▁dara	-876
▁ar	-877
tiyo	-878
▁tɛna	-879
sufu	-880
▁siginin	-881
sogo	-882
▁gwan	-883
▁sere	-884
▁maloya	-885
▁nɔɔ	-886
▁ɲiningali	-887
kɛlaw	-888
▁ayiwa	-889
▁banbali	-890
dɛ	-891
▁zo	-892
▁ibrayima	-893
nen	-894
▁rɔ	-895
hu	-896
kulu	-897
▁sigiyɔrɔ	-898
▁wan	-899
▁dogo	-900
▁haa	-901
▁luka	-902
arch	-903
dugu	-904
▁wee	-905
▁search	-906
▁nɛɛ	-907
▁ɲè	-908
▁back	-909
▁lamɛn	-910
ry	-911
▁lan	-912
taw	-913
▁naani	-914
gô	-915
▁nɔgɔn	-916
tɔn	-917
▁kongo	-918
▁ve	-919
▁muɲ	-920
▁wun	-921
▁wolonwula	-922
▁mɔgɔba	-923
▁dumu	-924
▁yɛlɛma	-925
yɛri	-926
▁awa	-927
gara	-928
▁sama	-929
▁gwɛrɛ	-930
ll	-931
▁kin	-932
▁sani	-933
▁juguw	-934
▁xa	-935
▁kɔfɛ	-936
ɔli	-937
▁boo	-938
masaba	-939
▁for	-940
ɛɛrɛ	-941
▁boli	-942
▁mobili	-943
▁alabatosoba	-944
tun	-945
mɛna	-946
fan	-947
loo	-948
▁za	-949
▁tasuma	-950
mma	-951
▁ɲanagwɛ	-952
▁sufɛ	-953
fuɛ	-954
▁yusufu	-955
gan	-956
law	-957
▁duuru	-958
▁dɔnkili	-959
▁mùn	-960
▁fantan	-961
foni	-962
▁tɔn	-963
▁comm	-964
▁kalanden	-965
gon	-966
▁eso	-967
▁kali	-968
▁mini	-969
▁ima	-970
▁lɔgɔ	-971
tɔrɔ	-972
▁bɔyɔrɔ	-973
ònò	-974
▁ama	-975
uguni	-976
▁tò	-977
▁kunbɛn	-978
▁koɲuman	-979
▁haali	-980
kali	-981
xi	-982
,"	-983
▁bɛna	-984
▁dali	-985
▁siri	-986
▁zuda	-987
ɔrɔnin	-988
po	-989
▁dimi	-990
sun	-991
▁gwɛ	-992
▁juguya	-993
▁ɲakɔrɔ	-994
▁ǹ	-995
▁danna	-996
ôgô	-997
siw	-998
▁alu	-999
▁kurun	-1000
▁gb	-1001
▁sarakalasebagaw	-1002
▁comment	-1003
▁tɛmɛn	-1004
▁tilennin	-1005
jibi	-1006
lenw	-1007
▁ali	-1008
mina	-1009
▁sɔɔ	-1010
▁tele	-1011
▁matiyo	-1012
▁sɛbɛn	-1013
manɛ	-1014
▁bele	-1015
▁batize	-1016
▁tɛmɛna	-1017
▁musow	-1018
▁seere	-1019
▁is	-1020
▁lɛ	-1021
▁kari	-1022
▁muɲu	-1023
▁sifa	-1024
▁suma	-1025
ren	-1026
tiɲɛ	-1027
▁nɔgɔnin	-1028
▁janto	-1029
▁tɛmanɛ	-1030
▁nama	-1031
jigi	-1032
▁anu	-1033
▁filanan	-1034
ɲɔ	-1035
▁din	-1036
▁domma	-1037
kuru	-1038
kuba	-1039
▁mas	-1040
▁men	-1041
▁mɔɔ	-1042
▁and	-1043
ine	-1044
ool	-1045
▁am	-1046
▁bɛɛn	-1047
▁fee	-1048
us	-1049
▁fewu	-1050
▁yin	-1051
▁ò	-1052
▁kònò	-1053
▁lun	-1054
▁fran	-1055
▁nya	-1056
▁lanin	-1057
▁denmisɛnw	-1058
▁banna	-1059
▁eli	-1060
▁kɛwaliw	-1061
▁suman	-1062
▁̀	-1063
▁dɛsɛ	-1064
▁mbe	-1065
▁seko	-1066
▁delila	-1067
▁pu	-1068
▁tin	-1069
▁jɛ	-1070
dayi	-1071
▁piyɛri	-1072
▁wilila	-1073
▁dɔgɔtɔrɔ	-1074
▁teriw	-1075
ir	-1076
▁gɛrɛ	-1077
▁dibi	-1078
▁miiriya	-1079
dɔ	-1080
▁bé	-1081
▁siga	-1082
▁aa	-1083
▁new	-1084
ôn	-1085
▁=	-1086
▁pɛ	-1087
▁gafe	-1088
▁image	-1089
▁sanji	-1090
▁kini	-1091
▁farisogo	-1092
sara	-1093
▁kɔnɔn	-1094
tana	-1095
▁jurumu	-1096
rɔ	-1097
▁kudayi	-1098
▁nalo	-1099
▁baaraden	-1100
▁jɛni	-1101
▁tag	-1102
▁hakilitigiya	-1103
▁ol	-1104
▁soon	-1105
▁kanbe	-1106
▁wajibi	-1107
▁kɛla	-1108
▁latigɛ	-1109
▁hi	-1110
yɔn	-1111
▁sɔ̃	-1112
una	-1113
▁yanni	-1114
ss	-1115
yu	-1116
▁wɔɔrɔ	-1117
▁kanubaga	-1118
▁nih	-1119
kɔrɔbaw	-1120
▁ch	-1121
kasi	-1122
▁lagi	-1123
▁sinɔgɔ	-1124
▁labɛnnin	-1125
lé	-1126
▁halibi	-1127
▁sanu	-1128
▁mògòw	-1129
▁ɲan	-1130
▁kiri	-1131
▁katuguni	-1132
▁pan	-1133
▁senu	-1134
▁alla	-1135
▁wula	-1136
▁kinibolo	-1137
▁kunnafoni	-1138
▁ɲanaman	-1139
▁ɔrɔmukaw	-1140
▁yoo	-1141
▁layi	-1142
▁kuntigiw	-1143
▁sy	-1144
hana	-1145
▁daga	-1146
▁fun	-1147
koo	-1148
▁han	-1149
▁yakuba	-1150
guru	-1151
▁fɛti	-1152
cɛn	-1153
▁suuw	-1154
mèn	-1155
vɛn	-1156
waa	-1157
▁sad	-1158
no	-1159
▁buru	-1160
▁if	-1161
jo	-1162
▁dilan	-1163
hɔn	-1164
▁ao	-1165
▁ru	-1166
▁tòòrò	-1167
lennin	-1168
as	-1169
siran	-1170
▁kɔngɔ	-1171
▁zuwifuw	-1172
▁kòrò	-1173
▁bange	-1174
▁bonya	-1175
bana	-1176
ayiwa	-1177
▁kolo	-1178
▁gɛrɛfɛ	-1179
▁gwɛn	-1180
▁gbɛ	-1181
▁tum	-1182
▁yeelen	-1183
▁yɔrɔnin	-1184
▁sé	-1185
▁vo	-1186
▁jira	-1187
▁may	-1188
▁nee	-1189
▁isi	-1190
sɔ	-1191
▁kɛnɛya	-1192
wɔ	-1193
▁siyaw	-1194
▁dusukasi	-1195
wan	-1196
▁kaka	-1197
han	-1198
ron	-1199
▁bla	-1200
ee	-1201
??	-1202
baya	-1203
▁dja	-1204
▁surun	-1205
▁pɛrɛn	-1206
▁ɲininka	-1207
ly	-1208
▁pɔli	-1209
▁somɔgɔw	-1210
▁bee	-1211
manin	-1212
▁boon	-1213
▁duvɛn	-1214
▁lakali	-1215
▁waaju	-1216
lin	-1217
bagaya	-1218
baliya	-1219
bè	-1220
▁sogo	-1221
▁denkè	-1222
▁lad	-1223
▁kunu	-1224
▁lamini	-1225
pu	-1226
▁abi	-1227
fanin	-1228
▁ciden	-1229
▁duniya	-1230
▁kpa	-1231
▁teliya	-1232
gɛrɛ	-1233
▁sran	-1234
▁[	-1235
▁bolila	-1236
kura	-1237
▁woo	-1238
▁kabi	-1239
▁mili	-1240
▁..	-1241
kɛnɛ	-1242
siɲɛ	-1243
▁sunguru	-1244
▁sɔnna	-1245
▁sebagaya	-1246
▁ɲamɔgɔ	-1247
▁dusukun	-1248
▁as	-1249
fɔlɔ	-1250
▁fin	-1251
▁aoû	-1252
▁gali	-1253
baliw	-1254
▁sigɛn	-1255
▁dabila	-1256
▁tagama	-1257
▁aww	-1258
▁sanni	-1259
▁ro	-1260
▁kuru	-1261
▁nà	-1262
▁emi	-1263
kɔn	-1264
th	-1265
gui	-1266
▁yes	-1267
▁yòrò	-1268
▁segira	-1269
▁arɔn	-1270
juguw	-1271
ree	-1272
▁miniti	-1273
▁ɲinina	-1274
▁sè	-1275
▁karamɔgɔ	-1276
▁ɲɛfɔ	-1277
▁siranna	-1278
▁^	-1279
▁mɔgɔɲɔgɔn	-1280
▁been	-1281
▁year	-1282
▁faaw	-1283
tilennin	-1284
yɔ	-1285
▁jɔɔn	-1286
▁hɔrɔn	-1287
▁ladili	-1288
▁ari	-1289
▁daan	-1290
xan	-1291
▁yii	-1292
▁sanfɛ	-1293
siri	-1294
▁cidenw	-1295
▁mɛlɛkɛw	-1296
▁hami	-1297
inɛ	-1298
▁tilenninya	-1299
▁maa	-1300
miɛn	-1301
▁goo	-1302
▁duman	-1303
yɔrɔw	-1304
▁fɔlɔfɔlɔ	-1305
▁like	-1306
▁seegi	-1307
▁jigira	-1308
▁sugu	-1309
▁maga	-1310
▁jumɛnw	-1311
dan	-1312
▁kere	-1313
▁safe	-1314
▁wɛ	-1315
▁sɔrɔla	-1316
▁oh	-1317
ŋɛlɛ	-1318
▁mali	-1319
▁yɛnŋɛlɛ	-1320
fè	-1321
uro	-1322
fari	-1323
▁sɔbɛ	-1324
▁eh	-1325
▁baro	-1326
̀n	-1327
▁fantanw	-1328
▁cu	-1329
▁siranya	-1330
▁ton	-1331
▁biri	-1332
▁nigɛ	-1333
▁fɛtiw	-1334
ii	-1335
kɔli	-1336
▁diɲè	-1337
▁>	-1338
▁farati	-1339
▁ɔn	-1340
matigi	-1341
▁saban	-1342
yé	-1343
use	-1344
▁woro	-1345
▁warigwɛ	-1346
▁kw	-1347
▁lol	-1348
▁ɲɛɛ	-1349
baara	-1350
▁juga	-1351
▁sinji	-1352
ca	-1353
ene	-1354
▁lɔra	-1355
▁duniɲa	-1356
▁kɔgɔ	-1357
▁mɛɛn	-1358
masacɛ	-1359
▁fla	-1360
▁yèrèw	-1361
waati	-1362
▁tanga	-1363
▁kɔrɔta	-1364
▁mariki	-1365
▁ɲamɔgɔw	-1366
▁dira	-1367
▁olugu	-1368
▁gwɛrɛla	-1369
▁au	-1370
▁es	-1371
qu	-1372
▁isra	-1373
▁solo	-1374
▁begɛn	-1375
▁lafiɲɛ	-1376
▁kununna	-1377
ugou	-1378
▁kid	-1379
▁pye	-1380
ah	-1381
biri	-1382
▁kumaw	-1383
▁lee	-1384
sisan	-1385
▁bɔsi	-1386
▁yahu	-1387
▁kaburu	-1388
èlè	-1389
▁yeo	-1390
▁zoo	-1391
▁cool	-1392
▁layidu	-1393
bagatɔw	-1394
▁kɛlɛdenw	-1395
yen	-1396
▁kabakuru	-1397
lɛn	-1398
▁yaala	-1399
tiri	-1400
▁try	-1401
▁sabanan	-1402
gè	-1403
mè	-1404
tugu	-1405
▁har	-1406
▁ɲafɛ	-1407
▁kanubagaw	-1408
▁syn	-1409
▁kaam	-1410
▁yeli	-1411
▁far	-1412
▁mɛnna	-1413
cɛɛ	-1414
iya	-1415
▁ab	-1416
▁kèra	-1417
ska	-1418
▁ɲanmiɛn	-1419
▁duba	-1420
▁sari	-1421
rg	-1422
yɛrɛ	-1423
▁nata	-1424
▁tugunni	-1425
▁taamasiɲɛ	-1426
▁af	-1427
▁bad	-1428
▁ohun	-1429
▁denbaya	-1430
▁kii	-1431
ènw	-1432
saba	-1433
ction	-1434
▁balo	-1435
▁sutana	-1436
▁bar	-1437
tɔw	-1438
▁kɔniya	-1439
ger	-1440
▁daminè	-1441
▁kanbelen	-1442
▁law	-1443
gw	-1444
▁ara	-1445
▁el	-1446
▁mɔn	-1447
▁son	-1448
▁lɔnin	-1449
▁fiɲɛn	-1450
▁kibaro	-1451
▁mariya	-1452
▁dafanin	-1453
▁ń	-1454
ena	-1455
▁jigin	-1456
▁kɑ	-1457
▁niin	-1458
▁fanan	-1459
tro	-1460
ligi	-1461
▁naan	-1462
▁samari	-1463
▁tch	-1464
▁tii	-1465
▁majigi	-1466
▁you	-1467
▁sigira	-1468
▁jɛnkulu	-1469
▁kɔsegira	-1470
ing	-1471
▁fô	-1472
▁diin	-1473
▁maana	-1474
▁sanin	-1475
▁kɔnɔna	-1476
lò	-1477
▁bɑ	-1478
▁dô	-1479
tama	-1480
▁baden	-1481
▁kumakan	-1482
▁lakɔli	-1483
▁wolomanin	-1484
▁dije	-1485
▁kerecɛn	-1486
raw	-1487
▁day	-1488
▁dannaya	-1489
▁mɔgɔtilennin	-1490
▁leo	-1491
▁filè	-1492
▁jumanw	-1493
▁muruti	-1494
▁nba	-1495
▁kafe	-1496
zila	-1497
▁bataki	-1498
▁farikolo	-1499
bun	-1500
▁ɲinɛ	-1501
▁galile	-1502
▁free	-1503
▁nzila	-1504
▁zi	-1505
hali	-1506
fara	-1507
▁dabi	-1508
dɛn	-1509
▁good	-1510
▁waajuli	-1511
es	-1512
mɔn	-1513
▁baji	-1514
▁kale	-1515
bon	-1516
yanin	-1517
▁lana	-1518
">	-1519
▁="	-1520
umanbolo	-1521
ter	-1522
▁maan	-1523
▁mila	-1524
▁tere	-1525
ɲɔgɔnw	-1526
▁kongokolon	-1527
▁doo	-1528
▁lonan	-1529
▁murujan	-1530
▁tɛmɛnin	-1531
▁jaabili	-1532
▁bhi	-1533
▁lah	-1534
foro	-1535
▁mèn	-1536
▁setigi	-1537
▁naloman	-1538
▁ʻ	-1539
euse	-1540
▁lookin	-1541
▁miiska	-1542
bee	-1543
▁nak	-1544
minin	-1545
▁galon	-1546
▁nɛɛma	-1547
jɔn	-1548
▁nk	-1549
▁nili	-1550
too	-1551
▁blo	-1552
▁con	-1553
▁last	-1554
▁yera	-1555
kara	-1556
xt	-1557
▁ŋa	-1558
▁yigi	-1559
▁miiran	-1560
ili	-1561
▁age	-1562
▁kɔrɔbɔ	-1563
▁mɔ̀	-1564
yana	-1565
▁aka	-1566
▁bɔnɛ	-1567
▁taba	-1568
fee	-1569
sɔbɛ	-1570
asy	-1571
▁faso	-1572
▁soow	-1573
▁delili	-1574
▁sɛgɛrɛ	-1575
▁kɔrɔtan	-1576
mb	-1577
how	-1578
▁ninnu	-1579
toro	-1580
▁bug	-1581
▁mon	-1582
▁size	-1583
▁kɛcogo	-1584
▁easy	-1585
?›	-1586
dafɛ	-1587
▁iru	-1588
▁jun	-1589
ds	-1590
ul	-1591
uya	-1592
▁yeah	-1593
▁religi	-1594
▁aye	-1595
▁kɔɔ	-1596
▁fuun	-1597
▁kasa	-1598
▁kɔrɔtanin	-1599
non	-1600
▁tau	-1601
▁niyɔrɔ	-1602
▁ek	-1603
xɔ	-1604
▁laa	-1605
▁naa	-1606
tɔnin	-1607
▁ɲèna	-1608
▁yirali	-1609
▁kɔrɔtɔnin	-1610
▁dj	-1611
▁oo	-1612
jama	-1613
▁luu	-1614
▁biin	-1615
▁lala	-1616
▁sarakalasebaga	-1617
▁it	-1618
adama	-1619
▁kwla	-1620
▁kalifa	-1621
▁ɲumanya	-1622
saan	-1623
▁kya	-1624
▁zoova	-1625
▁mariyamu	-1626
▁lati	-1627
▁banne	-1628
▁kalansen	-1629
▁lajɛnnin	-1630
faga	-1631
mògò	-1632
▁bala	-1633
▁foroba	-1634
▁barikaman	-1635
co	-1636
▁pen	-1637
▁taw	-1638
▁daminɛtuma	-1639
yɛn	-1640
▁ain	-1641
▁veo	-1642
▁tuun	-1643
▁yeri	-1644
riki	-1645
▁nɔɔrɔ	-1646
ad	-1647
▁naga	-1648
▁tala	-1649
unu	-1650
▁noon	-1651
▁jugak	-1652
▁kojuguba	-1653
yasi	-1654
▁tunu	-1655
▁sunɔgɔ	-1656
▁yɛɛ	-1657
▁tɛrɛ	-1658
▁duguw	-1659
▁nahana	-1660
▁namatama	-1661
ɲi	-1662
▁kabakoyara	-1663
ɑ̃	-1664
ara	-1665
bugu	-1666
▁kunbiri	-1667
▁sọ	-1668
kohun	-1669
▁bina	-1670
▁kɔrɔcɛ	-1671
▁ohunkohun	-1672
lle	-1673
numanbolo	-1674
▁tha	-1675
▁bolola	-1676
dy	-1677
▁kɛnɛyara	-1678
er	-1679
ten	-1680
lati	-1681
ziɲɛ	-1682
▁caya	-1683
▁kanaan	-1684
▁mankan	-1685
▁yɛrɛyɛrɛ	-1686
jana	-1687
▁fèn	-1688
▁isa	-1689
▁pro	-1690
▁lade	-1691
▁lajɛ	-1692
▁karan	-1693
).	-1694
boo	-1695
ré	-1696
▁wow	-1697
▁on	-1698
▁gon	-1699
▁tol	-1700
▁sooo	-1701
▁mɔgɔbaba	-1702
maw	-1703
minɛ	-1704
wabu	-1705
▁boy	-1706
▁sɔ̃ɔ	-1707
▁post	-1708
▁looru	-1709
sankolo	-1710
▁cii	-1711
▁kɔnna	-1712
▁yɛlɛla	-1713
▁ɲɛnabɔ	-1714
▁kititigɛ	-1715
▁efɛ	-1716
▁àyi	-1717
▁bugu	-1718
▁donda	-1719
▁dɔgɔcɛ	-1720
▁wolola	-1721
▁yahutu	-1722
▁tilennen	-1723
xa	-1724
ssi	-1725
ganin	-1726
▁next	-1727
▁kiraw	-1728
▁bin	-1729
▁jin	-1730
▁kua	-1731
kaba	-1732
sage	-1733
▁yari	-1734
▁nɔgɔya	-1735
▁gun	-1736
▁ɲafan	-1737
▁saniya	-1738
▁hago	-1739
▁hɛɛrɛ	-1740
▁baba	-1741
▁kogo	-1742
▁tiɲè	-1743
▁cɛman	-1744
▁tunun	-1745
▁kiraya	-1746
▁ɡ	-1747
ted	-1748
▁ké	-1749
▁lagu	-1750
▁kolon	-1751
▁balimamuso	-1752
rɛti	-1753
tala	-1754
▁fɛ̀	-1755
▁môgô	-1756
▁france	-1757
▁mɔgɔkɔrɔbaw	-1758
▁&	-1759
▁ô	-1760
ged	-1761
▁tèna	-1762
▁wara	-1763
▁moo	-1764
▁diinan	-1765
▁kasira	-1766
el	-1767
wɑ	-1768
ŋo	-1769
▁jukɔrɔ	-1770
▁nde	-1771
▁tou	-1772
▁tiga	-1773
▁caman	-1774
▁taara	-1775
▁denmis	-1776
▁pɛrɛnna	-1777
ct	-1778
ɔbu	-1779
▁--	-1780
manan	-1781
▁suru	-1782
▁sɔli	-1783
▁tulu	-1784
▁yere	-1785
dili	-1786
▁bugɔ	-1787
▁sanga	-1788
ɲɔgɔnya	-1789
▁fagara	-1790
▁seerew	-1791
▁arijana	-1792
▁sariyaw	-1793
bara	-1794
▁tra	-1795
.....	-1796
▁kɛlɛkɛ	-1797
▁ɲagali	-1798
ben	-1799
▁ad	-1800
▁jɔ	-1801
▁ng	-1802
baaw	-1803
▁koba	-1804
▁gusun	-1805
▁ce	-1806
▁kind	-1807
▁datugu	-1808
▁bà	-1809
▁mì	-1810
liya	-1811
▁big	-1812
tò	-1813
bar	-1814
▁nyo	-1815
▁sɛnɛ	-1816
▁kunma	-1817
▁kàlan	-1818
▁lɔgɔkun	-1819
isirayɛli	-1820
▁baarakɛla	-1821
▁/	-1822
▁lase	-1823
▁ɲagami	-1824
is	-1825
kɔnɔ	-1826
▁baasi	-1827
▁efɛzi	-1828
saya	-1829
▁book	-1830
▁jula	-1831
▁mama	-1832
▁images	-1833
▁cɛkɔrɔbaw	-1834
▁hakilitigi	-1835
gili	-1836
▁wolobagaw	-1837
▁hala	-1838
▁jara	-1839
▁levi	-1840
▁otro	-1841
▁dii	-1842
▁week	-1843
▁yôrô	-1844
▁minan	-1845
▁nò	-1846
▁donko	-1847
▁duguma	-1848
▁danbaga	-1849
vu	-1850
fen	-1851
▁fen	-1852
▁lolo	-1853
▁kɔrɔn	-1854
▁dencɛw	-1855
▁or	-1856
uli	-1857
▁bro	-1858
▁sai	-1859
▁tagar	-1860
▁misi	-1861
▁must	-1862
▁yɛle	-1863
▁zude	-1864
▁cogoya	-1865
▁kɔlɔsikaw	-1866
▁masòrò	-1867
▁daalili	-1868
roo	-1869
sɛbɛ	-1870
▁ham	-1871
▁ole	-1872
▁sab	-1873
▁kele	-1874
▁toun	-1875
nè	-1876
ton	-1877
baan	-1878
irly	-1879
▁ver	-1880
▁hinɛ	-1881
▁jɛrɛ	-1882
▁lama	-1883
▁gonna	-1884
▁masaw	-1885
▁sairly	-1886
ɔru	-1887
▁th	-1888
▁eze	-1889
▁hoo	-1890
▁jigɛ	-1891
▁kora	-1892
▁nɛnɛ	-1893
▁kasih	-1894
▁katugu	-1895
▁woloma	-1896
cha	-1897
▁juma	-1898
▁dɛmɛbaga	-1899
▁wɛ̃	-1900
▁feere	-1901
▁minni	-1902
▁weele	-1903
▁ef	-1904
▁amo	-1905
▁mar	-1906
yaka	-1907
▁fit	-1908
▁fɔta	-1909
▁zona	-1910
▁tèmèn	-1911
▁hɔrɔnya	-1912
bia	-1913
now	-1914
tanw	-1915
▁lam	-1916
▁dege	-1917
can	-1918
▁gan	-1919
▁ladon	-1920
▁lɔyɔrɔ	-1921
pan	-1922
juru	-1923
lɔni	-1924
kalan	-1925
saraka	-1926
sigilan	-1927
▁solomani	-1928
▁ii	-1929
dɔmu	-1930
▁babi	-1931
▁kami	-1932
▁faniw	-1933
▁tilannin	-1934
▁mɔgɔjuguw	-1935
▁nafolotigi	-1936
leh	-1937
zan	-1938
▁fini	-1939
wn	-1940
riw	-1941
wɛli	-1942
▁cira	-1943
▁ɲiningaliw	-1944
▁duu	-1945
▁cibaga	-1946
▁mis	-1947
▁ndɛ	-1948
▁malɔ	-1949
▁lemɛn	-1950
▁bɛnnin	-1951
▁tagged	-1952
▁religieuse	-1953
▁nta	-1954
▁dani	-1955
▁nimi	-1956
▁gwansan	-1957
fin	-1958
▁bir	-1959
▁kule	-1960
▁naxan	-1961
▁dì	-1962
▁qu	-1963
▁koko	-1964
▁vote	-1965
▁baarakɛlaw	-1966
cu	-1967
runin	-1968
▁cɛɛw	-1969
▁lanaya	-1970
▁awak	-1971
▁kowa	-1972
▁kakala	-1973
▁kɔmɔgɔ	-1974
▁dagamun	-1975
ɛri	-1976
▁pon	-1977
▁folo	-1978
▁toro	-1979
kɔrɔba	-1980
▁juu	-1981
▁jina	-1982
▁nkan	-1983
▁banned	-1984
▁%	-1985
chi	-1986
▁wà	-1987
misɛn	-1988
ɔnhɔn	-1989
▁dakun	-1990
▁ɲumanw	-1991
▁faransi	-1992
gle	-1993
sse	-1994
▁begɛnw	-1995
▁kuntigiya	-1996
▁masasigilan	-1997
lew	-1998
tte	-1999
▁xɔn	-2000
▁main	-2001
▁tɔɔw	-2002
▁sabati	-2003
ele	-2004
yila	-2005
▁kɛrɛ	-2006
▁dibaga	-2007
▁kisili	-2008
yɛlɛ	-2009
▁now	-2010
▁kiya	-2011
dawuda	-2012
eni	-2013
yaw	-2014
▁gba	-2015
▁fali	-2016
▁gbɛlɛ	-2017
▁woman	-2018
▁kunmabɔ	-2019
al	-2020
ŋga	-2021
▁ina	-2022
▁nɔrɔ	-2023
▁fɛɛrɛ	-2024
▁lamèn	-2025
▁kabakow	-2026
zari	-2027
ziɲɛw	-2028
ɔrɔnan	-2029
▁dɔgɔya	-2030
▁isiyaka	-2031
▁yɔrɔjan	-2032
ɛl	-2033
wili	-2034
▁ŋga	-2035
▁telef	-2036
▁dugusa	-2037
rs	-2038
àn	-2039
▁%%	-2040
▁gari	-2041
▁know	-2042
▁tara	-2043
▁tògò	-2044
▁surunyana	-2045
▁nùn	-2046
▁dunu	-2047
▁kòni	-2048
▁yara	-2049
▁mɔgɔfaga	-2050
▁nw	-2051
▁mean	-2052
▁fɔtaw	-2053
▁dimina	-2054
▁batofɛn	-2055
rt	-2056
ɑɑ	-2057
kisi	-2058
▁asi	-2059
mɔɔ	-2060
▁yɔn	-2061
▁zaki	-2062
▁sungu	-2063
▁sankaba	-2064
▁lemɛniya	-2065
▁lere	-2066
▁korɛn	-2067
▁batise	-2068
▁mɔgɔbabaw	-2069
▁sòn	-2070
▁jate	-2071
▁laaa	-2072
▁siraw	-2073
▁filɛli	-2074
▁té	-2075
▁hun	-2076
▁sɛgɛ	-2077
▁vide	-2078
▁nuhun	-2079
▁terikɛ	-2080
▁baarakɛ	-2081
▁kowagara	-2082
sarakalase	-2083
kɛlɛ	-2084
▁fòlò	-2085
▁mina	-2086
▁nyogon	-2087
▁tugura	-2088
▁wɔɔrɔnan	-2089
▁banabagatɔ	-2090
ɲɛna	-2091
▁dee	-2092
▁dji	-2093
▁fɔɲɔ	-2094
▁seli	-2095
▁ezeki	-2096
ɑ̃ɑ	-2097
▁wì	-2098
▁xo	-2099
fani	-2100
▁fɔn	-2101
▁sɛn	-2102
▁tɔnɔ	-2103
▁jɔɔnw	-2104
▁babilɔni	-2105
▁fanibugu	-2106
yin	-2107
zɛn	-2108
kalo	-2109
mote	-2110
▁fɔla	-2111
▁tana	-2112
▁lonanw	-2113
▁tumabee	-2114
▁yahutuw	-2115
▁nyogonfe	-2116
zo	-2117
mba	-2118
▁kia	-2119
▁ɛrɛ	-2120
▁bɔna	-2121
▁minè	-2122
▁jaman	-2123
▁badenw	-2124
▁minɛna	-2125
▁korɛnti	-2126
▁dɔgɔtɔrɔso	-2127
▁$	-2128
▁jè	-2129
▁com	-2130
▁kôn	-2131
▁saw	-2132
▁sisen	-2133
▁seereya	-2134
▁@	-2135
▁gɔ	-2136
kira	-2137
▁mogo	-2138
▁nahi	-2139
▁tiin	-2140
▁mandi	-2141
▁damani	-2142
▁ɲinɛna	-2143
▁fiɲɛntɔw	-2144
▁nalomanw	-2145
one	-2146
▁cha	-2147
▁kafo	-2148
▁tɔɲɔgɔn	-2149
▁dugusagwɛ	-2150
▁hu	-2151
▁nte	-2152
▁soy	-2153
▁domi	-2154
kojugu	-2155
▁kɛnin	-2156
karamɔgɔ	-2157
▁kabakoya	-2158
▁ee	-2159
▁yū	-2160
▁flɛ	-2161
▁ɛɛn	-2162
▁degi	-2163
▁fiyɛ	-2164
▁sila	-2165
▁timote	-2166
▁ɲɔ	-2167
kiri	-2168
ugug	-2169
▁kpɛ	-2170
▁baru	-2171
▁yama	-2172
▁faama	-2173
▁taamana	-2174
▁denmusow	-2175
▁kirisita	-2176
taga	-2177
▁nge	-2178
▁lain	-2179
▁lɔti	-2180
▁masi	-2181
▁suka	-2182
▁that	-2183
▁birin	-2184
▁jinaw	-2185
bèn	-2186
▁naanin	-2187
▁fagayɔrɔ	-2188
:)	-2189
▁buguri	-2190
▁laaaan	-2191
▁terima	-2192
awo	-2193
̀wɔ	-2194
▁leh	-2195
▁susu	-2196
▁ɔ̀wɔ	-2197
▁sabar	-2198
▁tuman	-2199
▁jigiya	-2200
▁junman	-2201
▁worodugu	-2202
▁hare	-2203
▁nani	-2204
▁sɔrɔn	-2205
▁tú	-2206
saga	-2207
òròn	-2208
▁tak	-2209
laman	-2210
▁gusunɔ	-2211
trg	-2212
kana	-2213
▁kaf	-2214
sɔbɛw	-2215
▁kɔɲɔ	-2216
▁mise	-2217
▁bɔnnin	-2218
▁bɔnsɔn	-2219
▁julakan	-2220
▁balimacɛ	-2221
▁kakalaya	-2222
én	-2223
▁̈	-2224
▁of	-2225
loon	-2226
▁bɛnna	-2227
▁landa	-2228
▁koe	-2229
▁ɲafɔ	-2230
xu	-2231
!!!	-2232
fɛr	-2233
gwe	-2234
▁nyɔ	-2235
▁girɛ	-2236
▁kilɛ	-2237
▁ngan	-2238
▁wèrè	-2239
bɑ	-2240
ny	-2241
ɲan	-2242
musa	-2243
▁paul	-2244
▁siara	-2245
▁#	-2246
▁at	-2247
▁bô	-2248
▁kili	-2249
kanuya	-2250
zarɛti	-2251
▁wotoro	-2252
bɛrɛ	-2253
▁bèn	-2254
▁dɔɔn	-2255
▁amata	-2256
▁noonoo	-2257
▁kô	-2258
remi	-2259
wali	-2260
▁blog	-2261
▁jago	-2262
▁pewu	-2263
▁furakɛ	-2264
▁sayuli	-2265
▁tigitigi	-2266
▁alo	-2267
▁bun	-2268
▁sirana	-2269
▁bl	-2270
tinya	-2271
▁ayei	-2272
▁fala	-2273
▁popo	-2274
▁sɔlida	-2275
ninw	-2276
renw	-2277
tara	-2278
▁won	-2279
▁gafew	-2280
▁loved	-2281
▁yɛlɛmana	-2282
▁dagamunin	-2283
ver	-2284
boɲa	-2285
fila	-2286
musow	-2287
▁aawo	-2288
▁effe	-2289
▁nobar	-2290
▁tununa	-2291
▁intinya	-2292
▁siaramɔ	-2293
▁tulogwe	-2294
▁é	-2295
▁mà	-2296
▁dòw	-2297
kumaw	-2298
▁here	-2299
▁filipu	-2300
▁labaan	-2301
vo	-2302
bɔn	-2303
mos	-2304
▁baga	-2305
▁ɔnhɔn	-2306
▁effect	-2307
ía	-2308
ved	-2309
minw	-2310
▁isira	-2311
▁suruta	-2312
▁wulila	-2313
▁daminɛna	-2314
bò	-2315
▁bha	-2316
▁kɛsu	-2317
▁bɔnin	-2318
▁ladegi	-2319
▁kantigi	-2320
▁jù	-2321
▁mɛɛ	-2322
▁suun	-2323
ininka	-2324
▁eburu	-2325
▁litiri	-2326
▁kelenna	-2327
▁kisibaga	-2328
bele	-2329
rali	-2330
yimu	-2331
▁uso	-2332
▁yèlè	-2333
▁dadon	-2334
▁israɛl	-2335
▁lalaga	-2336
▁sapiti	-2337
▁comments	-2338
▁tulogwerenw	-2339
▁kĩ	-2340
rila	-2341
▁ame	-2342
▁par	-2343
▁site	-2344
▁sɔtɔ	-2345
▁kanin	-2346
▁ninsɔn	-2347
nn	-2348
rɑ	-2349
red	-2350
▁ooo	-2351
▁sebaa	-2352
▁dunuɲa	-2353
▁namara	-2354
▁batizera	-2355
▁mɔgɔjugu	-2356
▁naaninan	-2357
▁forobayɔrɔw	-2358
▁farisogobana	-2359
lt	-2360
▁chɛ	-2361
▁iko	-2362
▁nɔn	-2363
▁sibo	-2364
▁dougou	-2365
▁girɛki	-2366
▁isirayila	-2367
èl	-2368
urou	-2369
▁mala	-2370
▁ɲanabɔ	-2371
▁alatala	-2372
▁faranfa	-2373
▁sebaaya	-2374
▁daniyɛli	-2375
▁efɛzikaw	-2376
▁fangatigi	-2377
ong	-2378
▁lé	-2379
▁kah	-2380
▁wie	-2381
▁sɔngɔ	-2382
▁farisi	-2383
▁sabali	-2384
▁sapitiri	-2385
▁korɛntikaw	-2386
▁kititigɛlaw	-2387
▁dɛn	-2388
▁nyɛ	-2389
rancɛ	-2390
▁kɛli	-2391
▁soro	-2392
▁yoro	-2393
▁nalon	-2394
▁filisiw	-2395
uu	-2396
▁·	-2397
xin	-2398
▁ev	-2399
basi	-2400
▁jòn	-2401
▁life	-2402
▁sisi	-2403
▁ɲɔɔn	-2404
▁feelin	-2405
▁jɛnsɛn	-2406
▁sunguruw	-2407
▁taamacogo	-2408
▁sungurunin	-2409
bé	-2410
▁¿	-2411
dɔn	-2412
▁dɔ̀n	-2413
maniya	-2414
▁firiya	-2415
▁muruku	-2416
▁dadonkumaw	-2417
mp	-2418
kala	-2419
tiɲè	-2420
▁aje	-2421
▁need	-2422
▁ɲinan	-2423
▁dadili	-2424
▁natuma	-2425
▁miliyɔn	-2426
fɛɛn	-2427
▁win	-2428
▁tradu	-2429
adamaden	-2430
▁kuntigiba	-2431
faw	-2432
joy	-2433
tah	-2434
▁dù	-2435
▁ado	-2436
▁ere	-2437
▁basa	-2438
▁saalo	-2439
▁kɔrɔsi	-2440
▁mɛɛnna	-2441
ang	-2442
tch	-2443
rusa	-2444
tani	-2445
▁mak	-2446
▁sèbèn	-2447
▁cikura	-2448
▁kɔgɔji	-2449
▁sɔrɔko	-2450
▁wajibiya	-2451
dio	-2452
rɔdi	-2453
wara	-2454
▁poro	-2455
▁samu	-2456
▁tobi	-2457
▁yisa	-2458
▁enjoy	-2459
▁years	-2460
▁damina	-2461
▁diiman	-2462
sé	-2463
▁pun	-2464
▁maza	-2465
▁nayi	-2466
ugunin	-2467
▁verse	-2468
▁woilu	-2469
▁ntalen	-2470
▁mɔgɔɲuman	-2471
--	-2472
yiri	-2473
▁aint	-2474
▁foli	-2475
minanw	-2476
▁ɲinibagaw	-2477
rai	-2478
rika	-2479
▁dam	-2480
▁ile	-2481
aniya	-2482
▁bama	-2483
▁hakɛw	-2484
▁tɔɔrɔla	-2485
sarakalasebagaw	-2486
gun	-2487
lɛkɛ	-2488
▁wusu	-2489
mɛlɛkɛ	-2490
wulanan	-2491
▁salenw	-2492
▁tilennenya	-2493
▁wolonwulanan	-2494
lun	-2495
sto	-2496
▁yg	-2497
tali	-2498
zuda	-2499
▁cik	-2500
▁yɛ̃	-2501
yanni	-2502
▁afuɛ	-2503
▁alij	-2504
▁dùgu	-2505
▁sôrô	-2506
▁tryina	-2507
▁wulafɛ	-2508
▁sarakabɔ	-2509
nw	-2510
▁tuu	-2511
▁mboo	-2512
▁siko	-2513
somɔgɔ	-2514
▁jasin	-2515
▁kuluw	-2516
▁lɔnko	-2517
▁mùnna	-2518
▁makoya	-2519
▁muntah	-2520
▁susuli	-2521
▁halakili	-2522
▁kalandensomɔgɔ	-2523
kri	-2524
▁sì	-2525
lɛki	-2526
▁pol	-2527
▁the	-2528
▁kélé	-2529
▁penda	-2530
▁karaba	-2531
▁dumuniba	-2532
▁karamògò	-2533
ber	-2534
▁sh	-2535
mori	-2536
▁non	-2537
▁duga	-2538
▁gayi	-2539
▁says	-2540
▁zezi	-2541
▁zɔbu	-2542
▁jùmɛn	-2543
▁lazari	-2544
▁boɲafɛn	-2545
▁sà	-2546
enen	-2547
gali	-2548
▁ana	-2549
▁ɲɛsin	-2550
▁banana	-2551
▁dafara	-2552
▁manamana	-2553
rc	-2554
▁jò	-2555
yaan	-2556
minan	-2557
ɛlɛya	-2558
▁fisaya	-2559
▁alijɛnɛ	-2560
▁ɲasiran	-2561
▁murutili	-2562
▁kelennama	-2563
son	-2564
èbè	-2565
▁suf	-2566
▁gèlè	-2567
▁simɔn	-2568
▁yirala	-2569
▁lakolon	-2570
▁limaniya	-2571
▁jalakibali	-2572
ts	-2573
zɛ	-2574
far	-2575
gra	-2576
nii	-2577
ting	-2578
▁aza	-2579
▁bira	-2580
▁kanw	-2581
▁poli	-2582
▁wafa	-2583
▁fariya	-2584
▁dumunifɛn	-2585
▁<	-2586
bou	-2587
▁st	-2588
▁bere	-2589
▁sina	-2590
▁sɔgɔ	-2591
ugugwɛ	-2592
▁baliw	-2593
▁dingɛ	-2594
▁nazarɛti	-2595
▁sɔgɔmada	-2596
▁+	-2597
▁bib	-2598
▁gwa	-2599
▁joow	-2600
▁cɛnni	-2601
▁domuni	-2602
▁filila	-2603
▁kɔgɔdugu	-2604
▁traduction	-2605
▁dɛsɛbagatɔw	-2606
rn	-2607
dee	-2608
▁bam	-2609
▁ble	-2610
▁dah	-2611
▁tee	-2612
▁bloo	-2613
▁seenw	-2614
▁fagali	-2615
▁gwɛnin	-2616
▁sɛbɛnna	-2617
▁karamɔgɔw	-2618
au	-2619
▁ou	-2620
▁ask	-2621
gonin	-2622
▁lady	-2623
▁pero	-2624
▁tuba	-2625
▁fitin	-2626
▁jɔnya	-2627
▁sugan	-2628
▁zeremi	-2629
▁kɔrɔtalen	-2630
▁fangatigiw	-2631
▁ik	-2632
tile	-2633
ɲana	-2634
gɛnin	-2635
▁kaga	-2636
▁fɔlɔw	-2637
▁yuhana	-2638
▁kalanso	-2639
▁taayɔrɔ	-2640
▁wusulan	-2641
gba	-2642
hoo	-2643
▁nn	-2644
kiki	-2645
siga	-2646
▁all	-2647
▁bus	-2648
▁gar	-2649
▁ken	-2650
▁dece	-2651
▁long	-2652
▁fanin	-2653
▁gbɛrɛ	-2654
▁karoo	-2655
▁saved	-2656
▁nimisa	-2657
▁misiran	-2658
▁kɛmɛkulu	-2659
ld	-2660
▁gɛ	-2661
kogo	-2662
▁sar	-2663
▁....	-2664
▁fast	-2665
▁fata	-2666
▁danga	-2667
▁dunya	-2668
▁girin	-2669
▁kpuro	-2670
▁bisaba	-2671
▁finman	-2672
▁hanbun	-2673
▁yɛrɛboɲa	-2674
enu	-2675
▁nɑ	-2676
▁nou	-2677
denya	-2678
▁bare	-2679
▁inbe	-2680
▁bɛgɛn	-2681
▁kɛrɛn	-2682
kuntigi	-2683
▁ngalon	-2684
▁murukuw	-2685
▁kerecɛnw	-2686
▁sinɔgɔra	-2687
▁kou	-2688
ɔrɔgɔ	-2689
▁yaga	-2690
▁kolɔn	-2691
▁sijan	-2692
▁fitinɛ	-2693
▁layɔrɔ	-2694
▁nilifɛn	-2695
té	-2696
ali	-2697
bɛɛ	-2698
▁kis	-2699
▁ɲimi	-2700
▁kɔrɔla	-2701
▁kɛwali	-2702
▁kɛwalew	-2703
▁kunmabɔsara	-2704
rea	-2705
▁ow	-2706
▁yɔ	-2707
hima	-2708
▁agak	-2709
kunbɛn	-2710
▁makin	-2711
▁month	-2712
jɛ	-2713
sh	-2714
lor	-2715
rou	-2716
ugo	-2717
▁ag	-2718
sɔli	-2719
▁kag	-2720
▁kɛn	-2721
▁lalɔ	-2722
▁lani	-2723
▁toke	-2724
▁wana	-2725
▁butun	-2726
▁kɛlɛden	-2727
▁miirila	-2728
▁gwɛlɛyaw	-2729
src	-2730
▁um	-2731
yala	-2732
▁kle	-2733
▁sta	-2734
▁ɛsi	-2735
▁cèma	-2736
▁mase	-2737
▁sabe	-2738
▁kibaa	-2739
diyanin	-2740
▁danfɛn	-2741
▁lajɛnw	-2742
▁jaabiliw	-2743
▁bololafɛnw	-2744
ssé	-2745
▁od	-2746
likɛ	-2747
tɛri	-2748
▁bawo	-2749
▁dògò	-2750
▁show	-2751
▁togo	-2752
▁nyɔgɔn	-2753
▁bamanan	-2754
▁makinwa	-2755
▁nafoloba	-2756
▁terisɔbɛw	-2757
▁sarakabɔyɔrɔ	-2758
▁mɔgɔtilenninw	-2759
pic	-2760
tri	-2761
gana	-2762
sɛgɛ	-2763
wisi	-2764
runan	-2765
▁maka	-2766
garamu	-2767
▁kinin	-2768
▁cɛfari	-2769
day	-2770
per	-2771
▁fuu	-2772
▁kɛɛ	-2773
▁kilo	-2774
▁maro	-2775
▁batoso	-2776
▁badenma	-2777
▁denmisèn	-2778
ink	-2779
▁doni	-2780
▁kènè	-2781
▁zuru	-2782
▁woron	-2783
▁tintin	-2784
▁fiɲɛntɔ	-2785
▁kɔnɔntɔn	-2786
▁tilenbaliya	-2787
ìn	-2788
iri	-2789
bura	-2790
▁fag	-2791
ɔgɔmɛ	-2792
▁koun	-2793
▁kèlè	-2794
▁lata	-2795
▁yɛgɛ	-2796
▁sarah	-2797
▁nagasi	-2798
▁zurudɛn	-2799
▁fariziɲɛw	-2800
ɲɔgɔnkanuya	-2801
▁banabagatɔw	-2802
fèn	-2803
gue	-2804
ɔri	-2805
mari	-2806
▁foo	-2807
▁hin	-2808
▁moon	-2809
ɔrɔnya	-2810
▁dɔgɔn	-2811
▁lasigi	-2812
▁jumalon	-2813
▁sagaden	-2814
▁tagaman	-2815
ugugwɛdafɛ	-2816
▁faranfasi	-2817
▁miligaramu	-2818
▁fé	-2819
▁mata	-2820
▁nian	-2821
▁tchè	-2822
▁maria	-2823
▁yinni	-2824
▁gban	-2825
▁lang	-2826
krista	-2827
▁talon	-2828
▁topic	-2829
▁misira	-2830
▁tubabu	-2831
▁lafiɲɛlon	-2832
tio	-2833
yee	-2834
▁bas	-2835
▁kpɑ	-2836
▁koni	-2837
▁naxa	-2838
▁asiri	-2839
▁diina	-2840
▁fòlen	-2841
▁nankɔ	-2842
▁latigè	-2843
▁nyuman	-2844
▁daganin	-2845
▁setigiw	-2846
▁sɛgɛsɛgɛ	-2847
isirayɛlidenw	-2848
tini	-2849
▁than	-2850
▁talen	-2851
▁minanw	-2852
▁nowɛli	-2853
▁baaradenw	-2854
isi	-2855
muna	-2856
yusi	-2857
zuwe	-2858
▁noo	-2859
kinin	-2860
▁amun	-2861
▁bobo	-2862
▁buka	-2863
▁efara	-2864
▁yalor	-2865
▁fransi	-2866
▁masakè	-2867
▁yamaan	-2868
▁fagakun	-2869
▁teliman	-2870
il	-2871
ful	-2872
row	-2873
baba	-2874
gban	-2875
yôrô	-2876
▁bri	-2877
▁kas	-2878
▁lko	-2879
▁tòw	-2880
▁yar	-2881
▁aloo	-2882
▁bori	-2883
▁tɛma	-2884
▁jakuma	-2885
▁months	-2886
▁saamori	-2887
▁senumanw	-2888
▁wasabali	-2889
▁bamanankan	-2890
▁las	-2891
▁lat	-2892
▁kôrô	-2893
▁finita	-2894
▁lkoinw	-2895
▁jɔnmuso	-2896
▁yòrònin	-2897
▁tɛmɛnnen	-2898
▁jɛnɲɔgɔnya	-2899
▁q	-2900
lly	-2901
ɔgwɛ	-2902
▁ada	-2903
▁dɔɔ	-2904
▁kayi	-2905
▁koyi	-2906
▁mere	-2907
▁sela	-2908
▁kɔnin	-2909
▁sabia	-2910
▁dɔɔnin	-2911
▁gèlèya	-2912
▁kisira	-2913
▁mowabu	-2914
▁tigɛra	-2915
▁sagajigi	-2916
▁kumaɲɔgɔnya	-2917
▁kɛlɛkɛminanw	-2918
faa	-2919
bɛli	-2920
▁tru	-2921
▁tùn	-2922
▁yon	-2923
▁dɔrɔ	-2924
▁para	-2925
▁sèbè	-2926
▁kosèbè	-2927
▁longer	-2928
lô	-2929
▁•	-2930
bie	-2931
guè	-2932
mbu	-2933
▁ami	-2934
▁dia	-2935
▁eza	-2936
▁gen	-2937
kelen	-2938
▁lamɔ	-2939
▁edɔmu	-2940
▁dajuru	-2941
▁djamana	-2942
▁kanulen	-2943
▁teliyara	-2944
▁ɲènamaya	-2945
rum	-2946
▁pè	-2947
tekɔ	-2948
▁few	-2949
▁que	-2950
▁anin	-2951
▁dala	-2952
▁labɔ	-2953
▁labila	-2954
▁sɔgɔmadafɛ	-2955
am	-2956
▁“	-2957
▁bòn	-2958
▁edi	-2959
tɔɔrɔ	-2960
▁gbɔn	-2961
▁kaun	-2962
▁kila	-2963
zuwifu	-2964
▁biblu	-2965
▁kɛyɔrɔ	-2966
et	-2967
rè	-2968
̀rɔ	-2969
▁cɛ̀	-2970
▁mat	-2971
diyan	-2972
▁batɛ	-2973
▁bɔgɔ	-2974
▁hèrè	-2975
▁labi	-2976
▁odds	-2977
▁beyen	-2978
▁dating	-2979
▁saninw	-2980
▁kowagarazu	-2981
▁gn	-2982
▁sù	-2983
kèla	-2984
▁bwe	-2985
▁gbe	-2986
▁bɔni	-2987
▁jogo	-2988
▁sala	-2989
▁vɛri	-2990
ugulan	-2991
▁leele	-2992
▁weeks	-2993
▁muɲuli	-2994
▁wagatiw	-2995
▁cɛkɔrɔba	-2996
ria	-2997
sia	-2998
ung	-2999
hara	-3000
inya	-3001
▁bai	-3002
▁anti	-3003
▁jaaw	-3004
▁meri	-3005
▁pari	-3006
▁tcha	-3007
▁ɲɛyi	-3008
yɛlɛma	-3009
▁vɛrise	-3010
▁kibaari	-3011
▁duurunan	-3012
▁telefɔni	-3013
▁denmisènw	-3014
▁mɔgɔfagala	-3015
_.	-3016
kh	-3017
ua	-3018
daw	-3019
ɔna	-3020
▁lì	-3021
▁sw	-3022
body	-3023
gwan	-3024
kite	-3025
▁dum	-3026
▁bɛrɛ	-3027
▁fair	-3028
▁jala	-3029
▁jang	-3030
▁jera	-3031
▁kofɔ	-3032
▁koro	-3033
▁tigè	-3034
▁tôgô	-3035
▁bwisi	-3036
▁zonasi	-3037
▁lonanya	-3038
bii	-3039
kɛn	-3040
daga	-3041
▁._.	-3042
▁kod	-3043
janin	-3044
▁kizu	-3045
▁sɔsɔ	-3046
▁sebari	-3047
▁tericɛ	-3048
▁tuguni	-3049
▁farafin	-3050
▁nyininka	-3051
▁furuɲɔgɔn	-3052
aan	-3053
yon	-3054
▁tà	-3055
▁cor	-3056
▁gna	-3057
▁kor	-3058
▁ngɔ	-3059
toolu	-3060
▁hate	-3061
▁janfa	-3062
▁maraw	-3063
▁dayɛlɛ	-3064
▁bangebagaw	-3065
'.	-3066
xo	-3067
eli	-3068
low	-3069
tes	-3070
ìla	-3071
ɔrɛ	-3072
▁wù	-3073
ssed	-3074
sɛli	-3075
▁kli	-3076
▁lai	-3077
▁sti	-3078
▁best	-3079
▁kablo	-3080
▁tando	-3081
▁fanŋga	-3082
▁mɔgɔbalu	-3083
▁ɲagamina	-3084
▁fix	-3085
▁hii	-3086
▁fòra	-3087
▁gnan	-3088
▁logo	-3089
▁natɔ	-3090
▁wale	-3091
▁yoli	-3092
▁aloof	-3093
kitemba	-3094
▁israèl	-3095
▁kolati	-3096
▁lafiya	-3097
▁miseli	-3098
▁mɔɔilu	-3099
▁kotoolu	-3100
▁samuyɛli	-3101
▁sekitemba	-3102
ŋɔ	-3103
daan	-3104
hone	-3105
▁nye	-3106
▁look	-3107
diyara	-3108
▁bolow	-3109
▁bɛɛri	-3110
▁lafili	-3111
▁senuma	-3112
▁juguman	-3113
▁jurumuw	-3114
▁yɑ	-3115
dala	-3116
kunu	-3117
▁bua	-3118
▁sam	-3119
▁fiye	-3120
▁fɔxɔ	-3121
▁sɔng	-3122
nongon	-3123
▁gofɛr	-3124
▁kuman	-3125
▁sagaw	-3126
▁dugumɔgɔw	-3127
▁kongosogo	-3128
din	-3129
rna	-3130
▁nè	-3131
raid	-3132
▁afi	-3133
▁kpĩ	-3134
▁kui	-3135
▁low	-3136
▁famo	-3137
▁hero	-3138
▁tɔɔn	-3139
▁fanta	-3140
inabasi	-3141
▁afraid	-3142
▁dennin	-3143
▁hadama	-3144
▁sabemos	-3145
▁dusukunna	-3146
▁barikamanw	-3147
▁ɛn	-3148
▁chi	-3149
▁pre	-3150
▁diko	-3151
▁gwen	-3152
▁hehe	-3153
▁karo	-3154
▁kɛta	-3155
▁titi	-3156
bariya	-3157
▁benna	-3158
▁swali	-3159
biesage	-3160
▁kasadi	-3161
▁single	-3162
▁kabirin	-3163
▁zonatan	-3164
▁kantigiya	-3165
▁ɲagaminin	-3166
▁mboobiesage	-3167
lie	-3168
ushi	-3169
▁cap	-3170
▁one	-3171
▁shi	-3172
▁domu	-3173
▁kena	-3174
▁mɔni	-3175
▁ruti	-3176
▁tran	-3177
hɔrɔnya	-3178
ɲasiran	-3179
▁jamanaw	-3180
▁labanna	-3181
▁kizuushi	-3182
▁ɲɛyirali	-3183
ŋɛ	-3184
kab	-3185
nge	-3186
taa	-3187
tɛɛ	-3188
▁dr	-3189
bowa	-3190
loni	-3191
unan	-3192
womi	-3193
▁jon	-3194
kèlaw	-3195
tiona	-3196
▁jusu	-3197
▁lage	-3198
foroko	-3199
gɛninw	-3200
▁fɛɛnw	-3201
▁video	-3202
▁eburuw	-3203
▁teriya	-3204
▁kabakoma	-3205
▁tununinw	-3206
▁latigɛnin	-3207
dugugwɛdafɛ	-3208
▁up	-3209
giri	-3210
heli	-3211
yɔti	-3212
▁mai	-3213
▁xan	-3214
▁bòra	-3215
▁liban	-3216
▁nyana	-3217
▁edited	-3218
▁kɔrɔfɔ	-3219
▁ezipitikaw	-3220
?'	-3221
pɛ	-3222
uh	-3223
masu	-3224
pama	-3225
usso	-3226
▁!!!	-3227
▁bàa	-3228
▁eye	-3229
▁get	-3230
gramu	-3231
ininw	-3232
kurun	-3233
▁bann	-3234
▁draw	-3235
▁jiba	-3236
▁mɔru	-3237
▁sako	-3238
▁soɲa	-3239
mannin	-3240
▁dungu	-3241
▁ibura	-3242
▁jɔncɛ	-3243
▁mɔ̀gɔ	-3244
▁daraka	-3245
▁zozuwe	-3246
▁ezekiel	-3247
▁tileben	-3248
▁fantanya	-3249
▁halakira	-3250
gb	-3251
▁ù	-3252
jii	-3253
▁tv	-3254
gwen	-3255
tika	-3256
tɛli	-3257
▁top	-3258
▁gèrè	-3259
▁sawa	-3260
dafanin	-3261
▁nafama	-3262
▁welela	-3263
▁gbasaya	-3264
▁ladiliw	-3265
▁mansaya	-3266
denyabolo	-3267
▁porogramu	-3268
!›	-3269
εε	-3270
▁eka	-3271
▁esu	-3272
▁lal	-3273
▁nos	-3274
▁zhe	-3275
xanŋo	-3276
▁mute	-3277
▁tutu	-3278
▁fiyewu	-3279
▁jamaba	-3280
▁mannin	-3281
▁sinayi	-3282
▁sɔtɔma	-3283
▁ŋaniya	-3284
adamadenw	-3285
▁gwengwen	-3286
▁sigasiga	-3287
sòn	-3288
▁uf	-3289
▁azi	-3290
▁coo	-3291
▁djo	-3292
▁kee	-3293
▁lar	-3294
▁pɔr	-3295
▁kaɲi	-3296
▁umpama	-3297
▁nalonma	-3298
▁kibaruya	-3299
▁farafinna	-3300
▁galontigɛ	-3301
▁fadenyabolo	-3302
by	-3303
ŋa	-3304
koe	-3305
lee	-3306
▁fà	-3307
▁ligi	-3308
▁time	-3309
misɛnw	-3310
▁comme	-3311
▁daman	-3312
▁egili	-3313
▁thank	-3314
▁tanuli	-3315
▁ɲɔgɔmɛ	-3316
▁birancɛ	-3317
▁minnifɛn	-3318
▁sinikɛnɛ	-3319
▁alaɲasiran	-3320
rr	-3321
doo	-3322
soo	-3323
ɛni	-3324
▁kh	-3325
▁má	-3326
line	-3327
risi	-3328
▁lɛɛ	-3329
laban	-3330
▁dili	-3331
▁sann	-3332
▁yeuh	-3333
▁ɲada	-3334
▁diyan	-3335
▁dòròn	-3336
▁fixes	-3337
▁maman	-3338
▁batoli	-3339
▁duguba	-3340
▁filipi	-3341
▁yafara	-3342
▁yanfan	-3343
▁faamuya	-3344
▁masacɛw	-3345
▁dusukunw	-3346
▁folofolo	-3347
▁adamadenya	-3348
fò	-3349
pre	-3350
▁ay	-3351
▁kê	-3352
▁ase	-3353
▁boro	-3354
kisili	-3355
tekɔti	-3356
ziyasi	-3357
▁alako	-3358
▁findi	-3359
▁jigitɔ	-3360
▁kɔkɛnɛ	-3361
▁kɔɲɔya	-3362
▁lahara	-3363
▁dugunin	-3364
▁lasigiden	-3365
▁woronwula	-3366
▁barikatanw	-3367
▁nazarɛtika	-3368
▁karamɔgɔdenw	-3369
ary	-3370
dea	-3371
gen	-3372
▁lô	-3373
dali	-3374
sɔtɔ	-3375
tɛrɛ	-3376
▁ena	-3377
▁kie	-3378
▁nìn	-3379
ssage	-3380
▁bian	-3381
▁jɛgɛ	-3382
▁yuun	-3383
mankan	-3384
▁chine	-3385
▁nataw	-3386
▁betɛli	-3387
▁dɛsɛra	-3388
▁yaraga	-3389
kariyɔti	-3390
▁amasɔtɔ	-3391
▁jiginni	-3392
pantekɔti	-3393
▁kasodenw	-3394
▁israɛldenw	-3395
▁「	-3396
▁et	-3397
hɛrɛ	-3398
▁dao	-3399
▁yeh	-3400
▁bile	-3401
▁gɔɔn	-3402
fitini	-3403
kɔrɔta	-3404
kɛyɔrɔ	-3405
▁banan	-3406
▁boleh	-3407
▁inter	-3408
▁lɔnni	-3409
▁tɔɔrɔw	-3410
▁fɛntigi	-3411
▁dubadenw	-3412
▁farisiènw	-3413
▁firiyamuso	-3414
sie	-3415
ɛli	-3416
fili	-3417
muru	-3418
sito	-3419
▁klo	-3420
lenya	-3421
▁bada	-3422
▁lasɔ	-3423
▁sika	-3424
▁xili	-3425
bowamu	-3426
▁kwlaa	-3427
▁kɔnɔw	-3428
▁lenen	-3429
▁yafali	-3430
robowamu	-3431
▁dogonin	-3432
▁labɛnna	-3433
▁message	-3434
▁tumajan	-3435
lɔnbariya	-3436
▁jalakiyɔrɔ	-3437
rk	-3438
sè	-3439
ked	-3440
djan	-3441
▁ikɔ	-3442
▁kal	-3443
▁lay	-3444
▁mio	-3445
▁aman	-3446
▁baka	-3447
▁face	-3448
▁banba	-3449
▁cɛnna	-3450
▁erɔdi	-3451
▁tolon	-3452
▁nobody	-3453
▁saheli	-3454
▁sarakaw	-3455
▁sirikaw	-3456
▁hamijuguw	-3457
▁makoyafɛn	-3458
▁isikariyɔti	-3459
▁siralɔnbariya	-3460
▁hakilitigiyako	-3461
men	-3462
ssa	-3463
xun	-3464
ŋgo	-3465
▁cin	-3466
▁kai	-3467
▁lin	-3468
▁blan	-3469
▁dari	-3470
▁fɔli	-3471
▁moto	-3472
▁nugu	-3473
▁ɲuma	-3474
▁kelly	-3475
▁ninja	-3476
▁think	-3477
▁miriya	-3478
▁ɲagamini	-3479
▁dògòmannin	-3480
▁sigiɲɔgɔnw	-3481
▁jen	-3482
▁lak	-3483
rinin	-3484
zamɛn	-3485
▁boyd	-3486
▁munu	-3487
▁sume	-3488
▁wulu	-3489
▁yili	-3490
ɲasigi	-3491
▁alive	-3492
▁bukak	-3493
▁bulon	-3494
▁sɔnni	-3495
▁sɛgɛn	-3496
▁jijara	-3497
▁diyanye	-3498
▁sugandi	-3499
▁gofɛrɛnɛ	-3500
▁kɛnɛkɛnɛ	-3501
▁kanbelenw	-3502
▁sɔlidasiw	-3503
▁siniɲasigi	-3504
fô	-3505
ɛnu	-3506
▁ky	-3507
▁va	-3508
▁kàra	-3509
▁lalo	-3510
▁papa	-3511
▁kunko	-3512
▁kunti	-3513
▁tugur	-3514
▁yɛrɛw	-3515
▁nalomanya	-3516
▁ɲɔgɔnkunbɛn	-3517
;)	-3518
gt	-3519
iw	-3520
mɑ	-3521
dun	-3522
fun	-3523
ser	-3524
tta	-3525
kisɛ	-3526
yɔsi	-3527
▁dal	-3528
▁hou	-3529
▁mom	-3530
inama	-3531
▁alon	-3532
▁fare	-3533
▁gnin	-3534
▁mugu	-3535
▁falen	-3536
▁selen	-3537
▁goyara	-3538
▁kɔrɔkɛ	-3539
▁sigama	-3540
▁ɲɛsinna	-3541
▁kabakuruw	-3542
▁ih	-3543
foyi	-3544
reli	-3545
▁ata	-3546
▁aya	-3547
▁eni	-3548
▁fɛɛ	-3549
▁iya	-3550
▁join	-3551
▁mago	-3552
▁tani	-3553
▁tesa	-3554
▁yiiko	-3555
▁baraka	-3556
▁konnon	-3557
▁kɔrɔgɔ	-3558
▁wariko	-3559
▁ameriki	-3560
▁barokun	-3561
▁gnongon	-3562
▁sanbɛrɛ	-3563
▁sɛnɛkɛlaw	-3564
hou	-3565
diri	-3566
lɔgɔ	-3567
wiin	-3568
▁kit	-3569
▁sea	-3570
▁bulu	-3571
▁dila	-3572
▁gila	-3573
▁sana	-3574
▁fitini	-3575
▁sanngɛ	-3576
▁sɔsɔli	-3577
▁tagatɔ	-3578
▁yèlèma	-3579
▁zowabu	-3580
▁kɔnɔfɛnw	-3581
▁lafiɲɛna	-3582
▁murutira	-3583
▁efarayimu	-3584
▁ɲininkali	-3585
▁kolatigɛninw	-3586
▁ñ	-3587
der	-3588
gga	-3589
see	-3590
▁mù	-3591
ɔrɔm	-3592
▁aaj	-3593
▁not	-3594
▁yuu	-3595
meyɔn	-3596
minnu	-3597
▁jaan	-3598
▁jɔrɔ	-3599
▁kɛlen	-3600
▁niman	-3601
▁nòòrò	-3602
bɛɛtigi	-3603
▁dabari	-3604
▁flanan	-3605
▁nawomi	-3606
▁kojuguw	-3607
▁balimakè	-3608
▁dafaninw	-3609
▁ɲanamanw	-3610
▁isirayɛliden	-3611
ft	-3612
dji	-3613
olo	-3614
tɔɔ	-3615
▁!!	-3616
▁bâ	-3617
nata	-3618
fɛɛrɛ	-3619
tanga	-3620
▁djan	-3621
▁file	-3622
▁kisɛ	-3623
▁nini	-3624
▁rafi	-3625
▁uflɛ	-3626
▁want	-3627
▁konon	-3628
▁punta	-3629
▁jerusa	-3630
▁lɔnnin	-3631
▁tinxin	-3632
▁wiwiin	-3633
▁kitabuw	-3634
èrèn	-3635
▁sim	-3636
▁afri	-3637
▁nako	-3638
▁nala	-3639
▁sɔɔn	-3640
▁tili	-3641
dumuni	-3642
kabini	-3643
▁banta	-3644
▁benin	-3645
▁dɛmɛn	-3646
▁kɔndɔ	-3647
gilikan	-3648
▁bilara	-3649
▁ninnge	-3650
▁sranan	-3651
▁yalaka	-3652
▁latigèra	-3653
▁angilikan	-3654
ŋgɛ	-3655
▁dé	-3656
▁tù	-3657
deya	-3658
rien	-3659
yabi	-3660
▁nen	-3661
▁test	-3662
▁bwese	-3663
▁danni	-3664
▁mɛnilu	-3665
▁dinkira	-3666
▁kunkɔrɔta	-3667
▁barinabasi	-3668
it	-3669
joo	-3670
ɲɔn	-3671
liki	-3672
▁bal	-3673
▁gak	-3674
gwɛrɛ	-3675
tongo	-3676
▁basi	-3677
▁kiss	-3678
▁kunn	-3679
▁luti	-3680
▁wali	-3681
▁wuri	-3682
▁birth	-3683
▁gundo	-3684
▁minɛn	-3685
olution	-3686
▁dondaw	-3687
▁ladege	-3688
▁videwo	-3689
▁yɛlɛtɔ	-3690
▁kisibaa	-3691
▁sangaso	-3692
▁kɔrɔbɔli	-3693
▁kabaforoko	-3694
▁hakilitigiw	-3695
▁sranantongo	-3696
▁nisɔndiyanin	-3697
!'	-3698
)?	-3699
res	-3700
siyɔn	-3701
▁deci	-3702
▁gala	-3703
▁kako	-3704
▁mɔnɛ	-3705
piyɛri	-3706
▁abisa	-3707
▁dimin	-3708
▁salon	-3709
▁sigui	-3710
▁yiriw	-3711
tigɛkan	-3712
▁kɛnɛma	-3713
▁labato	-3714
▁sodɔmu	-3715
▁fariman	-3716
▁telefon	-3717
▁yɛlɛmani	-3718
▁alemankan	-3719
▁evolution	-3720
▁pɔrtigɛkan	-3721
ed	-3722
ur	-3723
àa	-3724
ila	-3725
ken	-3726
▁mɑ	-3727
▁ok	-3728
▁xd	-3729
▁xɔ	-3730
▁ate	-3731
▁aur	-3732
▁cèw	-3733
▁hen	-3734
babaw	-3735
▁baby	-3736
▁bɔbɔ	-3737
▁datu	-3738
▁fama	-3739
▁hana	-3740
▁lɔli	-3741
▁sali	-3742
▁senw	-3743
lamanw	-3744
likɛla	-3745
▁kɔ̀rɔ	-3746
▁youtu	-3747
▁faamuna	-3748
▁tesaloni	-3749
▁karamògòw	-3750
,,	-3751
hs	-3752
̃ɔ	-3753
▁ɓ	-3754
aali	-3755
nɔgɔ	-3756
pero	-3757
zira	-3758
▁aku	-3759
▁oli	-3760
▁roo	-3761
fɛnnɛ	-3762
▁idea	-3763
▁list	-3764
▁tɔrɔ	-3765
kɔrɔnin	-3766
▁batoko	-3767
▁kɔrɔtɔ	-3768
▁tchogo	-3769
▁cɛɲuman	-3770
▁fariyara	-3771
▁sagonata	-3772
▁samarikaw	-3773
▁tintinnin	-3774
▁laminikogo	-3775
▁ninsɔndiya	-3776
ow	-3777
ɛr	-3778
golu	-3779
▁dak	-3780
▁kum	-3781
▁let	-3782
▁nna	-3783
▁pla	-3784
▁gana	-3785
▁laxi	-3786
▁sili	-3787
▁tchi	-3788
▁sanda	-3789
▁sɔbɛw	-3790
denninw	-3791
▁jaatika	-3792
▁birthday	-3793
▁dɔnkiliw	-3794
▁ɲamɔgɔya	-3795
um	-3796
tee	-3797
▁ea	-3798
▁pɔ	-3799
gnan	-3800
siya	-3801
stan	-3802
▁mɔg	-3803
▁ona	-3804
▁paa	-3805
▁kene	-3806
▁kɛtɔ	-3807
▁rich	-3808
▁tomo	-3809
▁yɛtɛ	-3810
▁zira	-3811
▁akala	-3812
▁kanun	-3813
▁kunba	-3814
▁boɲana	-3815
▁ikomin	-3816
▁lasɔmi	-3817
▁marifa	-3818
zirayɛli	-3819
▁lakɔlifa	-3820
dé	-3821
ud	-3822
awu	-3823
▁ap	-3824
▁yàn	-3825
kɔrɔw	-3826
▁bɛti	-3827
▁tɔnu	-3828
▁yiru	-3829
dennin	-3830
▁dunun	-3831
▁kooba	-3832
▁kungo	-3833
▁london	-3834
▁sendon	-3835
▁isireli	-3836
▁lalofuɛ	-3837
▁sigɛnna	-3838
▁antiyɔsi	-3839
▁wolonfila	-3840
":	-3841
"?	-3842
:'	-3843
mii	-3844
ders	-3845
kiba	-3846
tist	-3847
▁ahi	-3848
▁por	-3849
▁ser	-3850
▁duzu	-3851
▁kiye	-3852
▁wùlu	-3853
besaba	-3854
▁gotta	-3855
▁kanne	-3856
▁kimasu	-3857
▁fɔɲɔbana	-3858
▁bololafɛn	-3859
▁filipikaw	-3860
▁yó	-3861
dɛli	-3862
manu	-3863
ngue	-3864
tand	-3865
▁cre	-3866
▁pya	-3867
▁ste	-3868
▁batu	-3869
▁muxu	-3870
▁sain	-3871
▁unto	-3872
yakuba	-3873
▁ladki	-3874
▁barima	-3875
▁unders	-3876
▁cɛfariw	-3877
▁kobabaw	-3878
▁kɛwaati	-3879
▁nafaman	-3880
▁mamadenw	-3881
▁sɔlidasi	-3882
▁ɲagaliba	-3883
▁izirayɛli	-3884
▁saniyanin	-3885
__	-3886
cs	-3887
des	-3888
sso	-3889
▁by	-3890
▁bag	-3891
▁bat	-3892
▁dɛɛ	-3893
ginan	-3894
▁atun	-3895
▁kata	-3896
▁lest	-3897
▁nòfè	-3898
▁wehe	-3899
tional	-3900
▁ainun	-3901
▁kolow	-3902
▁miira	-3903
gwɛlɛya	-3904
▁jatira	-3905
▁litigi	-3906
▁saying	-3907
▁bɛnzamɛn	-3908
▁dɔgɔmuso	-3909
▁kuluyɔrɔ	-3910
▁tɔɲɔgɔnw	-3911
▁badenmailu	-3912
uw	-3913
▁›	-3914
▁→	-3915
daa	-3916
duw	-3917
▁us	-3918
▁wè	-3919
dise	-3920
mbro	-3921
ɲini	-3922
▁bis	-3923
▁eko	-3924
▁jɔɔ	-3925
▁lòn	-3926
▁sɔm	-3927
feere	-3928
lanin	-3929
▁buku	-3930
▁diye	-3931
▁soba	-3932
▁turu	-3933
▁daari	-3934
▁lasun	-3935
▁ngɔ̀n	-3936
▁bamako	-3937
▁jɔrɔkɔ	-3938
▁laxira	-3939
▁girɛkiw	-3940
▁kunsigi	-3941
▁misiden	-3942
fariziɲɛw	-3943
▁understand	-3944
▁xɛ	-3945
kɔra	-3946
mber	-3947
waga	-3948
ɲuma	-3949
▁esa	-3950
▁eti	-3951
▁sis	-3952
▁suw	-3953
▁tij	-3954
▁uni	-3955
▁jabi	-3956
▁kuwo	-3957
▁neni	-3958
▁sada	-3959
▁tɛgɛ	-3960
▁kouma	-3961
▁kônôn	-3962
▁masih	-3963
▁dɔgɔma	-3964
▁kookoo	-3965
▁labɛnw	-3966
▁pilati	-3967
▁tilara	-3968
▁ɲɔgɔnye	-3969
▁batisera	-3970
▁dafabaliw	-3971
▁kɔ̀rɔmuso	-3972
▁sebagayabɛɛtigi	-3973
▁|	-3974
▁ly	-3975
▁xe	-3976
dina	-3977
lubi	-3978
mogɔ	-3979
sisi	-3980
tung	-3981
zawu	-3982
▁fai	-3983
▁gèn	-3984
▁haw	-3985
▁hon	-3986
▁keh	-3987
▁kɔ̃	-3988
▁les	-3989
limaw	-3990
▁came	-3991
▁hoti	-3992
▁jèya	-3993
▁kadi	-3994
▁kèla	-3995
▁mati	-3996
▁tinɛ	-3997
gwɛlɛn	-3998
▁bɛmaw	-3999
▁eligi	-4000
▁galen	-4001
▁nyini	-4002
▁famous	-4003
▁pasito	-4004
▁sewara	-4005
▁soɲali	-4006
▁yulubi	-4007
▁yɔrɔla	-4008
▁yɛlema	-4009
▁ɛrɛzɛn	-4010
▁deliliw	-4011
▁jɛnitaw	-4012
▁wotorow	-4013
▁dònbaliw	-4014
▁kàramogɔ	-4015
tɔnkuntigi	-4016
▁gofɛrɛnɛman	-4017
oz	-4018
van	-4019
èma	-4020
̀rɛ	-4021
zɔbu	-4022
▁afa	-4023
▁ahh	-4024
▁kap	-4025
▁run	-4026
▁usa	-4027
ltool	-4028
tions	-4029
▁bɔnɔ	-4030
▁dula	-4031
▁fosi	-4032
▁fuck	-4033
▁kodo	-4034
▁lawa	-4035
▁mùso	-4036
▁ɲrun	-4037
duwani	-4038
yusufu	-4039
▁mafee	-4040
▁minkè	-4041
▁wunɛn	-4042
zuwifuw	-4043
▁dunuya	-4044
▁sayang	-4045
▁tabali	-4046
▁abidjan	-4047
▁kalanna	-4048
▁decembro	-4049
▁tooltool	-4050
▁kàlandenw	-4051
tè	-4052
enw	-4053
got	-4054
sar	-4055
sow	-4056
▁ue	-4057
▁fil	-4058
▁liɛ	-4059
▁mad	-4060
▁nyi	-4061
▁sec	-4062
▁aate	-4063
▁abro	-4064
▁bayo	-4065
▁kado	-4066
▁nyin	-4067
▁cikgu	-4068
▁denkɛ	-4069
▁elize	-4070
▁kɛtaw	-4071
▁esumɔɔ	-4072
▁sumana	-4073
▁sɔ̃ɔsi	-4074
▁sɔ̃ɔwa	-4075
▁girinya	-4076
▁senumaw	-4077
▁dumunifèn	-4078
▁kojugukɛlaw	-4079
▁zeruzalɛmukaw	-4080
eh	-4081
gal	-4082
ire	-4083
kon	-4084
rom	-4085
ɔgo	-4086
▁mr	-4087
boon	-4088
dose	-4089
minè	-4090
▁avi	-4091
▁bye	-4092
▁mɑɑ	-4093
▁ɔri	-4094
banku	-4095
ratɛɛ	-4096
ɲɛnin	-4097
▁bang	-4098
▁bhii	-4099
▁fɛrɛ	-4100
▁hari	-4101
▁tagi	-4102
ɲumanw	-4103
▁kakak	-4104
▁korea	-4105
▁mennu	-4106
▁mɛnta	-4107
▁nèèma	-4108
▁sabía	-4109
▁tigiw	-4110
▁kunkun	-4111
▁muɲuna	-4112
kuntigiw	-4113
▁badencɛ	-4114
▁duninya	-4115
▁kumasen	-4116
▁ɛsitɛri	-4117
▁faribanku	-4118
▁maseduwani	-4119
▁dunuɲaratɛɛ	-4120
hɔ	-4121
kes	-4122
vie	-4123
xɔn	-4124
▁yĩ	-4125
tiki	-4126
ŋolu	-4127
▁fon	-4128
▁kur	-4129
▁desu	-4130
▁dina	-4131
▁feen	-4132
▁bless	-4133
▁blood	-4134
▁foyih	-4135
▁hòròn	-4136
▁munna	-4137
▁neemo	-4138
▁sinna	-4139
▁sitan	-4140
▁sukun	-4141
▁tamin	-4142
▁tɔgɔw	-4143
▁tɔmbu	-4144
▁abroad	-4145
▁farala	-4146
▁komiji	-4147
▁barikan	-4148
▁cidenya	-4149
▁dafalen	-4150
▁donkili	-4151
▁seeginan	-4152
▁yiridenw	-4153
▁fangabaara	-4154
"*	-4155
ai	-4156
???	-4157
ple	-4158
▁tw	-4159
unny	-4160
▁alé	-4161
▁ang	-4162
▁dil	-4163
▁mor	-4164
▁pri	-4165
kanni	-4166
▁bale	-4167
▁feel	-4168
▁heee	-4169
▁hona	-4170
▁lajè	-4171
▁mele	-4172
▁seri	-4173
▁tari	-4174
kolonw	-4175
ɛrɛzɛn	-4176
▁bibia	-4177
▁blank	-4178
▁farin	-4179
▁inpre	-4180
▁tonɲa	-4181
▁yiran	-4182
▁yɔrɔw	-4183
▁cɛtigɛ	-4184
▁faggot	-4185
▁fɔlɔta	-4186
▁ifunny	-4187
▁israel	-4188
▁marigi	-4189
▁fɛfɛɛrɛ	-4190
▁binaanin	-4191
▁inpressed	-4192
▁litigieuse	-4193
▁ˈ	-4194
gɔn	-4195
ulo	-4196
zɔn	-4197
mugu	-4198
▁but	-4199
▁gir	-4200
▁kau	-4201
▁miw	-4202
▁nah	-4203
▁cɛkɛ	-4204
▁digi	-4205
▁dèmè	-4206
▁kèmè	-4207
▁lika	-4208
▁pang	-4209
▁read	-4210
▁waan	-4211
▁betani	-4212
▁jɛnina	-4213
▁damanin	-4214
▁dɔgɔnin	-4215
▁jijanin	-4216
▁masɔrɔn	-4217
▁ɲɛnabɔla	-4218
▁denmisɛnni	-4219
▁kɔlɔsibaga	-4220
enɛ	-4221
gee	-4222
tiw	-4223
tɛn	-4224
vnw	-4225
▁sɑ	-4226
book	-4227
▁gem	-4228
▁kei	-4229
▁sɔ̄	-4230
siyaw	-4231
ɲògòn	-4232
▁bani	-4233
▁cɛɲa	-4234
▁madu	-4235
▁piin	-4236
hakili	-4237
kofoni	-4238
sariya	-4239
▁gwɛra	-4240
▁konni	-4241
▁libra	-4242
▁bɛgɛnw	-4243
▁kayifu	-4244
▁missin	-4245
▁tiɲɛko	-4246
▁tɛliya	-4247
▁yɛrɛkɛ	-4248
▁fugulan	-4249
▁jurumun	-4250
▁kununko	-4251
▁tɔɔrɔjugu	-4252
▁frankofoni	-4253
##	-4254
,'	-4255
_<	-4256
án	-4257
▁ì	-4258
dia	-4259
era	-4260
rɔn	-4261
siɑ	-4262
boli	-4263
lɔnw	-4264
▁>_<	-4265
▁ade	-4266
▁afe	-4267
▁lag	-4268
▁mea	-4269
▁nne	-4270
▁sou	-4271
▁tle	-4272
sible	-4273
▁kulo	-4274
▁kuna	-4275
▁same	-4276
▁wita	-4277
▁yeni	-4278
▁domun	-4279
▁kakan	-4280
▁manya	-4281
▁nanti	-4282
▁bònsòn	-4283
▁kirisi	-4284
▁kumafu	-4285
kɔrɔsigi	-4286
▁misaali	-4287
▁kanulenw	-4288
▁witamini	-4289
▁kasadiman	-4290
▁ladilikan	-4291
▁sigiyɔrɔw	-4292
▁sigiɲɔgɔn	-4293
▁mɔgɔdafanin	-4294
cm	-4295
ty	-4296
yɑ	-4297
ffee	-4298
gari	-4299
ngan	-4300
oniw	-4301
yari	-4302
▁ita	-4303
▁ndi	-4304
▁ɔɔn	-4305
▁beso	-4306
▁mera	-4307
▁suba	-4308
▁woyo	-4309
▁awake	-4310
▁gaman	-4311
▁klist	-4312
▁kunfɛ	-4313
▁nouve	-4314
▁zhezu	-4315
▁adored	-4316
▁denilu	-4317
▁fadenw	-4318
▁feeren	-4319
▁kakdee	-4320
▁lagamɛ	-4321
▁manase	-4322
▁sɔrɔli	-4323
▁tchaman	-4324
▁duvɛnkɛnɛ	-4325
▁kojugukɛla	-4326
▁mɔgɔkɔrɔba	-4327
▁nafolobatigi	-4328
gn	-4329
nd	-4330
bin	-4331
cia	-4332
jɛn	-4333
rge	-4334
▁zɛ	-4335
deni	-4336
gala	-4337
like	-4338
▁asa	-4339
▁car	-4340
▁dap	-4341
▁nul	-4342
▁tri	-4343
tanya	-4344
▁bird	-4345
▁kabo	-4346
▁mani	-4347
▁nege	-4348
▁nɛni	-4349
▁kabin	-4350
▁keden	-4351
▁konin	-4352
▁lanna	-4353
▁lɛgɛrɛ	-4354
▁tagawa	-4355
▁batofɛnw	-4356
▁belebele	-4357
▁dogoyɔrɔ	-4358
▁election	-4359
▁kirayakuma	-4360
gs	-4361
gbɛ	-4362
̀nɔ	-4363
▁az	-4364
▁bh	-4365
mɔri	-4366
▁dad	-4367
▁ini	-4368
▁kaw	-4369
▁nuŋ	-4370
▁pat	-4371
▁xin	-4372
bramu	-4373
ligan	-4374
▁awas	-4375
▁desi	-4376
▁lɛsɛ	-4377
▁your	-4378
jurumu	-4379
▁batɛmu	-4380
▁untung	-4381
▁bwisiku	-4382
▁konnigɛ	-4383
▁magwɛrɛ	-4384
▁facebook	-4385
▁jagwɛlɛya	-4386
hɛ	-4387
▁~	-4388
les	-4389
nzɛ	-4390
tɛr	-4391
yew	-4392
ɔro	-4393
▁tô	-4394
diot	-4395
lòsi	-4396
rics	-4397
sari	-4398
unuŋ	-4399
▁ans	-4400
▁bow	-4401
▁bre	-4402
▁gat	-4403
▁jer	-4404
▁kpe	-4405
▁dɔɔ̄	-4406
▁ekun	-4407
▁fôlô	-4408
▁mira	-4409
▁mori	-4410
▁siɲa	-4411
▁tùma	-4412
jamana	-4413
▁biisi	-4414
▁idiot	-4415
▁kɔ̀nɔ	-4416
▁ŋunuŋ	-4417
dɔnkili	-4418
▁buruju	-4419
▁gwɛman	-4420
▁jigɛba	-4421
▁kalama	-4422
▁kòlòsi	-4423
▁sinsin	-4424
▁egilisi	-4425
▁kɔnɔgwɛ	-4426
▁nisɔngɔ	-4427
▁djamanan	-4428
▁kɔnɔnako	-4429
▁ezekiyasi	-4430
▁iburahima	-4431
▁mɔgɔtɔɔrɔ	-4432
ɛ̄	-4433
▁:	-4434
kpa	-4435
sii	-4436
▁rô	-4437
wafa	-4438
yeee	-4439
▁del	-4440
▁hmm	-4441
▁nto	-4442
▁sap	-4443
inɛri	-4444
▁cɛya	-4445
▁kame	-4446
▁pila	-4447
▁sabi	-4448
▁sɑ̃ɑ	-4449
▁tuna	-4450
▁broke	-4451
▁jɛŋgɛ	-4452
▁loonw	-4453
▁munaa	-4454
▁sanfè	-4455
▁silan	-4456
▁gwanna	-4457
▁jarabi	-4458
▁kokura	-4459
▁dafalan	-4460
▁kasoden	-4461
▁miirira	-4462
kalandenw	-4463
▁abisalɔn	-4464
▁december	-4465
▁kɔrɔmuso	-4466
▁makarila	-4467
▁masirinin	-4468
▁nafolofɛnw	-4469
▁kɔlɔsibagaw	-4470
▁mɔgɔdafaninw	-4471
ẹ́	-4472
ọk	-4473
ema	-4474
mon	-4475
▁yè	-4476
jala	-4477
tɔya	-4478
▁beh	-4479
▁bei	-4480
▁hiv	-4481
▁mil	-4482
▁nnɔ	-4483
▁otu	-4484
▁tal	-4485
lɛnin	-4486
rasiw	-4487
▁girl	-4488
▁gosi	-4489
▁info	-4490
▁tɔni	-4491
▁yire	-4492
▁dɛndɛ	-4493
▁olivu	-4494
▁tɛrɛn	-4495
lɛkisan	-4496
▁naforo	-4497
▁safari	-4498
fɛrinama	-4499
▁minnɔgɔ	-4500
▁dalakuma	-4501
▁sadayeee	-4502
▁bangebaga	-4503
lɛkisandiri	-4504
▁tagamasiɲɛ	-4505
▁yɔrɔlakolon	-4506
mn	-4507
gar	-4508
ker	-4509
▁tì	-4510
..."	-4511
cili	-4512
sayu	-4513
zifa	-4514
▁bia	-4515
▁elf	-4516
▁rfi	-4517
▁yau	-4518
▁ɲen	-4519
hanga	-4520
yɔɔrɔ	-4521
▁cuba	-4522
▁fine	-4523
▁jela	-4524
▁jiri	-4525
▁miri	-4526
▁tags	-4527
▁wìla	-4528
mɔɔilu	-4529
sayuli	-4530
tɔburu	-4531
yeelen	-4532
▁jɛnna	-4533
▁koowo	-4534
▁murna	-4535
▁natte	-4536
▁tɔnmɔ	-4537
▁balawu	-4538
▁heburu	-4539
▁kunkan	-4540
▁sekɔra	-4541
▁touman	-4542
▁wazifa	-4543
▁baarala	-4544
▁kèlèbaa	-4545
▁simeyɔn	-4546
▁balimakɛ	-4547
▁dencɛilu	-4548
▁klistfuɛ	-4549
▁tagahanga	-4550
▁gufɛrinama	-4551
▁baarakɛcogo	-4552
▁alɛkisandiri	-4553
lèm	-4554
med	-4555
sti	-4556
wns	-4557
▁rd	-4558
bɔnɛ	-4559
fènw	-4560
yini	-4561
▁hel	-4562
▁hoy	-4563
▁los	-4564
dolee	-4565
gawns	-4566
▁chɛɛ	-4567
▁fufa	-4568
▁gaye	-4569
▁koon	-4570
▁liga	-4571
▁teen	-4572
▁tiri	-4573
▁zeri	-4574
▁boonw	-4575
▁donso	-4576
▁ezayi	-4577
▁fanva	-4578
▁kanma	-4579
▁kawan	-4580
▁lolow	-4581
▁môgôw	-4582
▁yɔɔrɔ	-4583
doleeza	-4584
▁bulonɔ	-4585
▁lɛtɛrɛ	-4586
▁mousso	-4587
▁nuŋgba	-4588
▁sisiba	-4589
▁tumana	-4590
▁bigawns	-4591
▁furancɛ	-4592
▁kɔrɔman	-4593
▁torosun	-4594
▁tɔɔrɔkow	-4595
▁yɛlɛtuma	-4596
▁dɔnkilila	-4597
▁condoleeza	-4598
▁dɛsɛbagatɔ	-4599
▁kongosogow	-4600
▁dusukunnakow	-4601
▁sarakalasebaaw	-4602
ns	-4603
xe	-4604
ɡe	-4605
---	-4606
yoo	-4607
▁là	-4608
dimi	-4609
lama	-4610
look	-4611
sian	-4612
▁aan	-4613
▁ayé	-4614
▁bit	-4615
▁gaa	-4616
▁mei	-4617
▁olo	-4618
▁pee	-4619
▁wla	-4620
▁ɲɔn	-4621
linin	-4622
tahun	-4623
tigui	-4624
▁gere	-4625
▁kèɲè	-4626
▁nina	-4627
▁wonu	-4628
▁emanu	-4629
▁kaane	-4630
▁banner	-4631
▁kagala	-4632
▁manana	-4633
▁masɔrɔ	-4634
▁dilanna	-4635
▁diminin	-4636
▁haminan	-4637
▁kasobon	-4638
▁sigilen	-4639
▁maridose	-4640
▁zerobowamu	-4641
bô	-4642
kɑ	-4643
her	-4644
▁kì	-4645
▁my	-4646
▁uk	-4647
▁xi	-4648
fɔɲɔ	-4649
koli	-4650
rasi	-4651
unou	-4652
▁ika	-4653
▁mal	-4654
▁nor	-4655
▁nɡe	-4656
▁old	-4657
▁per	-4658
▁sie	-4659
▁sèg	-4660
▁tug	-4661
▁vol	-4662
▁donw	-4663
▁edɛn	-4664
▁haki	-4665
▁kisa	-4666
▁koli	-4667
▁male	-4668
▁tɔɲɔ	-4669
▁wɑ̃ɑ	-4670
▁corsa	-4671
▁gwili	-4672
▁kenya	-4673
▁muxun	-4674
▁woolo	-4675
▁wèrèw	-4676
▁bènbaw	-4677
▁cooper	-4678
▁cɛnnin	-4679
▁gusunɔn	-4680
▁ɲininna	-4681
▁jamakulu	-4682
▁nimisara	-4683
▁sɛnɛkɛla	-4684
▁lɔnbaliya	-4685
▁faranyɔrɔw	-4686
',	-4687
.-	-4688
dɔw	-4689
ggu	-4690
que	-4691
fana	-4692
fura	-4693
ning	-4694
turu	-4695
wuli	-4696
▁ako	-4697
▁apo	-4698
▁fii	-4699
▁igi	-4700
▁ila	-4701
▁kpo	-4702
▁kuu	-4703
▁kɛr	-4704
▁lok	-4705
▁oya	-4706
▁sip	-4707
▁swĩ	-4708
▁xun	-4709
▁yɑ̃	-4710
kiraw	-4711
suman	-4712
ɔnilu	-4713
▁beyi	-4714
▁masu	-4715
▁nɔnɔ	-4716
▁tama	-4717
▁tamo	-4718
▁yawe	-4719
▁bɛɛrɛ	-4720
▁daddy	-4721
▁kikoe	-4722
▁labèn	-4723
▁nusɔn	-4724
▁sango	-4725
▁fiyɛra	-4726
▁gɔmɔri	-4727
▁hakiri	-4728
▁kɛlɛba	-4729
▁nɛnili	-4730
▁abinɛri	-4731
▁corsair	-4732
▁mandimi	-4733
▁yebaliw	-4734
▁yɛrɛkun	-4735
▁saniyara	-4736
▁emanuwɛli	-4737
▁kalanbagaw	-4738
▁telefɔniko	-4739
.:	-4740
dô	-4741
rus	-4742
▁mm	-4743
▁xu	-4744
▁aki	-4745
▁ati	-4746
▁dow	-4747
▁fyɛ	-4748
▁kay	-4749
▁nim	-4750
▁tie	-4751
▁web	-4752
▁ŋun	-4753
jigin	-4754
▁biɲɛ	-4755
▁blow	-4756
▁djon	-4757
▁enni	-4758
▁lone	-4759
▁tɛri	-4760
▁wogo	-4761
▁baali	-4762
▁benko	-4763
▁cibaa	-4764
▁josɔn	-4765
▁kaari	-4766
▁paris	-4767
▁saali	-4768
▁yinri	-4769
▁gwɛnna	-4770
▁kɔɲɔcɛ	-4771
▁yirige	-4772
▁jiginna	-4773
▁bwisikumɔ	-4774
▁baaraɲuman	-4775
▁mandiminin	-4776
▁yɛrɛboɲala	-4777
▁tilenbaliyako	-4778
̃ɛ	-4779
ike	-4780
tor	-4781
▁wɑ	-4782
bere	-4783
janw	-4784
matɔ	-4785
sare	-4786
▁bil	-4787
▁iye	-4788
▁khe	-4789
▁oyi	-4790
▁srɛ	-4791
▁deep	-4792
▁fìla	-4793
▁janu	-4794
▁kahi	-4795
▁mɛni	-4796
▁pɛrɛ	-4797
▁tèmè	-4798
▁ɲene	-4799
tasuma	-4800
▁ameri	-4801
▁bikin	-4802
▁sidɔn	-4803
▁sùrun	-4804
▁tabɛn	-4805
likɛlaw	-4806
▁cayara	-4807
▁kiyama	-4808
▁kuturu	-4809
▁kòròfò	-4810
▁makònò	-4811
▁masaso	-4812
▁ɲadenw	-4813
▁arasɛli	-4814
▁dantuma	-4815
▁faganin	-4816
▁sanjiba	-4817
▁sigarɛti	-4818
▁waatijan	-4819
▁jerusalèm	-4820
▁yahudiyan	-4821
▁jamanadenw	-4822
hee	-4823
saa	-4824
sua	-4825
tra	-4826
ɔgɛ	-4827
deen	-4828
rine	-4829
tigè	-4830
ture	-4831
▁anɛ	-4832
▁baw	-4833
▁bln	-4834
▁dus	-4835
▁sch	-4836
▁wud	-4837
▁zen	-4838
erɔdi	-4839
kodon	-4840
▁biru	-4841
▁dafɛ	-4842
▁late	-4843
▁manu	-4844
▁nali	-4845
▁said	-4846
▁siin	-4847
▁toma	-4848
▁niaan	-4849
▁saran	-4850
▁touma	-4851
▁wooda	-4852
miiriya	-4853
ɔgwɛlɛn	-4854
▁banakɔ	-4855
▁faamaw	-4856
▁fufafu	-4857
▁kunkow	-4858
▁masiri	-4859
▁sayako	-4860
▁tilefɛ	-4861
▁yerusa	-4862
▁faranna	-4863
▁mɛncogo	-4864
▁bayɛlɛma	-4865
▁faamubali	-4866
▁balimamusow	-4867
▁batizelikɛla	-4868
ezi	-4869
fɔɔ	-4870
ɔgi	-4871
▁wé	-4872
fisi	-4873
jira	-4874
▁aɲi	-4875
▁daw	-4876
▁lor	-4877
▁maɲ	-4878
▁teh	-4879
▁use	-4880
▁vie	-4881
▁wɔn	-4882
▁yea	-4883
▁dafè	-4884
▁kati	-4885
▁luck	-4886
▁nyer	-4887
▁tony	-4888
▁woso	-4889
nafolo	-4890
▁desɛn	-4891
▁forow	-4892
▁itali	-4893
matɔmɔn	-4894
▁faniso	-4895
▁kalanw	-4896
▁kalila	-4897
▁lakunu	-4898
▁lɔgɔbɔ	-4899
▁siraba	-4900
▁hòrònya	-4901
▁january	-4902
▁dugutigi	-4903
▁erection	-4904
▁miliyari	-4905
▁setigiya	-4906
▁kowagarase	-4907
▁sɔngɔgwɛlɛn	-4908
▁ɲenematɔmɔn	-4909
▁fadenyabolow	-4910
-)	-4911
xɛ	-4912
adi	-4913
che	-4914
ede	-4915
kaa	-4916
lam	-4917
mou	-4918
noo	-4919
ste	-4920
woo	-4921
▁em	-4922
▁ɔ́	-4923
arɔn	-4924
boro	-4925
dasi	-4926
duse	-4927
lige	-4928
mali	-4929
sɛsi	-4930
wari	-4931
wulu	-4932
▁beb	-4933
▁bet	-4934
▁gra	-4935
▁gyi	-4936
▁ido	-4937
▁naw	-4938
▁pàa	-4939
▁uka	-4940
phone	-4941
pɛrɛn	-4942
tinin	-4943
▁aɲia	-4944
▁funu	-4945
▁fyew	-4946
▁give	-4947
▁kimi	-4948
▁kowo	-4949
▁mɔna	-4950
▁nino	-4951
▁nuan	-4952
▁rira	-4953
▁saye	-4954
▁siɲè	-4955
▁yona	-4956
▁yɛɛn	-4957
farinw	-4958
▁bòlen	-4959
▁cikan	-4960
▁ezawu	-4961
▁makan	-4962
▁phone	-4963
▁sabau	-4964
▁sɛnrɛ	-4965
▁diyana	-4966
▁kilila	-4967
▁kènèya	-4968
▁mirila	-4969
▁silasi	-4970
▁timina	-4971
▁yaadon	-4972
▁balimak	-4973
▁diyanin	-4974
▁dɔgɔkun	-4975
▁nations	-4976
▁cɛfarinw	-4977
▁jurumukow	-4978
▁firiyamusow	-4979
▁tesalonikaw	-4980
▁ɲenematɔmɔnin	-4981
hh	-4982
ng	-4983
,..	-4984
bru	-4985
ere	-4986
kpo	-4987
▁nt	-4988
▁ɡɑ	-4989
guus	-4990
rini	-4991
sɛri	-4992
▁awo	-4993
▁blu	-4994
▁dôw	-4995
▁flu	-4996
▁kuɑ	-4997
▁mba	-4998
ozɔri	-4999
segin	-5000
▁daaw	-5001
▁days	-5002
▁dedo	-5003
▁disi	-5004
▁hace	-5005
▁hear	-5006
▁itan	-5007
▁kuat	-5008
▁loko	-5009
▁makè	-5010
▁numu	-5011
▁nɛgɛ	-5012
▁timi	-5013
▁tina	-5014
tiyopi	-5015
▁leila	-5016
▁sifaw	-5017
▁yɔrɔn	-5018
bukodon	-5019
▁bɔlɔnw	-5020
▁djaman	-5021
▁ɲɛminɛ	-5022
▁afiriki	-5023
▁dimilon	-5024
▁kalanba	-5025
▁sariɲan	-5026
▁volguus	-5027
▁yiranni	-5028
▁religion	-5029
▁yɛrɛminɛ	-5030
▁isirelibɑ	-5031
▁librarika	-5032
▁barikatigi	-5033
▁sariyasɛbɛ	-5034
bukodonozɔri	-5035
▁nusɔndiyara	-5036
fs	-5037
gh	-5038
nɔ	-5039
ón	-5040
hon	-5041
juu	-5042
tak	-5043
tar	-5044
tis	-5045
▁flo	-5046
▁thi	-5047
▁tsu	-5048
lailu	-5049
▁andi	-5050
▁bɔrɔ	-5051
▁cɛɛn	-5052
▁even	-5053
▁gara	-5054
▁gbɛn	-5055
▁lado	-5056
▁sida	-5057
▁sisé	-5058
▁supe	-5059
▁zayi	-5060
▁ɲɔti	-5061
kɔnɔna	-5062
▁allah	-5063
▁kanto	-5064
▁karne	-5065
▁kiero	-5066
▁kônon	-5067
▁mogow	-5068
▁nuked	-5069
▁sanam	-5070
▁super	-5071
▁yikes	-5072
aniyasi	-5073
▁furucɛ	-5074
▁furula	-5075
▁kunndɛ	-5076
▁latuma	-5077
▁wantin	-5078
▁mamaden	-5079
▁musoman	-5080
▁kanaankaw	-5081
▁tilennenw	-5082
▁alabatosow	-5083
▁kantigimanw	-5084
vr	-5085
▁ɑ	-5086
?›,	-5087
mmy	-5088
wlɛ	-5089
ŋge	-5090
ŋgɔ	-5091
▁im	-5092
▁jô	-5093
▁mp	-5094
▁tɑ	-5095
bɛti	-5096
jara	-5097
land	-5098
rina	-5099
sɔrɔ	-5100
tira	-5101
▁adu	-5102
▁bak	-5103
▁gbo	-5104
▁tia	-5105
▁uru	-5106
▁òlu	-5107
galen	-5108
▁fula	-5109
▁kape	-5110
▁kela	-5111
▁kyun	-5112
▁lamu	-5113
▁menu	-5114
▁musi	-5115
▁tool	-5116
▁yele	-5117
lakɔli	-5118
▁archi	-5119
▁bezan	-5120
ezipiti	-5121
▁baliku	-5122
▁banget	-5123
▁damasi	-5124
▁dɛmɛna	-5125
▁gomina	-5126
▁kabila	-5127
▁kantan	-5128
▁kulera	-5129
▁sotigi	-5130
tanayɛli	-5131
▁dununya	-5132
▁kasikan	-5133
▁siniman	-5134
▁ibrahima	-5135
▁jamanjan	-5136
▁labanlon	-5137
▁tagasaga	-5138
▁tiɲɛkuma	-5139
▁girɛkikan	-5140
▁maɲininka	-5141
▁tɔɔrɔbagaw	-5142
oh	-5143
̃.	-5144
gaw	-5145
get	-5146
tie	-5147
wer	-5148
zar	-5149
̀gɔ	-5150
▁."	-5151
▁dɑ	-5152
▁ehe	-5153
▁gal	-5154
▁nam	-5155
▁nom	-5156
▁ome	-5157
kɔngɔ	-5158
▁bisa	-5159
▁deme	-5160
▁donn	-5161
▁kaye	-5162
▁land	-5163
▁mike	-5164
▁nice	-5165
▁tiwo	-5166
▁tumɛ	-5167
▁tura	-5168
▁ŋaan	-5169
wotoro	-5170
▁abɛli	-5171
▁aimed	-5172
▁alone	-5173
▁biala	-5174
▁forum	-5175
▁jujɔn	-5176
▁kɛɛrɛ	-5177
▁mbele	-5178
▁sayin	-5179
▁yinnɛ	-5180
▁bakari	-5181
▁baraga	-5182
▁dagara	-5183
▁gɛlɛya	-5184
▁kèlenw	-5185
▁naaman	-5186
▁ninivu	-5187
▁sìrila	-5188
▁nankɔtu	-5189
▁sumansi	-5190
▁videwow	-5191
▁kɛlɛbolo	-5192
▁lannakow	-5193
▁tɔɔrɔnin	-5194
▁musobaara	-5195
▁dilanbagaw	-5196
▁hadamadenw	-5197
▁yahudiyanuna	-5198
.)	-5199
ela	-5200
goo	-5201
kar	-5202
tik	-5203
fiɲɛ	-5204
huna	-5205
lani	-5206
leme	-5207
mbre	-5208
misi	-5209
solo	-5210
teru	-5211
▁dat	-5212
▁dgo	-5213
▁jôé	-5214
▁nje	-5215
▁tor	-5216
▁yay	-5217
dɛndɛ	-5218
▁asan	-5219
▁deni	-5220
▁hayi	-5221
▁lila	-5222
▁more	-5223
▁muɛ̄	-5224
▁pony	-5225
▁porn	-5226
▁sisɛ	-5227
▁tali	-5228
▁yabi	-5229
▁ŋɔni	-5230
kibaru	-5231
lamɔgɔ	-5232
▁black	-5233
▁bride	-5234
▁derge	-5235
▁fyɛwu	-5236
▁gbeen	-5237
▁kayɛn	-5238
▁ŋgban	-5239
▁amoniw	-5240
▁chaman	-5241
▁dogora	-5242
▁gengen	-5243
▁marita	-5244
▁masakɛ	-5245
▁tariki	-5246
▁yɛtɛɛn	-5247
national	-5248
▁madiyan	-5249
▁patɔrɔn	-5250
▁polisiw	-5251
▁sɔrasiw	-5252
▁karikari	-5253
▁sanukuru	-5254
▁dergetara	-5255
▁koɲumankɛ	-5256
▁dimikojugu	-5257
▁kunnafoniw	-5258
▁international	-5259
pt	-5260
abi	-5261
cnu	-5262
eno	-5263
ɛɛ̄	-5264
▁??	-5265
▁râ	-5266
kama	-5267
kule	-5268
liwɛ	-5269
▁kom	-5270
▁lau	-5271
▁net	-5272
▁wuu	-5273
▁yir	-5274
duguw	-5275
▁adam	-5276
▁bibi	-5277
▁cute	-5278
▁févr	-5279
▁kani	-5280
▁kɔse	-5281
▁lele	-5282
▁nɔni	-5283
▁suan	-5284
▁tian	-5285
likise	-5286
▁frien	-5287
▁gbana	-5288
▁histo	-5289
▁kanan	-5290
▁koura	-5291
▁kumun	-5292
▁lanen	-5293
▁mased	-5294
▁socha	-5295
▁tryin	-5296
▁amoriw	-5297
▁cɛmanw	-5298
▁franse	-5299
▁yibɛrɛ	-5300
▁batɛmun	-5301
▁dumukun	-5302
▁faɲuman	-5303
▁nouveau	-5304
▁cɛɲumanba	-5305
▁faamuyali	-5306
▁manyadali	-5307
▁sodɔmukaw	-5308
▁dakɔrɔsigi	-5309
▁kɔlɔsilikɛ	-5310
▁kɔnɔnakuma	-5311
▁tigilamɔgɔ	-5312
▁yɛrɛyɛrɛla	-5313
dj	-5314
of	-5315
▁;	-5316
com	-5317
lem	-5318
ret	-5319
unw	-5320
vle	-5321
▁sò	-5322
▁él	-5323
▁ɲé	-5324
▁dou	-5325
▁gru	-5326
▁jal	-5327
▁jue	-5328
▁stu	-5329
▁tɛn	-5330
▁tɛ̃	-5331
▁wal	-5332
▁ɲɔ̀	-5333
irili	-5334
niman	-5335
▁amoo	-5336
▁baat	-5337
▁bɔns	-5338
▁dɔxɔ	-5339
▁kare	-5340
▁kpɛn	-5341
▁lili	-5342
▁sogi	-5343
▁ɲama	-5344
wagati	-5345
▁akabu	-5346
▁benba	-5347
▁fluwa	-5348
▁kanna	-5349
▁kogow	-5350
▁kɛlon	-5351
▁lagwɛ	-5352
▁mains	-5353
▁movie	-5354
▁omega	-5355
▁taatɔ	-5356
▁terew	-5357
▁truii	-5358
▁weenɛ	-5359
▁zurun	-5360
▁barila	-5361
▁bigger	-5362
▁ingana	-5363
▁mɔgɛnu	-5364
▁walasa	-5365
▁ɲasuma	-5366
▁awirili	-5367
▁morning	-5368
▁yelifɛn	-5369
▁farahuna	-5370
▁furakɛla	-5371
▁kɛlɛbaga	-5372
▁makɔnɔna	-5373
▁mɛlikise	-5374
▁saninman	-5375
▁ananiyasi	-5376
▁bɔnsɔnilu	-5377
▁kolɔnbaga	-5378
▁sankolola	-5379
▁taamasiɲɛw	-5380
?:	-5381
yn	-5382
bow	-5383
lut	-5384
nɛn	-5385
ves	-5386
ɲin	-5387
̀lɔ	-5388
fere	-5389
kusi	-5390
sayi	-5391
tɛmɛ	-5392
yɛni	-5393
▁gno	-5394
▁gud	-5395
▁jim	-5396
▁koi	-5397
▁lea	-5398
▁mou	-5399
▁ran	-5400
▁red	-5401
▁sak	-5402
nenya	-5403
▁creo	-5404
▁cɛra	-5405
▁djou	-5406
▁ford	-5407
▁holy	-5408
▁hone	-5409
▁kônô	-5410
▁lame	-5411
▁luma	-5412
▁maso	-5413
▁mein	-5414
▁nawa	-5415
deyawu	-5416
ration	-5417
▁alifa	-5418
▁bantu	-5419
▁béssé	-5420
▁bɔ̀rɛ	-5421
▁danbe	-5422
▁kuraw	-5423
▁misiw	-5424
▁sudan	-5425
▁trans	-5426
▁vecnu	-5427
▁ɲaari	-5428
balimaw	-5429
fugulan	-5430
▁aniaan	-5431
▁bamakɔ	-5432
▁barish	-5433
▁lyrics	-5434
▁school	-5435
▁sitanè	-5436
▁sɔgɔwɔ	-5437
▁tarika	-5438
▁ɲènama	-5439
kalanden	-5440
▁kamyabi	-5441
▁kòsegin	-5442
▁nanbara	-5443
▁batiseli	-5444
▁boɲafɛnw	-5445
▁dɔgɔninw	-5446
▁fitininw	-5447
▁kalatara	-5448
▁subayɛli	-5449
▁yɛdeyawu	-5450
▁zoziyasi	-5451
▁ŋunuŋunu	-5452
diw	-5453
foo	-5454
guu	-5455
iyo	-5456
rug	-5457
yii	-5458
▁(?	-5459
▁bã	-5460
▁ey	-5461
▁ig	-5462
▁̀.	-5463
dɛki	-5464
ftes	-5465
lala	-5466
lɛrɛ	-5467
mple	-5468
para	-5469
unin	-5470
▁beg	-5471
▁cry	-5472
▁dua	-5473
▁kir	-5474
▁kɔɛ	-5475
▁mod	-5476
▁oyé	-5477
▁sow	-5478
▁tte	-5479
anman	-5480
sanin	-5481
ɛnɛti	-5482
▁boko	-5483
▁bɛma	-5484
▁daji	-5485
▁goya	-5486
▁keli	-5487
▁noob	-5488
▁tang	-5489
▁tipu	-5490
▁toko	-5491
▁tolo	-5492
▁usfs	-5493
▁yeee	-5494
ftesho	-5495
mininw	-5496
▁conon	-5497
▁daram	-5498
▁eliza	-5499
▁geren	-5500
▁jumèn	-5501
▁kɔsie	-5502
▁risen	-5503
▁russi	-5504
▁telen	-5505
▁africa	-5506
▁bɔnɛna	-5507
▁kourou	-5508
▁kɔnɔni	-5509
▁kɔseyi	-5510
▁landaw	-5511
▁parena	-5512
▁sarayi	-5513
▁ɲɔgɔnw	-5514
▁miirili	-5515
▁farimanw	-5516
▁kalangwɛ	-5517
▁kɛlɛyɔrɔ	-5518
▁ladiliba	-5519
▁tɛmɛsira	-5520
▁yiriwara	-5521
▁olivuyiri	-5522
▁sugandili	-5523
▁karanbagaw	-5524
▁koloftesho	-5525
▁kunkanbaara	-5526
▁kɔrɔtalenba	-5527
▁nisɔndiyara	-5528
ek	-5529
▁í	-5530
bre	-5531
ins	-5532
maa	-5533
mbi	-5534
nay	-5535
nya	-5536
▁sb	-5537
▁ɲe	-5538
!!!!	-5539
fati	-5540
lean	-5541
pɔli	-5542
tinw	-5543
▁are	-5544
▁cɛw	-5545
▁doa	-5546
▁dén	-5547
▁fir	-5548
▁kud	-5549
▁myé	-5550
▁nuu	-5551
▁pii	-5552
▁pin	-5553
▁sex	-5554
▁tro	-5555
kunna	-5556
tilan	-5557
umari	-5558
▁afew	-5559
▁bisi	-5560
▁busk	-5561
▁famu	-5562
▁foto	-5563
▁from	-5564
▁kabô	-5565
▁keta	-5566
▁kids	-5567
▁klun	-5568
▁loki	-5569
▁lɛrɛ	-5570
▁mami	-5571
▁nwon	-5572
▁sail	-5573
▁sege	-5574
▁upon	-5575
kɛbaga	-5576
sɔgɔma	-5577
yɔrɔko	-5578
zowabu	-5579
▁alert	-5580
▁belle	-5581
▁denma	-5582
▁dontɔ	-5583
▁falan	-5584
▁fanba	-5585
▁fanka	-5586
▁kalaw	-5587
▁kikoo	-5588
▁lagey	-5589
▁price	-5590
▁tufan	-5591
▁basnay	-5592
▁cɛncɛn	-5593
▁fɔcogo	-5594
▁hategi	-5595
▁sabari	-5596
▁decides	-5597
▁munumun	-5598
▁sɔngɔrɔ	-5599
▁miiriyaw	-5600
▁musomanw	-5601
▁pɛrɛnkan	-5602
▁dusuɲuman	-5603
▁dɔmiiriya	-5604
▁mɛlikisedɛki	-5605
!」	-5606
rd	-5607
tô	-5608
ww	-5609
bli	-5610
gua	-5611
hah	-5612
kia	-5613
lah	-5614
net	-5615
tòw	-5616
▁dí	-5617
degi	-5618
gibu	-5619
goya	-5620
kami	-5621
lehɛ	-5622
mero	-5623
ŋana	-5624
▁ahe	-5625
▁efe	-5626
▁ego	-5627
▁gos	-5628
▁hey	-5629
▁hot	-5630
▁ifi	-5631
▁iki	-5632
▁lèn	-5633
▁nai	-5634
▁piy	-5635
▁poo	-5636
▁qui	-5637
▁sàm	-5638
kenin	-5639
kpoyi	-5640
▁bene	-5641
▁bɔri	-5642
▁cɛɲɛ	-5643
▁dekh	-5644
▁fiki	-5645
▁kahe	-5646
▁lada	-5647
▁miin	-5648
▁subi	-5649
▁swĩi	-5650
▁tuyo	-5651
▁yeya	-5652
▁ɲɔrɔ	-5653
goninw	-5654
kannin	-5655
yɔrɔba	-5656
▁kaali	-5657
▁kirin	-5658
▁kɛnɛn	-5659
▁nyɔɔn	-5660
▁nyɛmɛ	-5661
▁nyɛrɛ	-5662
▁reali	-5663
▁segin	-5664
▁today	-5665
▁tulon	-5666
▁better	-5667
▁bisigi	-5668
▁fɔbali	-5669
▁jinatɔ	-5670
▁jɛhova	-5671
▁kilisi	-5672
▁saduse	-5673
▁yigiya	-5674
▁fisaman	-5675
▁denɲɛnin	-5676
▁kurumari	-5677
▁malidenw	-5678
▁mariyama	-5679
▁samarika	-5680
▁bolokinin	-5681
▁dannabaaw	-5682
▁fankannin	-5683
▁gɔmɔrikaw	-5684
▁mɔgɔsɔbɛw	-5685
▁sumalenya	-5686
▁baarakèlaw	-5687
▁kininkinin	-5688
▁yinnɛkpoyi	-5689
▁nafolotigiw	-5690
karamɔgɔɲuman	-5691
?!	-5692
kô	-5693
▁!"	-5694
▁bm	-5695
▁ed	-5696
▁iz	-5697
▁ɲo	-5698
bòli	-5699
hoto	-5700
ibra	-5701
kisu	-5702
kòrò	-5703
ople	-5704
samu	-5705
wanè	-5706
▁aso	-5707
▁aun	-5708
▁dik	-5709
▁diy	-5710
▁ice	-5711
▁oka	-5712
▁tem	-5713
▁yad	-5714
▁awlo	-5715
▁busy	-5716
▁dada	-5717
▁done	-5718
▁dulu	-5719
▁fafe	-5720
▁fòli	-5721
▁hain	-5722
▁kafa	-5723
▁kato	-5724
▁kèrè	-5725
▁mato	-5726
▁mayi	-5727
▁mixi	-5728
▁nenu	-5729
▁nfen	-5730
▁sami	-5731
▁sick	-5732
▁téré	-5733
▁yafe	-5734
▁yĩsi	-5735
walima	-5736
▁natan	-5737
▁ntola	-5738
▁numan	-5739
▁puede	-5740
▁seliw	-5741
▁wɛɛrɛ	-5742
lɔnniya	-5743
▁baaraw	-5744
▁datumo	-5745
▁galiba	-5746
▁jatigɛ	-5747
▁kewali	-5748
▁laɲini	-5749
▁magara	-5750
▁nyinin	-5751
▁realii	-5752
▁somɔgɔ	-5753
▁tagala	-5754
▁tigiya	-5755
▁walaka	-5756
ibrayima	-5757
▁etiyopi	-5758
▁fagalon	-5759
▁gbɛlɛya	-5760
▁kalanfa	-5761
▁kungolo	-5762
▁wilinin	-5763
▁danganin	-5764
▁gerennen	-5765
▁jatiminɛ	-5766
▁sukununi	-5767
▁masedwanè	-5768
▁tagafɛnnɛ	-5769
▁telephone	-5770
▁tɔgɔɲuman	-5771
sarakalasebaga	-5772
▁dɔnkililabagaw	-5773
jè	-5774
nɑ	-5775
wɛn	-5776
xra	-5777
▁^^	-5778
bala	-5779
bɛka	-5780
diti	-5781
rata	-5782
sɛnɛ	-5783
▁kwn	-5784
▁ola	-5785
▁ɔwɔ	-5786
anamu	-5787
leman	-5788
▁buli	-5789
▁elle	-5790
▁fɔɔn	-5791
▁help	-5792
▁jɔnw	-5793
▁kaau	-5794
▁kase	-5795
▁lahi	-5796
▁odio	-5797
▁rain	-5798
gayɛli	-5799
tigiba	-5800
▁dugug	-5801
▁fɔlon	-5802
▁lɔnna	-5803
▁yenin	-5804
▁dagamu	-5805
▁dugaan	-5806
▁kariba	-5807
▁lilato	-5808
▁makɔnɔ	-5809
▁nyɔɔnɛ	-5810
▁pikiri	-5811
▁piyɔni	-5812
▁sinema	-5813
▁sissan	-5814
▁tiɲɛna	-5815
▁zeriko	-5816
▁ɲejira	-5817
dugukolo	-5818
kikikiki	-5819
▁findixi	-5820
▁history	-5821
▁kanngan	-5822
▁listing	-5823
▁lènburu	-5824
▁wololon	-5825
▁benkanni	-5826
▁hakɛkɛla	-5827
▁kalansow	-5828
▁labènnen	-5829
▁jagokɛlaw	-5830
▁ladibagaw	-5831
▁yɔrɔnyini	-5832
▁karamɔgɔkɛ	-5833
▁nabukodonozɔri	-5834
ama	-5835
hen	-5836
jal	-5837
mal	-5838
mis	-5839
pon	-5840
vɛr	-5841
▁jw	-5842
dani	-5843
deli	-5844
fice	-5845
mɔsi	-5846
tchè	-5847
zani	-5848
▁che	-5849
▁jee	-5850
▁kok	-5851
▁nbu	-5852
▁nda	-5853
cogow	-5854
tendi	-5855
▁dudo	-5856
▁dôgô	-5857
▁ever	-5858
▁gaza	-5859
▁joke	-5860
▁kera	-5861
▁kono	-5862
▁kore	-5863
▁kuku	-5864
▁kĩru	-5865
▁laka	-5866
▁mate	-5867
▁mɛya	-5868
▁sɔnɔ	-5869
▁taan	-5870
▁tima	-5871
▁wôrô	-5872
latigɛ	-5873
pilati	-5874
tchogo	-5875
zafati	-5876
▁balik	-5877
▁benan	-5878
▁bondo	-5879
▁eleza	-5880
▁fèèrè	-5881
▁gbɔgɔ	-5882
▁kafar	-5883
▁kasɔn	-5884
▁kilin	-5885
▁nanya	-5886
▁neemi	-5887
▁probe	-5888
▁ɲanin	-5889
▁bènnen	-5890
▁cogodi	-5891
▁commen	-5892
▁jɛnita	-5893
▁keliya	-5894
▁kouman	-5895
▁kɛndɛn	-5896
▁sègèrè	-5897
▁tobiya	-5898
▁zakari	-5899
▁ɲɛnajɛ	-5900
mination	-5901
▁demisɛn	-5902
▁dugugbɛ	-5903
▁entendi	-5904
▁faamaya	-5905
▁helpful	-5906
▁tintinw	-5907
▁barikisu	-5908
▁bilayɔrɔ	-5909
▁dagamuna	-5910
▁furakɛli	-5911
▁halakiko	-5912
▁jalakira	-5913
▁kisibaya	-5914
▁datugulan	-5915
▁elizabɛti	-5916
▁janfamɔgɔ	-5917
▁kabakoman	-5918
▁kodogonin	-5919
▁kongowulu	-5920
▁labilanin	-5921
▁lɛsɛbagaw	-5922
▁mɔgɔkɔrɔw	-5923
▁kafaranamu	-5924
▁kolɔnbagaw	-5925
▁kɛrɛnnenya	-5926
▁tagamacogo	-5927
▁tilantilan	-5928
mɔgɔtilennin	-5929
▁dakɔrɔsigiw	-5930
▁dusukasifani	-5931
▁galontigɛlaw	-5932
ie	-5933
bih	-5934
ciw	-5935
fɔm	-5936
gni	-5937
iin	-5938
ènè	-5939
▁lā	-5940
▁mw	-5941
▁ns	-5942
▁uu	-5943
biji	-5944
kaso	-5945
zona	-5946
▁agu	-5947
▁doc	-5948
▁jwo	-5949
▁jye	-5950
▁lɛn	-5951
▁sig	-5952
▁sto	-5953
filen	-5954
mukan	-5955
teriw	-5956
▁còrò	-5957
▁dako	-5958
▁jana	-5959
▁keyi	-5960
▁kɔɔw	-5961
▁leya	-5962
▁romè	-5963
▁sabo	-5964
▁toli	-5965
▁tooo	-5966
▁town	-5967
lehɛmu	-5968
ruggle	-5969
tigɛla	-5970
▁agent	-5971
▁denba	-5972
▁faliw	-5973
▁gnana	-5974
▁kpoyi	-5975
▁kɔrɔw	-5976
▁labla	-5977
▁massa	-5978
▁photo	-5979
▁tiile	-5980
▁wunna	-5981
▁kɔrɔba	-5982
▁nimero	-5983
▁tobili	-5984
▁bangera	-5985
▁còrònin	-5986
▁erebɛka	-5987
▁galaadi	-5988
▁kanbele	-5989
▁sɔmburu	-5990
▁fɛnɲuman	-5991
▁kantigiw	-5992
▁kumacogo	-5993
▁sigidala	-5994
▁struggle	-5995
feereyɔɔrɔ	-5996
▁dɔgɔtɔrɔw	-5997
▁nimanfɛnw	-5998
▁numanbolo	-5999
▁baarakɛmuso	-6000
▁galontigɛla	-6001
▁lemɛniyamɔɔilu	-6002
os	-6003
ên	-6004
;-)	-6005
jam	-6006
shi	-6007
tii	-6008
yak	-6009
▁dh	-6010
▁fẹ	-6011
fite	-6012
maan	-6013
rrrg	-6014
sila	-6015
▁enɔ	-6016
▁gin	-6017
▁kad	-6018
▁nwu	-6019
▁shɔ	-6020
▁sɑɑ	-6021
▁yao	-6022
berto	-6023
febru	-6024
gbala	-6025
kansi	-6026
kɛrɛn	-6027
lenna	-6028
senin	-6029
▁bold	-6030
▁buat	-6031
▁bɔtɔ	-6032
▁choo	-6033
▁duru	-6034
▁días	-6035
▁flan	-6036
▁gati	-6037
▁hoon	-6038
▁jaɲa	-6039
▁kile	-6040
▁lako	-6041
▁nabi	-6042
▁nuho	-6043
▁nvle	-6044
▁tɔ̃ɔ	-6045
▁wɔrɔ	-6046
enenli	-6047
hanama	-6048
▁.....	-6049
▁annzɛ	-6050
▁fandi	-6051
▁filan	-6052
▁gnini	-6053
▁kitna	-6054
▁music	-6055
▁pixra	-6056
▁since	-6057
▁arrrrg	-6058
▁batora	-6059
▁farali	-6060
▁hamina	-6061
▁kpɛkun	-6062
▁kurunw	-6063
▁nbuuru	-6064
▁nɔgɔra	-6065
▁people	-6066
▁zetoro	-6067
february	-6068
ɲɛnamaya	-6069
▁duurumɔ	-6070
▁kalanni	-6071
▁mowabuw	-6072
▁sariyan	-6073
▁dayɛlɛla	-6074
▁fariziɲɛ	-6075
▁gosligan	-6076
▁jahanama	-6077
▁juguyara	-6078
▁kènèyara	-6079
▁murutigi	-6080
▁tigaforo	-6081
▁sanulaman	-6082
▁sanyɛlɛma	-6083
▁bɛtilehɛmu	-6084
▁dugugbɛkan	-6085
▁miiriɲuman	-6086
▁kilisienenli	-6087
at	-6088
sò	-6089
tà	-6090
gne	-6091
gus	-6092
pas	-6093
tle	-6094
tum	-6095
▁ij	-6096
lina	-6097
nnnn	-6098
rani	-6099
zare	-6100
āina	-6101
▁aru	-6102
▁bui	-6103
▁bèe	-6104
▁dàn	-6105
▁gnè	-6106
▁lii	-6107
▁mìn	-6108
▁mɔɛ	-6109
▁sat	-6110
▁sui	-6111
▁sàn	-6112
▁tow	-6113
▁ven	-6114
cture	-6115
janko	-6116
mògòw	-6117
▁baih	-6118
▁doke	-6119
▁dɔlɔ	-6120
▁kafu	-6121
▁koma	-6122
▁laju	-6123
▁mabɔ	-6124
▁mine	-6125
▁naru	-6126
▁riga	-6127
▁sɔnn	-6128
▁wodi	-6129
▁wɔgɔ	-6130
batala	-6131
dɛlifi	-6132
inliwɛ	-6133
office	-6134
▁afiɛn	-6135
▁amadu	-6136
▁clean	-6137
▁danka	-6138
▁dinin	-6139
▁kagni	-6140
▁kaman	-6141
▁ladka	-6142
▁laten	-6143
▁mammy	-6144
▁niyen	-6145
▁ofisi	-6146
▁siyɔn	-6147
▁sɔɔni	-6148
▁xinla	-6149
▁yennu	-6150
kulekan	-6151
▁abramu	-6152
▁caffee	-6153
▁doctor	-6154
▁foroko	-6155
▁kannin	-6156
▁kissed	-6157
▁lawaji	-6158
▁satuma	-6159
▁simple	-6160
▁sorona	-6161
▁sɛbɛxi	-6162
▁tougou	-6163
sɛrisɛsi	-6164
▁alberto	-6165
▁azariya	-6166
▁baarako	-6167
▁cɛmancɛ	-6168
▁dentist	-6169
▁jifilen	-6170
▁rainbow	-6171
▁sababou	-6172
▁denmisen	-6173
▁jabibiji	-6174
▁nilifɛnw	-6175
▁piyɔniye	-6176
▁solofere	-6177
▁zurunali	-6178
▁gilasenin	-6179
▁labancogo	-6180
▁lɔnnikɛla	-6181
▁filadɛlifi	-6182
▁laminijama	-6183
▁sumangbala	-6184
▁tɔgɔtigiba	-6185
▁siranbagatɔw	-6186
▁kafefeereyɔɔrɔ	-6187
ak	-6188
ms	-6189
yy	-6190
ún	-6191
ṣe	-6192
ẹẹ	-6193
bèè	-6194
gna	-6195
kle	-6196
mer	-6197
uan	-6198
win	-6199
zin	-6200
▁hɔ	-6201
%...	-6202
jiri	-6203
lanw	-6204
mara	-6205
rida	-6206
tein	-6207
wasi	-6208
▁afɛ	-6209
▁bhu	-6210
▁cun	-6211
▁ema	-6212
▁kén	-6213
▁kɛ̄	-6214
▁len	-6215
▁lẹẹ	-6216
▁zin	-6217
fenin	-6218
lumun	-6219
peror	-6220
rther	-6221
simɔn	-6222
▁bura	-6223
▁down	-6224
▁dumb	-6225
▁dèsè	-6226
▁dɔkɔ	-6227
▁fool	-6228
▁jean	-6229
▁jooo	-6230
▁just	-6231
▁kelé	-6232
▁kokɛ	-6233
▁koto	-6234
▁kôgô	-6235
▁kɛko	-6236
▁lɛri	-6237
▁muga	-6238
▁nece	-6239
▁sòsò	-6240
▁wang	-6241
▁yoya	-6242
kɔlɔsi	-6243
melɛki	-6244
▁akayi	-6245
▁baroo	-6246
▁fɔnin	-6247
▁kabla	-6248
▁kajal	-6249
▁kɔlɔn	-6250
▁lekin	-6251
▁tomow	-6252
▁xɛmɛn	-6253
▁alainw	-6254
▁djonan	-6255
▁dɔtɔrɔ	-6256
▁ekobee	-6257
▁filipe	-6258
▁filɛko	-6259
▁furusa	-6260
▁hayiti	-6261
▁latina	-6262
▁makobe	-6263
▁mantan	-6264
▁sezare	-6265
▁tamari	-6266
▁tolong	-6267
▁tɛmɛtɔ	-6268
▁weeken	-6269
▁ɲanako	-6270
▁ɲèminè	-6271
tiyokusi	-6272
▁banabaa	-6273
▁blogger	-6274
▁emperor	-6275
▁filenya	-6276
▁further	-6277
▁fèèrèbò	-6278
▁normali	-6279
kuntigiya	-6280
▁archives	-6281
▁lẹẹkansi	-6282
▁miiriliw	-6283
▁tɛmɛtɛmɛ	-6284
▁welelike	-6285
natanayɛli	-6286
▁balimacɛw	-6287
▁kabakurun	-6288
▁sagadɛndɛ	-6289
▁surunyara	-6290
▁tijinliwɛ	-6291
▁diɲɛlatigɛ	-6292
▁fiɲɛntɔman	-6293
▁kɛrɛnkɛrɛn	-6294
▁senumanŋolu	-6295
jh	-6296
blo	-6297
bol	-6298
eki	-6299
eru	-6300
gbo	-6301
igi	-6302
zaa	-6303
èni	-6304
▁aj	-6305
▁sí	-6306
alam	-6307
doba	-6308
gele	-6309
inwe	-6310
lema	-6311
mako	-6312
seen	-6313
senu	-6314
ticu	-6315
yali	-6316
▁bru	-6317
▁bàn	-6318
▁ebu	-6319
▁gbɔ	-6320
▁joy	-6321
▁kih	-6322
▁koy	-6323
▁kre	-6324
▁kɔr	-6325
▁liv	-6326
▁lou	-6327
▁nyè	-6328
▁ope	-6329
▁ske	-6330
▁sum	-6331
▁val	-6332
▁yam	-6333
▁ɔku	-6334
borow	-6335
cause	-6336
talon	-6337
▁baar	-6338
▁body	-6339
▁bɛri	-6340
▁crea	-6341
▁dont	-6342
▁foni	-6343
▁jɔ̀n	-6344
▁kpan	-6345
▁laki	-6346
▁lawo	-6347
▁lean	-6348
▁lwan	-6349
▁make	-6350
▁mile	-6351
▁mɛgɛ	-6352
▁nara	-6353
▁nàli	-6354
▁sene	-6355
▁star	-6356
▁tlon	-6357
▁télé	-6358
▁wuda	-6359
▁ɲɛci	-6360
dankan	-6361
deyawo	-6362
▁ahead	-6363
▁bònya	-6364
▁bɔnna	-6365
▁kaloo	-6366
▁lorou	-6367
▁proud	-6368
▁soron	-6369
▁tahun	-6370
▁tungu	-6371
▁ŋunan	-6372
fununan	-6373
▁balamu	-6374
▁barkin	-6375
▁koosiɑ	-6376
▁marisi	-6377
▁neticu	-6378
▁ordina	-6379
▁pɛrɛsi	-6380
▁sacogo	-6381
▁sɔ̃ɔmɔ	-6382
▁tuntun	-6383
▁wasaya	-6384
▁wunnin	-6385
▁cɛnkuma	-6386
▁faamuli	-6387
▁fiyɛkan	-6388
▁khesari	-6389
▁kɛnɛnma	-6390
▁tilancɛ	-6391
▁yɛlɛnin	-6392
▁sedeyawo	-6393
tasɛrisɛsi	-6394
tɔburukalo	-6395
▁hɔrɔnmuso	-6396
▁jɛnibaliw	-6397
▁sumantigi	-6398
kojugukɛlaw	-6399
▁allabatala	-6400
▁nomination	-6401
▁sigiyɔrɔman	-6402
tɔnkuntigidankan	-6403
];	-6404
dam	-6405
ono	-6406
tau	-6407
ura	-6408
▁bì	-6409
▁hɛ	-6410
▁ɲì	-6411
dusu	-6412
fina	-6413
fòlò	-6414
isra	-6415
maga	-6416
nɛri	-6417
tɔni	-6418
wiye	-6419
▁aho	-6420
▁guo	-6421
▁ira	-6422
▁ize	-6423
▁lel	-6424
▁meh	-6425
▁mma	-6426
▁mul	-6427
▁tur	-6428
▁uwu	-6429
banaw	-6430
dasiw	-6431
dingɛ	-6432
yɔngɔ	-6433
▁aung	-6434
▁beta	-6435
▁dang	-6436
▁fasa	-6437
▁fɛnw	-6438
▁gran	-6439
▁idol	-6440
▁iken	-6441
▁jòni	-6442
▁kaci	-6443
▁kamp	-6444
▁lisa	-6445
▁muna	-6446
▁nabɔ	-6447
▁pele	-6448
▁slut	-6449
▁tiya	-6450
▁true	-6451
▁xɔrɔ	-6452
▁yint	-6453
bolila	-6454
yanfan	-6455
▁jigɛw	-6456
▁kaata	-6457
▁kafɔɔ	-6458
▁kalau	-6459
▁kinda	-6460
▁kojuu	-6461
▁mango	-6462
▁marie	-6463
▁nigga	-6464
▁nkanu	-6465
▁salam	-6466
▁sɔɔru	-6467
▁tilew	-6468
▁timan	-6469
▁wanns	-6470
▁yinwe	-6471
▁cèkòrò	-6472
▁dalili	-6473
▁donlon	-6474
▁faanin	-6475
▁fagako	-6476
▁kanŋga	-6477
▁kumala	-6478
▁lawuli	-6479
▁listen	-6480
▁lɔgɔma	-6481
▁nanwlɛ	-6482
▁secret	-6483
▁silisi	-6484
▁tenang	-6485
▁yɛlɛko	-6486
▁ɲagwan	-6487
▁aladali	-6488
▁because	-6489
▁bengali	-6490
▁donyɔrɔ	-6491
▁fikiran	-6492
▁friends	-6493
▁kolonma	-6494
▁kununli	-6495
▁kɔnɔman	-6496
▁lajɛnba	-6497
▁zanwiye	-6498
▁dibijugu	-6499
▁eburukan	-6500
▁fòlòfòlò	-6501
▁internet	-6502
▁kalantaw	-6503
▁kɔsegitɔ	-6504
▁paradise	-6505
▁sèbènnen	-6506
▁haminanko	-6507
▁tagaborow	-6508
▁tasumaman	-6509
▁yɔrɔɲuman	-6510
▁lafiɲɛyɔrɔ	-6511
▁marifakɛlɛ	-6512
▁kɛlɛkɛwotoro	-6513
▁aritasɛrisɛsi	-6514
▁mɔgɔtɔɔrɔkuma	-6515
▁ɔkutɔburukalo	-6516
▁jamanakuntigiya	-6517
mê	-6518
”.	-6519
ced	-6520
cho	-6521
gnè	-6522
iii	-6523
ino	-6524
led	-6525
ley	-6526
lum	-6527
qué	-6528
tal	-6529
wee	-6530
èce	-6531
▁bt	-6532
ahah	-6533
hɔɔn	-6534
liba	-6535
rimɔ	-6536
rusi	-6537
waan	-6538
ɲaga	-6539
▁akɛ	-6540
▁buy	-6541
▁kot	-6542
▁oro	-6543
▁ren	-6544
▁tho	-6545
enten	-6546
yɔgɔn	-6547
▁boni	-6548
▁fami	-6549
▁fiɲɛ	-6550
▁gɔro	-6551
▁hani	-6552
▁impo	-6553
▁laye	-6554
▁muda	-6555
▁sans	-6556
▁todo	-6557
▁toho	-6558
▁tuen	-6559
▁tɛtɛ	-6560
▁zene	-6561
▁arajo	-6562
▁datum	-6563
▁gigun	-6564
▁janin	-6565
▁kaɲan	-6566
▁loner	-6567
▁mansa	-6568
▁puisi	-6569
▁saint	-6570
▁sufuɛ	-6571
▁yoman	-6572
baanciw	-6573
bèètigi	-6574
zonatan	-6575
▁biisit	-6576
▁dɔɔ̄nu	-6577
▁jatera	-6578
▁kafila	-6579
▁koɲuma	-6580
▁maraka	-6581
▁niièce	-6582
▁yĩsiru	-6583
▁ɲɔtiɲɔ	-6584
▁ɲɛfɔli	-6585
hɔɔnnnnn	-6586
▁alasira	-6587
▁betanga	-6588
▁dànkari	-6589
▁dònniya	-6590
▁furulon	-6591
▁kelenya	-6592
karamɔgɔw	-6593
▁duration	-6594
▁kaamyabi	-6595
▁kɔsegiko	-6596
▁mɔgɔsɔbɛ	-6597
▁sinamuso	-6598
▁sɛbɛnnin	-6599
▁tɔnitɔni	-6600
▁imposible	-6601
▁melekenin	-6602
▁bànbaanciw	-6603
▁hakilijigi	-6604
▁tilenbaliw	-6605
▁yerusaleme	-6606
▁hakiritigiw	-6607
▁namaramɔgɔw	-6608
▁kɛlɛkuntigiw	-6609
▁lagwɛlikɛlaw	-6610
▁sebaayabèètigi	-6611
,.	-6612
cè	-6613
fw	-6614
sk	-6615
sy	-6616
har	-6617
pen	-6618
ula	-6619
ɔrɑ	-6620
▁iṣ	-6621
▁sô	-6622
▁ɲu	-6623
dɛna	-6624
roba	-6625
seba	-6626
zɛri	-6627
▁aap	-6628
▁aja	-6629
▁duw	-6630
▁ese	-6631
▁gaw	-6632
▁ibi	-6633
▁kao	-6634
▁kha	-6635
▁klɔ	-6636
▁klɛ	-6637
▁mɑn	-6638
▁nán	-6639
▁who	-6640
▁yèn	-6641
buruw	-6642
ɔgosi	-6643
▁baje	-6644
▁fàso	-6645
▁gben	-6646
▁kake	-6647
▁koso	-6648
▁kôfè	-6649
▁kɔma	-6650
▁left	-6651
▁melo	-6652
▁mɛrɛ	-6653
▁samj	-6654
▁seni	-6655
▁sike	-6656
▁tera	-6657
▁tlan	-6658
▁waka	-6659
▁were	-6660
wajibi	-6661
▁doron	-6662
▁furaw	-6663
▁kakoo	-6664
▁laada	-6665
▁masuk	-6666
▁rokun	-6667
▁siini	-6668
▁tsuma	-6669
▁wango	-6670
▁ɛntɛr	-6671
sunguru	-6672
ɔrɔninw	-6673
▁baibol	-6674
▁benlon	-6675
▁dibiba	-6676
▁gèrèla	-6677
▁kesian	-6678
▁matiyu	-6679
▁sumanw	-6680
▁sɔgosi	-6681
▁tantun	-6682
▁ɲènabò	-6683
solomani	-6684
▁bweseru	-6685
▁danfara	-6686
▁desizɔn	-6687
▁gbansan	-6688
▁kaburuw	-6689
▁kɔsieyo	-6690
▁telesar	-6691
▁waajibi	-6692
▁yinwege	-6693
entengolu	-6694
▁eligiera	-6695
▁lakɔliso	-6696
▁malobali	-6697
▁nintɔɔrɔ	-6698
▁zayirisi	-6699
▁demisɛnnin	-6700
▁faranfaran	-6701
▁gengenjiri	-6702
▁kanbelenya	-6703
▁mɔgɔɲumanw	-6704
▁dumunibabaw	-6705
▁korentengolu	-6706
gé	-6707
ké	-6708
mò	-6709
ɣu	-6710
ṣi	-6711
###	-6712
bla	-6713
iru	-6714
las	-6715
ooo	-6716
ous	-6717
tho	-6718
tou	-6719
von	-6720
zun	-6721
▁?"	-6722
▁bw	-6723
▁gò	-6724
▁mè	-6725
▁sk	-6726
▁ur	-6727
ento	-6728
filɛ	-6729
kaan	-6730
mira	-6731
nalo	-6732
sinw	-6733
stus	-6734
tura	-6735
ṣiṣe	-6736
▁air	-6737
▁amy	-6738
▁asu	-6739
▁bra	-6740
▁ero	-6741
▁iṣẹ	-6742
▁jua	-6743
▁knw	-6744
▁kyo	-6745
▁ler	-6746
▁leu	-6747
▁mee	-6748
▁mer	-6749
▁nxu	-6750
▁uri	-6751
▁way	-6752
▁yɔɔ	-6753
dilan	-6754
kunun	-6755
stine	-6756
yaala	-6757
ɔgoya	-6758
▁####	-6759
▁alam	-6760
▁anni	-6761
▁bela	-6762
▁betu	-6763
▁boom	-6764
▁daka	-6765
▁dalo	-6766
▁dinɛ	-6767
▁doun	-6768
▁duit	-6769
▁dɛrɛ	-6770
▁fenw	-6771
▁gili	-6772
▁king	-6773
▁kurɔ	-6774
▁kusu	-6775
▁kɔlɔ	-6776
▁lamp	-6777
▁lamɛ	-6778
▁madi	-6779
▁minu	-6780
▁mmla	-6781
▁nɛrɛ	-6782
▁panp	-6783
▁sìra	-6784
▁yang	-6785
▁yaya	-6786
kitani	-6787
tininw	-6788
ɲògònw	-6789
▁banke	-6790
▁heart	-6791
▁malam	-6792
▁matan	-6793
▁pèrèn	-6794
▁ɲasin	-6795
kixanŋo	-6796
ɲanagwɛ	-6797
▁kapala	-6798
▁konyaw	-6799
▁safelo	-6800
▁sagala	-6801
▁sesare	-6802
▁tannan	-6803
▁african	-6804
▁apolɔsi	-6805
▁danfɛnw	-6806
▁dubaden	-6807
▁samusɔn	-6808
▁waliman	-6809
▁lamasaba	-6810
▁lamɔcogo	-6811
▁masadugu	-6812
▁basiginin	-6813
▁hakɛkɛlaw	-6814
▁israɛlden	-6815
▁latenxanŋo	-6816
▁lɔnnikɛlaw	-6817
▁tinxinyaan	-6818
▁gerekixanŋo	-6819
▁heburuxanŋo	-6820
▁lamasabakitani	-6821
▁kɔlɔsilikɛbagaw	-6822
].	-6823
eu	-6824
aga	-6825
cas	-6826
hos	-6827
nee	-6828
▁lè	-6829
bede	-6830
diɲɛ	-6831
dɛmɛ	-6832
fasa	-6833
hero	-6834
kɛrɛ	-6835
makɔ	-6836
nini	-6837
puma	-6838
▁abu	-6839
▁aro	-6840
▁hye	-6841
▁ito	-6842
▁kho	-6843
▁khu	-6844
▁mcm	-6845
▁nse	-6846
▁org	-6847
▁suā	-6848
▁uno	-6849
baasi	-6850
sɔnun	-6851
sɛnin	-6852
▁afin	-6853
▁bòsi	-6854
▁gaba	-6855
▁indi	-6856
▁kidi	-6857
▁klan	-6858
▁kudh	-6859
▁kètò	-6860
▁lajî	-6861
▁moxo	-6862
▁saza	-6863
▁yewe	-6864
▁yɔgɔ	-6865
juguya	-6866
namaya	-6867
▁bagus	-6868
▁drawn	-6869
▁guvɛr	-6870
▁hunde	-6871
▁misɛn	-6872
▁nikan	-6873
▁safar	-6874
▁senfɛ	-6875
▁sogow	-6876
▁sɔnɔn	-6877
▁urata	-6878
tigɛlaw	-6879
▁barakɛ	-6880
▁espero	-6881
▁jɛnnin	-6882
▁kɛrɛfɛ	-6883
▁lokiyo	-6884
▁yiriwa	-6885
lɔnbaliw	-6886
▁jiɲuman	-6887
▁jɛmukan	-6888
▁karanna	-6889
▁lecture	-6890
▁tuguniâ	-6891
▁yiriden	-6892
▁denbayaw	-6893
▁dusudiya	-6894
▁kumajugu	-6895
▁kunnacɛn	-6896
▁panpanna	-6897
▁tagamana	-6898
▁jɛnsɛnnin	-6899
▁denmisɛnya	-6900
▁sunɔgɔbaliya	-6901
▁jamanakuntigi	-6902
),	-6903
bw	-6904
hn	-6905
lf	-6906
ue	-6907
ɲò	-6908
alu	-6909
ima	-6910
way	-6911
yuu	-6912
ŋgi	-6913
▁'.	-6914
▁sã	-6915
aaka	-6916
fɛri	-6917
gɛlɛ	-6918
pale	-6919
sado	-6920
sɛti	-6921
tɔgɔ	-6922
wazi	-6923
▁anj	-6924
▁any	-6925
▁ato	-6926
▁bli	-6927
▁dul	-6928
▁fra	-6929
▁gre	-6930
▁hao	-6931
▁hee	-6932
▁hom	-6933
▁iri	-6934
▁jis	-6935
▁nke	-6936
▁nzu	-6937
▁tla	-6938
▁una	-6939
▁van	-6940
▁yew	-6941
▁zai	-6942
mdaan	-6943
sanni	-6944
▁agoy	-6945
▁fans	-6946
▁isia	-6947
▁jran	-6948
▁kafi	-6949
▁kaha	-6950
▁kiin	-6951
▁lɔxɔ	-6952
▁mìgi	-6953
▁news	-6954
▁niɔn	-6955
▁njee	-6956
▁poto	-6957
▁puse	-6958
▁sayi	-6959
▁sìgi	-6960
▁tien	-6961
▁unbe	-6962
▁vida	-6963
▁zizi	-6964
▁òkan	-6965
dirasi	-6966
ɔgɔnin	-6967
▁amiga	-6968
▁daloa	-6969
▁edoba	-6970
▁franç	-6971
▁gbèrè	-6972
▁hindu	-6973
▁kahan	-6974
▁kalen	-6975
▁kirgi	-6976
▁lebih	-6977
▁maari	-6978
▁moins	-6979
▁nyɛla	-6980
▁pongo	-6981
▁saadi	-6982
▁secon	-6983
▁sibon	-6984
▁singa	-6985
▁sinni	-6986
▁tagad	-6987
▁yahoo	-6988
▁yalan	-6989
naloman	-6990
▁asɔnun	-6991
▁bàmakɔ	-6992
▁cɛsiri	-6993
▁dajala	-6994
▁dundun	-6995
▁fununa	-6996
▁kalata	-6997
▁lakari	-6998
▁ngɔ̀lɔ	-6999
▁numuya	-7000
▁siratu	-7001
kɛbaliya	-7002
▁daalila	-7003
▁iburama	-7004
▁kalaman	-7005
▁kasinin	-7006
▁ninjago	-7007
▁sɔnnzɔn	-7008
▁wuleman	-7009
▁bagabaga	-7010
▁bɔgɔdaga	-7011
▁daalikan	-7012
▁dankaden	-7013
▁dugumɔgɔ	-7014
▁dɛmɛdɛmɛ	-7015
▁maloyako	-7016
▁musomani	-7017
▁nimanfɛn	-7018
▁baaramuso	-7019
▁cèkòròbaw	-7020
▁dafɛduguw	-7021
▁siraɲuman	-7022
▁telesarse	-7023
▁kɛlɛkɛyɔrɔ	-7024
▁yaalayaala	-7025
▁bibulukalan	-7026
▁domunkɛbaliya	-7027
ik	-7028
lê	-7029
▁â	-7030
!,"	-7031
.'*	-7032
bel	-7033
ham	-7034
kɛ̄	-7035
lẹ́	-7036
nun	-7037
oon	-7038
rar	-7039
tre	-7040
ọkò	-7041
▁bî	-7042
▁nì	-7043
bian	-7044
gger	-7045
kanw	-7046
mane	-7047
oman	-7048
rant	-7049
tòmò	-7050
wolo	-7051
ọkẹ́	-7052
▁bed	-7053
▁blɛ	-7054
▁buu	-7055
▁dai	-7056
▁dau	-7057
▁flè	-7058
▁gay	-7059
▁ger	-7060
▁gòf	-7061
▁ire	-7062
▁kɑm	-7063
▁lôn	-7064
▁mah	-7065
▁mmu	-7066
▁noh	-7067
▁seo	-7068
▁sla	-7069
▁soe	-7070
▁yun	-7071
▁zab	-7072
▁ọkò	-7073
walew	-7074
▁aran	-7075
▁gɛri	-7076
▁holo	-7077
▁khun	-7078
▁kite	-7079
▁kona	-7080
▁kong	-7081
▁kumi	-7082
▁lɔko	-7083
▁makɔ	-7084
▁mika	-7085
▁ngba	-7086
▁saul	-7087
▁twun	-7088
▁tɔgɛ	-7089
▁tɔɔ̄	-7090
▁vidé	-7091
▁wiin	-7092
▁ɲina	-7093
yazari	-7094
▁anita	-7095
▁anugu	-7096
▁arabu	-7097
▁baaro	-7098
▁badaa	-7099
▁burun	-7100
▁degun	-7101
▁doniw	-7102
▁doocɛ	-7103
▁kiika	-7104
▁kleli	-7105
▁kunfɔ	-7106
▁kɔɔri	-7107
▁peter	-7108
▁sɔ̀rɔ	-7109
▁xɔlɔn	-7110
èrènèrè	-7111
ọkẹ́lẹ́	-7112
▁artist	-7113
▁baloyi	-7114
▁baraji	-7115
▁barokɛ	-7116
▁bayɛlɛ	-7117
▁dabaya	-7118
▁halagi	-7119
▁joyful	-7120
▁kɛlɛla	-7121
▁lokuma	-7122
▁lonely	-7123
▁nkaaka	-7124
▁tɔgɔla	-7125
▁zebede	-7126
▁zoroba	-7127
fɔɲɔbana	-7128
▁adamadi	-7129
▁ciraden	-7130
▁cɛmanin	-7131
▁dɛndɛna	-7132
▁florida	-7133
▁kurunba	-7134
▁lamɛnna	-7135
▁missing	-7136
▁nyagari	-7137
▁sigilan	-7138
▁ɲèsiran	-7139
palestine	-7140
▁dɔ̀nkili	-7141
▁kòròbòli	-7142
▁kɔnɔbara	-7143
▁lawodise	-7144
▁mugucili	-7145
▁ninakili	-7146
▁terimanw	-7147
▁tiyatiri	-7148
▁wolotuma	-7149
▁abigayɛli	-7150
▁ayọkẹ́lẹ́	-7151
▁gòfèrènèrè	-7152
▁kongowuluw	-7153
▁sɔnnzɔnfuɛ	-7154
▁zenezarɛti	-7155
▁zorobabɛli	-7156
▁ɛntɛrɛnɛti	-7157
▁kunfɔɲɔgɔnw	-7158
▁sankolotigi	-7159
▁ninsɔndiyanin	-7160
▁sagadɛndɛbagaw	-7161
&#	-7162
,›	-7163
;"	-7164
ño	-7165
▁ת	-7166
ami	-7167
cri	-7168
ebe	-7169
gbe	-7170
gbɔ	-7171
gia	-7172
lou	-7173
uwɑ	-7174
yèn	-7175
ziw	-7176
̃ru	-7177
▁nā	-7178
▁og	-7179
bɔra	-7180
dibi	-7181
iyam	-7182
kjan	-7183
kɔgɔ	-7184
mɛnɛ	-7185
ndan	-7186
nice	-7187
ouen	-7188
sanu	-7189
siti	-7190
teko	-7191
teya	-7192
tiba	-7193
tuen	-7194
umaw	-7195
▁des	-7196
▁ebe	-7197
▁lao	-7198
▁oto	-7199
▁sua	-7200
▁yɔ̃	-7201
▁ɓɛɛ	-7202
boliw	-7203
ciden	-7204
lieva	-7205
mancɛ	-7206
nisɔn	-7207
raɛli	-7208
tunin	-7209
ŋgban	-7210
▁atin	-7211
▁broo	-7212
▁burɔ	-7213
▁dark	-7214
▁gaya	-7215
▁gitu	-7216
▁golo	-7217
▁itiw	-7218
▁jack	-7219
▁jumɛ	-7220
▁kebɛ	-7221
▁konɔ	-7222
▁lali	-7223
▁looo	-7224
▁lɛɛw	-7225
▁mian	-7226
▁mènè	-7227
▁nôgô	-7228
▁nɔfɛ	-7229
▁nɔma	-7230
▁real	-7231
▁suke	-7232
▁taun	-7233
▁zang	-7234
▁zese	-7235
▁ɲrɛn	-7236
▁ɲɛrɛ	-7237
buyɔrɔ	-7238
liyati	-7239
mariya	-7240
▁azuma	-7241
▁bagaw	-7242
▁bhool	-7243
▁denin	-7244
▁devon	-7245
▁hazar	-7246
▁jaraw	-7247
▁kaala	-7248
▁kanga	-7249
▁kuyaw	-7250
▁lɛnpo	-7251
▁masen	-7252
▁multi	-7253
▁nuhan	-7254
▁nyuan	-7255
▁saaba	-7256
▁sanka	-7257
▁sulen	-7258
▁title	-7259
▁vidéo	-7260
▁abijan	-7261
▁abkjan	-7262
▁afriki	-7263
▁bowazi	-7264
▁cɛkɔrɔ	-7265
▁dɔgɔkɛ	-7266
▁ekɛɛrɛ	-7267
▁filige	-7268
▁flancɛ	-7269
▁meleke	-7270
▁mougan	-7271
▁sinnin	-7272
▁tiɲɛni	-7273
▁tumara	-7274
lievable	-7275
▁agustus	-7276
▁bambara	-7277
▁dugulen	-7278
▁izraɛli	-7279
▁kafenin	-7280
▁sanmuru	-7281
▁dariyusi	-7282
▁jɛnsɛnna	-7283
▁kookoosu	-7284
▁lamɛntaw	-7285
▁tchaaman	-7286
▁wolomani	-7287
▁ɲènatòmò	-7288
▁bɛnbaliya	-7289
▁gwanniman	-7290
▁kookoowoo	-7291
▁makaritɔw	-7292
▁mɔgɔkolon	-7293
▁nyanamini	-7294
▁ɛsidirasi	-7295
▁dabayatigi	-7296
▁kɔrɔbayara	-7297
▁babilɔnikaw	-7298
▁jalakibagaw	-7299
▁kanbelentuma	-7300
▁unbelievable	-7301
▁kɛrɛnkɛrɛnnin	-7302
:-	-7303
fé	-7304
mé	-7305
awa	-7306
dén	-7307
fɔn	-7308
jin	-7309
ket	-7310
luu	-7311
mie	-7312
muw	-7313
pun	-7314
wow	-7315
wɑɑ	-7316
ŋɔn	-7317
ɔre	-7318
▁km	-7319
▁ln	-7320
▁né	-7321
▁uh	-7322
dila	-7323
fenw	-7324
môgô	-7325
ryku	-7326
teli	-7327
▁ebo	-7328
▁lot	-7329
▁owò	-7330
▁ski	-7331
▁spi	-7332
▁sty	-7333
▁sus	-7334
▁wor	-7335
▁yaw	-7336
▁zha	-7337
deyɔn	-7338
kɛfɛn	-7339
sungu	-7340
ugnan	-7341
yiriw	-7342
▁'...	-7343
▁bleh	-7344
▁chan	-7345
▁fere	-7346
▁firi	-7347
▁geru	-7348
▁jaga	-7349
▁kamu	-7350
▁knee	-7351
▁kyaw	-7352
▁link	-7353
▁mann	-7354
▁mela	-7355
▁ning	-7356
▁niɛn	-7357
▁paga	-7358
▁pana	-7359
▁pepe	-7360
▁pier	-7361
▁satɔ	-7362
▁siki	-7363
▁sɔmi	-7364
▁tako	-7365
▁tons	-7366
▁wien	-7367
▁yina	-7368
▁yomi	-7369
▁ɲoŋo	-7370
......	-7371
minɛna	-7372
talita	-7373
zabɛli	-7374
▁alogo	-7375
▁amɔsi	-7376
▁anjam	-7377
▁atali	-7378
▁bènna	-7379
▁cɛnlɛ	-7380
▁goman	-7381
▁kaanw	-7382
▁kaban	-7383
▁kebɛk	-7384
▁kekle	-7385
▁lucas	-7386
▁sabre	-7387
▁saŋga	-7388
▁suici	-7389
▁tuntu	-7390
▁bɔnɔna	-7391
▁hamiko	-7392
▁kanamɔ	-7393
▁kununa	-7394
▁kɛbaga	-7395
▁labɔla	-7396
▁milili	-7397
▁nkalon	-7398
▁nununw	-7399
▁pilate	-7400
▁rasɛli	-7401
▁saints	-7402
▁sukaro	-7403
▁zuditi	-7404
▁zɛfite	-7405
minɛbaga	-7406
▁diinanw	-7407
▁fasokan	-7408
▁hakilin	-7409
▁kumaden	-7410
▁makolon	-7411
▁ɲinikan	-7412
▁ɲrɛnnɛn	-7413
kunbɛnnan	-7414
▁balimake	-7415
▁banajugu	-7416
▁bananenw	-7417
▁faantanw	-7418
▁funubali	-7419
▁kiritigè	-7420
▁kukuryku	-7421
▁politiki	-7422
▁sigicogo	-7423
▁xɔrɔyaan	-7424
sungurunin	-7425
▁datugunin	-7426
▁eleyazari	-7427
▁kininbolo	-7428
▁ɲanamanya	-7429
▁lamɛnbagaw	-7430
yɛrɛminɛbaga	-7431
▁kɔniyabagaw	-7432
▁masafugulan	-7433
▁denmisɛnninw	-7434
▁ɲasiranbagaw	-7435
▁farikoloɲanagwɛ	-7436
::	-7437
ao	-7438
dd	-7439
ia	-7440
if	-7441
ks	-7442
pp	-7443
xx	-7444
▁ç	-7445
bɔɔ	-7446
nie	-7447
org	-7448
say	-7449
▁il	-7450
▁ir	-7451
▁jé	-7452
▁sī	-7453
bɛɛn	-7454
gosi	-7455
leke	-7456
mere	-7457
ramu	-7458
runi	-7459
tari	-7460
tise	-7461
yane	-7462
yani	-7463
yesu	-7464
▁egi	-7465
▁eyh	-7466
▁jɔ̀	-7467
▁koj	-7468
▁kol	-7469
▁mau	-7470
▁ngo	-7471
▁sac	-7472
▁til	-7473
▁ɲɛn	-7474
bsage	-7475
▁anan	-7476
▁ciiw	-7477
▁doko	-7478
▁espa	-7479
▁gasi	-7480
▁inge	-7481
▁jaka	-7482
▁kasu	-7483
▁keya	-7484
▁kiko	-7485
▁kɔmɔ	-7486
▁mìla	-7487
▁niko	-7488
▁pada	-7489
▁paki	-7490
▁part	-7491
▁piɛɛ	-7492
▁sake	-7493
▁sinɑ	-7494
▁teyi	-7495
▁unbo	-7496
▁yaan	-7497
lation	-7498
maninw	-7499
marita	-7500
reyɛli	-7501
rienta	-7502
tagara	-7503
yɛricɛ	-7504
ɲagami	-7505
ɲɔgɔmɛ	-7506
▁aalam	-7507
▁adult	-7508
▁alain	-7509
▁baana	-7510
▁blogs	-7511
▁bobow	-7512
▁cɛnin	-7513
▁desan	-7514
▁dulon	-7515
▁fansi	-7516
▁karna	-7517
▁kɔɲɔn	-7518
▁lamin	-7519
▁lonni	-7520
▁lucky	-7521
▁meeno	-7522
▁minta	-7523
▁resto	-7524
▁swana	-7525
▁teeru	-7526
▁tongo	-7527
▁yelen	-7528
siranya	-7529
▁banyak	-7530
▁basali	-7531
▁djigui	-7532
▁dugawu	-7533
▁enikan	-7534
▁kabana	-7535
▁kɔrɔya	-7536
▁kɔsɔbɛ	-7537
▁lajɛrɛ	-7538
▁modɛli	-7539
▁nabali	-7540
▁polisi	-7541
▁sɛbɛra	-7542
▁tagana	-7543
▁tiɲèni	-7544
▁tɛgɛrɛ	-7545
▁ɲɛmɔgɔ	-7546
▁dònkili	-7547
▁kɔngɔtɔ	-7548
▁lajigin	-7549
▁magazɛn	-7550
▁nankama	-7551
▁orienta	-7552
▁siyaman	-7553
▁tuntube	-7554
▁asirikaw	-7555
▁eligible	-7556
▁goliyati	-7557
▁jalakili	-7558
▁kanbelew	-7559
▁katoliki	-7560
▁kɔgɔjiba	-7561
▁munumunu	-7562
▁nɛrɛmugu	-7563
▁ordinary	-7564
▁parapara	-7565
▁tayɛricɛ	-7566
▁tɛmɛninw	-7567
▁zezabɛli	-7568
▁ɲɛminɛna	-7569
▁banabaatò	-7570
▁kɔɲɔnmuso	-7571
▁mboobsage	-7572
▁jigibagatɔ	-7573
▁zizireyɛli	-7574
▁mɔgɔfagalaw	-7575
▁religieuses	-7576
▁nigɛkunbɛnnan	-7577
▁sigiɲɔgɔnmanw	-7578
ŋe	-7579
†.	-7580
."]	-7581
azu	-7582
fer	-7583
fiw	-7584
fɛɛ	-7585
hat	-7586
moo	-7587
som	-7588
ŋgu	-7589
▁(:	-7590
▁ôn	-7591
amun	-7592
ason	-7593
bout	-7594
ille	-7595
kafo	-7596
mang	-7597
post	-7598
rang	-7599
rinɛ	-7600
rɛna	-7601
wien	-7602
ɛɛgɛ	-7603
▁dek	-7604
▁duk	-7605
▁ekɔ	-7606
▁eta	-7607
▁evi	-7608
▁gou	-7609
▁guy	-7610
▁jɛ̀	-7611
▁kaɲ	-7612
▁kul	-7613
▁laf	-7614
▁lei	-7615
▁mac	-7616
▁maj	-7617
▁maŋ	-7618
▁moi	-7619
▁muu	-7620
▁shu	-7621
▁tèn	-7622
▁www	-7623
▁yah	-7624
▁zee	-7625
▁zui	-7626
banin	-7627
bario	-7628
faamu	-7629
maloo	-7630
munin	-7631
nuhun	-7632
ranin	-7633
▁aban	-7634
▁ande	-7635
▁anim	-7636
▁band	-7637
▁bese	-7638
▁blom	-7639
▁dabe	-7640
▁dana	-7641
▁davi	-7642
▁duma	-7643
▁fada	-7644
▁fanw	-7645
▁fatɔ	-7646
▁giin	-7647
▁gira	-7648
▁juli	-7649
▁jyɛn	-7650
▁kapa	-7651
▁kaze	-7652
▁modo	-7653
▁niyi	-7654
▁plan	-7655
▁pɔlu	-7656
▁sebe	-7657
▁suki	-7658
▁tata	-7659
▁wati	-7660
▁ɲaji	-7661
kèlaba	-7662
lotigi	-7663
▁akili	-7664
▁dinxe	-7665
▁koong	-7666
▁mudan	-7667
▁salen	-7668
▁silen	-7669
▁simlu	-7670
▁style	-7671
▁suunu	-7672
▁sònna	-7673
▁tenbi	-7674
▁tiguè	-7675
▁yasua	-7676
reniyam	-7677
▁baarak	-7678
▁coffee	-7679
▁darabɔ	-7680
▁insaan	-7681
▁jɔnjɔn	-7682
▁kemana	-7683
▁kosson	-7684
▁lathos	-7685
▁makoɲa	-7686
▁nombre	-7687
▁tunŋgo	-7688
▁weleli	-7689
▁wiengu	-7690
▁wurira	-7691
lɔnbagaw	-7692
▁djougou	-7693
▁doomuso	-7694
▁fitinin	-7695
▁fufafuw	-7696
▁gɛrisɔn	-7697
▁jiginin	-7698
▁kamilan	-7699
▁kulekan	-7700
▁lakunun	-7701
▁minɛnna	-7702
▁nkateko	-7703
▁perrine	-7704
▁sɔngɔra	-7705
▁unbosom	-7706
▁yinriwɛ	-7707
▁ŋgbanga	-7708
▁galileka	-7709
▁latagara	-7710
▁loobario	-7711
▁magamaga	-7712
▁sabatira	-7713
▁sabremos	-7714
▁sankabaw	-7715
▁bangebaaw	-7716
▁gèlèyalen	-7717
▁musokolon	-7718
▁yiritunin	-7719
▁antiyokusi	-7720
▁guvɛrinama	-7721
▁izraɛlifuɛ	-7722
▁kodogoninw	-7723
▁nafalotigi	-7724
▁ɲinikanliw	-7725
▁kapereniyam	-7726
▁gwengwenlɔgɔ	-7727
▁jurumukèlaba	-7728
▁dusukasidɔnkili	-7729
ey	-7730
fê	-7731
lm	-7732
rê	-7733
rì	-7734
are	-7735
ati	-7736
dja	-7737
dut	-7738
fia	-7739
gor	-7740
kou	-7741
rne	-7742
tam	-7743
tel	-7744
zen	-7745
zoo	-7746
òni	-7747
ɲɛw	-7748
▁=)	-7749
▁dà	-7750
▁ŋg	-7751
▁ŋu	-7752
▁ɛɛ	-7753
dɔrɔ	-7754
gani	-7755
gɛri	-7756
llow	-7757
luka	-7758
runa	-7759
tagi	-7760
tɛna	-7761
ulou	-7762
xɔni	-7763
ôngô	-7764
▁abé	-7765
▁bou	-7766
▁bum	-7767
▁chu	-7768
▁dje	-7769
▁fén	-7770
▁ipa	-7771
▁jax	-7772
▁kpu	-7773
▁maw	-7774
▁nas	-7775
▁pos	-7776
▁pra	-7777
▁shɛ	-7778
▁spe	-7779
▁sɛ̀	-7780
▁toy	-7781
▁tɛ̄	-7782
▁usi	-7783
lɔnin	-7784
lɛkiw	-7785
ussou	-7786
yuman	-7787
ɔgɛnu	-7788
ɛtiri	-7789
▁akun	-7790
▁alaa	-7791
▁alah	-7792
▁amor	-7793
▁anzi	-7794
▁asiɛ	-7795
▁baju	-7796
▁bula	-7797
▁bɔxɔ	-7798
▁daje	-7799
▁deke	-7800
▁demo	-7801
▁fènw	-7802
▁gɔni	-7803
▁haha	-7804
▁jida	-7805
▁juda	-7806
▁jɔni	-7807
▁komo	-7808
▁kori	-7809
▁kosa	-7810
▁kota	-7811
▁kògò	-7812
▁kòɲò	-7813
▁kɔɔn	-7814
▁live	-7815
▁mano	-7816
▁mban	-7817
▁meng	-7818
▁nose	-7819
▁nyɔɔ	-7820
▁oooo	-7821
▁reyo	-7822
▁saca	-7823
▁skin	-7824
▁suzi	-7825
▁sɔni	-7826
▁this	-7827
▁tuli	-7828
▁tuên	-7829
▁tɛɛn	-7830
▁wole	-7831
▁yɔni	-7832
jamaba	-7833
kakala	-7834
kɔrɔsi	-7835
sayida	-7836
▁avion	-7837
▁enɔki	-7838
▁esawu	-7839
▁feene	-7840
▁kalam	-7841
▁masak	-7842
▁naanɛ	-7843
▁needa	-7844
▁queen	-7845
▁saara	-7846
▁sanla	-7847
▁sonna	-7848
▁torow	-7849
▁wanta	-7850
▁anyway	-7851
▁barako	-7852
▁binyen	-7853
▁dɔɔ̄na	-7854
▁edɔmuw	-7855
▁fɔɲɔba	-7856
▁jigila	-7857
▁jɛkulu	-7858
▁kankan	-7859
▁koniya	-7860
▁kosobɛ	-7861
▁lɔcogo	-7862
▁magazɛ	-7863
▁makiri	-7864
▁meniru	-7865
▁nounou	-7866
▁nɔgoya	-7867
▁tufano	-7868
▁united	-7869
dusukasi	-7870
lakɔliso	-7871
sɔlidasi	-7872
tiriyusi	-7873
▁cɛnsaga	-7874
▁diminya	-7875
▁gwiliya	-7876
▁kampung	-7877
▁nɔgɔman	-7878
▁probaba	-7879
▁yiifari	-7880
▁bolokoli	-7881
▁dumuniko	-7882
▁giligali	-7883
▁mankanba	-7884
▁mɔgɔmuru	-7885
▁national	-7886
▁restobar	-7887
▁sensible	-7888
▁wolobali	-7889
▁zozafati	-7890
▁dɔnkɛyɔrɔ	-7891
▁faamadugu	-7892
▁hakilitan	-7893
▁jerusalem	-7894
▁kɔrɔcɛilu	-7895
▁kɔsegilon	-7896
▁yɛrɛtanga	-7897
▁ɲiningana	-7898
▁denmisènya	-7899
▁naforotigi	-7900
▁ɲɔtiɲɔtira	-7901
▁denmisɛnniw	-7902
▁siradenninw	-7903
▁balimakolonw	-7904
▁tilantilanna	-7905
gk	-7906
lẹ	-7907
fla	-7908
gas	-7909
koa	-7910
lla	-7911
pou	-7912
ral	-7913
tuu	-7914
ulu	-7915
ɑmɑ	-7916
▁>>	-7917
▁ae	-7918
▁dĩ	-7919
▁qe	-7920
▁tö	-7921
alth	-7922
dadi	-7923
delu	-7924
dine	-7925
kiko	-7926
koro	-7927
levi	-7928
lled	-7929
lɔla	-7930
ment	-7931
mila	-7932
muri	-7933
oooo	-7934
stfu	-7935
èlèn	-7936
▁amɛ	-7937
▁bah	-7938
▁ber	-7939
▁btw	-7940
▁bud	-7941
▁bwa	-7942
▁bɔk	-7943
▁doh	-7944
▁fie	-7945
▁gla	-7946
▁ige	-7947
▁int	-7948
▁iun	-7949
▁kaj	-7950
▁kpi	-7951
▁maz	-7952
▁mit	-7953
▁mɛm	-7954
▁nfo	-7955
▁niw	-7956
▁niŋ	-7957
▁owo	-7958
▁thr	-7959
▁wlɛ	-7960
▁wèe	-7961
▁wɔ̃	-7962
efara	-7963
lẹyin	-7964
ssary	-7965
tilen	-7966
unggu	-7967
▁andɛ	-7968
▁anka	-7969
▁arin	-7970
▁aten	-7971
▁bhoo	-7972
▁bilo	-7973
▁bong	-7974
▁bɔla	-7975
▁char	-7976
▁colo	-7977
▁curu	-7978
▁durɔ	-7979
▁dôrô	-7980
▁gbɛr	-7981
▁ihcm	-7982
▁kaɲa	-7983
▁keni	-7984
▁kɛzi	-7985
▁park	-7986
▁roof	-7987
▁sath	-7988
▁song	-7989
▁toum	-7990
▁tous	-7991
▁trou	-7992
▁wɔri	-7993
▁yalɛ	-7994
▁yuda	-7995
▁ɲaha	-7996
abramu	-7997
baraga	-7998
diyadi	-7999
mafara	-8000
tetiba	-8001
▁adres	-8002
▁andut	-8003
▁anime	-8004
▁biran	-8005
▁bonba	-8006
▁bɔxɔn	-8007
▁djama	-8008
▁dusug	-8009
▁fooli	-8010
▁fàkan	-8011
▁hamid	-8012
▁jalan	-8013
▁jɛman	-8014
▁kahin	-8015
▁kamiw	-8016
▁kanka	-8017
▁kasoo	-8018
▁kɔnkɔ	-8019
▁labaa	-8020
▁makun	-8021
▁monya	-8022
▁mɛɛri	-8023
▁nahin	-8024
▁nɔnsi	-8025
▁nɔnɔn	-8026
▁pierè	-8027
▁puŋgo	-8028
▁sègin	-8029
▁tigui	-8030
▁tiine	-8031
▁tijen	-8032
▁tumoo	-8033
▁urban	-8034
▁welen	-8035
▁xaran	-8036
▁yiisa	-8037
▁ɲɛgɛn	-8038
simeyɔn	-8039
▁bepuma	-8040
▁guyane	-8041
▁kamana	-8042
▁keyità	-8043
▁kristo	-8044
▁kuluba	-8045
▁mangan	-8046
▁nafènw	-8047
▁sandji	-8048
▁semana	-8049
▁sereya	-8050
▁sigida	-8051
▁sougou	-8052
▁sɛbɛli	-8053
▁zestfu	-8054
▁ɲɛrɛna	-8055
mariyamu	-8056
▁bwesenu	-8057
▁danyɔrɔ	-8058
▁donsoya	-8059
▁efarati	-8060
▁falatɔw	-8061
▁gɔrobun	-8062
▁laakari	-8063
▁leilaye	-8064
▁naxanye	-8065
▁seconds	-8066
▁tilanna	-8067
▁tɛmɛnɛn	-8068
▁weekend	-8069
▁ɲènamaw	-8070
efarayimu	-8071
nisɔndiya	-8072
▁atilẹyin	-8073
▁fagalenw	-8074
▁farisièn	-8075
▁jurusara	-8076
▁jyɛnkɛlɛ	-8077
▁kanuninw	-8078
▁menunggu	-8079
▁musokɔnɔ	-8080
▁nɔgɔyara	-8081
▁sanpɛrɛn	-8082
▁terimuso	-8083
▁wuladafɛ	-8084
▁yahudiya	-8085
ezipitikaw	-8086
▁kagbaraga	-8087
▁necessary	-8088
▁waleɲuman	-8089
▁salibagatɔ	-8090
▁sɛgɛsɛgɛli	-8091
▁mandimininw	-8092
▁mɔgɔtɔɔrɔla	-8093
▁zanwiyekalo	-8094
▁dusukasikuma	-8095
▁alaɲasiranbaga	-8096
▁izirayɛlimɔgɔw	-8097
im	-8098
kê	-8099
là	-8100
cik	-8101
cin	-8102
eee	-8103
for	-8104
gbè	-8105
gii	-8106
lua	-8107
rie	-8108
sid	-8109
uri	-8110
vuɛ	-8111
yɛɛ	-8112
▁bê	-8113
▁eb	-8114
▁rm	-8115
▁ña	-8116
dari	-8117
dege	-8118
duga	-8119
dɛsi	-8120
fmon	-8121
gben	-8122
geli	-8123
giya	-8124
joow	-8125
kôrô	-8126
lamɛ	-8127
lugu	-8128
mata	-8129
pore	-8130
sala	-8131
sion	-8132
teni	-8133
wala	-8134
yira	-8135
yiye	-8136
zain	-8137
▁así	-8138
▁bɔɔ	-8139
▁caa	-8140
▁dok	-8141
▁ear	-8142
▁gam	-8143
▁hum	-8144
▁mmi	-8145
▁myo	-8146
▁nua	-8147
▁nza	-8148
▁pai	-8149
▁ref	-8150
▁sgt	-8151
▁smi	-8152
▁wus	-8153
▁zun	-8154
badan	-8155
joona	-8156
ɑ̃ɑru	-8157
▁alba	-8158
▁bayi	-8159
▁bɔko	-8160
▁gawo	-8161
▁gɛlɛ	-8162
▁hawa	-8163
▁itsu	-8164
▁jinè	-8165
▁kalu	-8166
▁kang	-8167
▁kate	-8168
▁kuli	-8169
▁leme	-8170
▁leye	-8171
▁limi	-8172
▁nyan	-8173
▁nɔmu	-8174
▁pɛtɛ	-8175
▁raso	-8176
▁rumu	-8177
▁sing	-8178
▁toba	-8179
▁voto	-8180
▁zewu	-8181
▁zhao	-8182
▁ɲiin	-8183
delupe	-8184
fmonin	-8185
giripa	-8186
mɛtiri	-8187
pirini	-8188
tiɲèni	-8189
▁alema	-8190
▁alisa	-8191
▁balɔn	-8192
▁barra	-8193
▁bɔɲɛn	-8194
▁bɛrum	-8195
▁dangu	-8196
▁douno	-8197
▁ganha	-8198
▁gbili	-8199
▁hindi	-8200
▁jeene	-8201
▁kénlé	-8202
▁lonna	-8203
▁maanɛ	-8204
▁manga	-8205
▁miles	-8206
▁nayin	-8207
▁nfobi	-8208
▁nɔɔni	-8209
▁oyigi	-8210
▁panna	-8211
▁samma	-8212
▁sufrì	-8213
▁watch	-8214
▁yɛ̀rɛ	-8215
kɛyɔrɔw	-8216
teintum	-8217
ɲamɔgɔw	-8218
▁barisa	-8219
▁bonbon	-8220
▁dunman	-8221
▁fangan	-8222
▁kahani	-8223
▁kòròta	-8224
▁kɛwale	-8225
▁laadaw	-8226
▁lamhoo	-8227
▁malala	-8228
▁masiya	-8229
▁nɔnkɔn	-8230
▁sapnoo	-8231
▁ɲinini	-8232
daniyɛli	-8233
forotigi	-8234
▁famille	-8235
▁jurumuk	-8236
▁sumunin	-8237
▁talfoni	-8238
▁tuganin	-8239
▁tɔɔrɔba	-8240
mɔgɔjuguw	-8241
▁adressiw	-8242
▁balimaya	-8243
▁dugutaga	-8244
▁egilisiw	-8245
▁gbengben	-8246
▁gwɛlɛman	-8247
▁kalifara	-8248
▁kojugukɛ	-8249
▁kɔrɔsiri	-8250
▁kɛnɛyako	-8251
▁lamagara	-8252
▁latigɛra	-8253
▁masamuso	-8254
▁tɛ̄maloo	-8255
▁ɲasinnin	-8256
kakalamuso	-8257
▁asipirini	-8258
▁balimakèw	-8259
▁dùgumɔgɔw	-8260
▁ezipitika	-8261
▁gwadelupe	-8262
▁kongomisi	-8263
▁singapore	-8264
▁tɔnmɔkɔrɔ	-8265
▁kakalamuso	-8266
▁kititigɛla	-8267
▁laminimini	-8268
▁kunnafmonin	-8269
▁kunnatiɲèni	-8270
▁marifakɛlɛw	-8271
▁traductions	-8272
▁siranyakojugu	-8273
**	-8274
.!	-8275
gl	-8276
kp	-8277
sɑ	-8278
aka	-8279
bah	-8280
béé	-8281
cti	-8282
dad	-8283
dar	-8284
ero	-8285
jer	-8286
laa	-8287
mpe	-8288
mɛɛ	-8289
rik	-8290
sɔɔ	-8291
vun	-8292
▁gm	-8293
▁hl	-8294
▁kr	-8295
▁kí	-8296
▁lw	-8297
▁mô	-8298
▁rɑ	-8299
▁tn	-8300
bati	-8301
bisa	-8302
djou	-8303
dɛɛ̄	-8304
jòni	-8305
minu	-8306
nunu	-8307
reru	-8308
rupt	-8309
sini	-8310
volɛ	-8311
ziti	-8312
▁adi	-8313
▁bbw	-8314
▁dic	-8315
▁día	-8316
▁eke	-8317
▁gas	-8318
▁gbi	-8319
▁igo	-8320
▁kae	-8321
▁lgu	-8322
▁loe	-8323
▁loj	-8324
▁mɔŋ	-8325
▁oce	-8326
▁pud	-8327
▁siɛ	-8328
▁som	-8329
▁tié	-8330
▁tom	-8331
▁wat	-8332
▁yum	-8333
▁zer	-8334
baali	-8335
duuru	-8336
forow	-8337
linya	-8338
ngban	-8339
sonin	-8340
waasa	-8341
▁abis	-8342
▁agya	-8343
▁amik	-8344
▁beni	-8345
▁biki	-8346
▁bugò	-8347
▁burɑ	-8348
▁bàro	-8349
▁bìla	-8350
▁bɛnn	-8351
▁ciin	-8352
▁dear	-8353
▁faxa	-8354
▁flow	-8355
▁hada	-8356
▁jian	-8357
▁jɛnɛ	-8358
▁kick	-8359
▁kiki	-8360
▁kɔji	-8361
▁kɛkɛ	-8362
▁lôni	-8363
▁mbaa	-8364
▁mwɛɛ	-8365
▁nima	-8366
▁nsii	-8367
▁nuku	-8368
▁over	-8369
▁paso	-8370
▁poan	-8371
▁polo	-8372
▁situ	-8373
▁stew	-8374
▁suna	-8375
▁swaa	-8376
▁tafô	-8377
▁taon	-8378
▁then	-8379
▁toxo	-8380
▁wasi	-8381
▁wolu	-8382
▁wura	-8383
▁ɲaɲa	-8384
olorun	-8385
sutana	-8386
▁adgee	-8387
▁azafu	-8388
▁baawu	-8389
▁broda	-8390
▁bukan	-8391
▁cifiw	-8392
▁djate	-8393
▁dondo	-8394
▁goyar	-8395
▁inafô	-8396
▁jɔnun	-8397
▁kiiti	-8398
▁linba	-8399
▁maxan	-8400
▁mokow	-8401
▁money	-8402
▁nandi	-8403
▁ozain	-8404
▁paran	-8405
▁plain	-8406
▁satan	-8407
▁sigin	-8408
▁stran	-8409
▁sīdee	-8410
▁tagat	-8411
▁tonyɛ	-8412
▁yaasa	-8413
▁yɑ̃nu	-8414
kumakan	-8415
kɛlɛden	-8416
lenninw	-8417
tionary	-8418
▁bannin	-8419
▁dhyaan	-8420
▁dɔgɔda	-8421
▁eburɔn	-8422
▁fɔrɔgɔ	-8423
▁gansan	-8424
▁health	-8425
▁kodiya	-8426
▁kuruwa	-8427
▁kècogo	-8428
▁kògòji	-8429
▁lagɛri	-8430
▁manusi	-8431
▁nɔrɔla	-8432
▁pilige	-8433
▁sagola	-8434
▁sayɔrɔ	-8435
▁sunman	-8436
▁sòròli	-8437
▁tɛrɛti	-8438
▁zɛtise	-8439
▁ɲɛnako	-8440
▁belinya	-8441
▁burukun	-8442
▁corrupt	-8443
▁cɛnbali	-8444
▁findima	-8445
▁kalooli	-8446
▁laadili	-8447
▁lesbian	-8448
▁lɔbaara	-8449
▁minɛnin	-8450
▁nsiirin	-8451
▁sirilen	-8452
▁suicide	-8453
▁sèbènna	-8454
▁sɛbɛnni	-8455
kulekanba	-8456
▁bilasira	-8457
▁hooligan	-8458
▁latigɛta	-8459
▁lecturer	-8460
▁marayɔrɔ	-8461
▁mayitama	-8462
▁sigituma	-8463
▁tiɲɛtigi	-8464
kannikɛlaw	-8465
▁dimininba	-8466
▁ezekiyɛli	-8467
▁kaninteya	-8468
▁lakɔliden	-8469
▁misirakaw	-8470
▁hakilisigi	-8471
▁hakilitanw	-8472
▁siranyafɛn	-8473
▁zɛtisemane	-8474
▁hakiliɲagami	-8475
▁sarakalasebaara	-8476
.*	-8477
em	-8478
ih	-8479
lá	-8480
sô	-8481
▁]	-8482
ahh	-8483
ais	-8484
biɛ	-8485
bor	-8486
cua	-8487
dei	-8488
fri	-8489
kiw	-8490
kko	-8491
los	-8492
ope	-8493
sam	-8494
yɔɔ	-8495
▁ac	-8496
▁cm	-8497
▁jà	-8498
▁lg	-8499
▁np	-8500
aaad	-8501
bawo	-8502
bonw	-8503
bɔgɔ	-8504
duni	-8505
gièn	-8506
ilio	-8507
ingo	-8508
joob	-8509
masi	-8510
novo	-8511
rɛbu	-8512
wale	-8513
wele	-8514
wete	-8515
▁abm	-8516
▁afu	-8517
▁aha	-8518
▁año	-8519
▁did	-8520
▁ene	-8521
▁fle	-8522
▁gea	-8523
▁him	-8524
▁hua	-8525
▁kún	-8526
▁lik	-8527
▁mbɛ	-8528
▁omo	-8529
▁peh	-8530
▁yuv	-8531
▁zaw	-8532
inɛyi	-8533
kunŋo	-8534
▁banu	-8535
▁bete	-8536
▁bola	-8537
▁cema	-8538
▁dare	-8539
▁dayɛ	-8540
▁enki	-8541
▁gbɛɛ	-8542
▁hito	-8543
▁katu	-8544
▁kirɔ	-8545
▁kɛni	-8546
▁lawn	-8547
▁lela	-8548
▁maxi	-8549
▁meno	-8550
▁miya	-8551
▁mogô	-8552
▁nglo	-8553
▁niyo	-8554
▁nògò	-8555
▁nɲɔn	-8556
▁pere	-8557
▁seru	-8558
▁snoo	-8559
▁sosi	-8560
▁toon	-8561
▁tɛka	-8562
▁yaha	-8563
▁yani	-8564
aaadto	-8565
beleba	-8566
beriya	-8567
dougou	-8568
filipu	-8569
lafiɲɛ	-8570
sinŋge	-8571
▁amaro	-8572
▁baaba	-8573
▁bunny	-8574
▁datte	-8575
▁diara	-8576
▁djaté	-8577
▁dougo	-8578
▁durun	-8579
▁enjer	-8580
▁eviik	-8581
▁furan	-8582
▁grute	-8583
▁inten	-8584
▁isaka	-8585
▁karte	-8586
▁khwin	-8587
▁kɔsia	-8588
▁milli	-8589
▁sabou	-8590
▁sanko	-8591
▁sinxa	-8592
▁ségui	-8593
▁tryna	-8594
▁yeele	-8595
ciation	-8596
danboli	-8597
▁barred	-8598
▁damadɔ	-8599
▁domini	-8600
▁egilɔn	-8601
▁forget	-8602
▁fɔbaga	-8603
▁gabiri	-8604
▁kajoob	-8605
▁kojvun	-8606
▁lasiri	-8607
▁lesley	-8608
▁mafiɲɛ	-8609
▁marala	-8610
▁nɛgɛso	-8611
▁sitanɛ	-8612
▁suguru	-8613
▁viziti	-8614
▁yɛrɛma	-8615
▁ɲumaya	-8616
mɔgɔjugu	-8617
sabatigi	-8618
saramina	-8619
▁bukakke	-8620
▁bòɲògòn	-8621
▁duukolo	-8622
▁fantasy	-8623
▁hankili	-8624
▁klanman	-8625
▁korgièn	-8626
▁senegal	-8627
▁ɲɔgɔnna	-8628
▁demisɛnw	-8629
▁français	-8630
▁fɛntigiw	-8631
▁galibada	-8632
▁gwiliman	-8633
▁kikokiko	-8634
▁mazlumun	-8635
▁musodenw	-8636
▁nikanɔri	-8637
▁oktɔburu	-8638
▁uuaaadto	-8639
▁yatagara	-8640
▁ɲènasisi	-8641
▁baarajugu	-8642
▁jurumutòw	-8643
▁jusukunŋo	-8644
▁kpanngban	-8645
▁sagokɛlaw	-8646
▁tarikikow	-8647
▁belebeleba	-8648
▁dictionary	-8649
▁kuntilenna	-8650
▁ladegebaga	-8651
▁sariɲanxin	-8652
▁taamaɲɔgɔn	-8653
▁alalɔnbaliw	-8654
▁lɔnniyakuma	-8655
▁mɛlɛkɛɲuman	-8656
▁ninsaramina	-8657
benkannikɛlaw	-8658
▁jalasabatigi	-8659
▁kabakomayɔrɔ	-8660
▁mɔgɔfagadugu	-8661
▁kɛlɛkɛwotorow	-8662
▁olivuyirikulu	-8663
_*	-8664
kò	-8665
ot	-8666
pl	-8667
tv	-8668
ɡi	-8669
ɲo	-8670
bri	-8671
doh	-8672
eti	-8673
fed	-8674
isa	-8675
kpi	-8676
lek	-8677
rro	-8678
ski	-8679
uld	-8680
èri	-8681
ɛsi	-8682
▁,"	-8683
▁cɔ	-8684
▁mé	-8685
▁nd	-8686
▁ul	-8687
aman	-8688
dabu	-8689
dunu	-8690
lege	-8691
ling	-8692
lonw	-8693
poli	-8694
sani	-8695
sɔgɔ	-8696
wɔri	-8697
xoya	-8698
yisi	-8699
zarè	-8700
▁aah	-8701
▁aci	-8702
▁alɛ	-8703
▁ank	-8704
▁boh	-8705
▁bɑɑ	-8706
▁bɔr	-8707
▁egb	-8708
▁fik	-8709
▁fre	-8710
▁god	-8711
▁gɛ̀	-8712
▁ilo	-8713
▁kel	-8714
▁más	-8715
▁nla	-8716
▁nol	-8717
▁rut	-8718
▁sia	-8719
▁tim	-8720
▁tre	-8721
▁yer	-8722
▁ɛfi	-8723
▁ɛsu	-8724
▁̈la	-8725
baatɔ	-8726
basan	-8727
biyaw	-8728
gbɔgɔ	-8729
tɛɛni	-8730
vious	-8731
zanid	-8732
▁akan	-8733
▁anta	-8734
▁bona	-8735
▁bôra	-8736
▁bɑkɑ	-8737
▁crew	-8738
▁dabɔ	-8739
▁dato	-8740
▁dead	-8741
▁duda	-8742
▁fɔko	-8743
▁hakè	-8744
▁hele	-8745
▁hola	-8746
▁jiya	-8747
▁jònw	-8748
▁kaar	-8749
▁kier	-8750
▁kike	-8751
▁kofe	-8752
▁kofi	-8753
▁kosã	-8754
▁kuŋo	-8755
▁kɑwɑ	-8756
▁lile	-8757
▁lily	-8758
▁loan	-8759
▁mizi	-8760
▁mɔmɔ	-8761
▁nogo	-8762
▁piya	-8763
▁pron	-8764
▁ques	-8765
▁raha	-8766
▁rose	-8767
▁saaw	-8768
▁sale	-8769
▁sata	-8770
▁soma	-8771
▁some	-8772
▁suit	-8773
▁sɔmɔ	-8774
▁vinɛ	-8775
▁waxa	-8776
▁yong	-8777
datugu	-8778
lɛgɛrɛ	-8779
urukko	-8780
ɲoxoya	-8781
▁alice	-8782
▁asoko	-8783
▁atɛni	-8784
▁bugun	-8785
▁bɔɔrɔ	-8786
▁djugu	-8787
▁eagle	-8788
▁fanla	-8789
▁fiman	-8790
▁gbɛtɛ	-8791
▁hours	-8792
▁josow	-8793
▁karti	-8794
▁klɛli	-8795
▁kosan	-8796
▁kulun	-8797
▁loota	-8798
▁manan	-8799
▁mande	-8800
▁needs	-8801
▁ntelu	-8802
▁older	-8803
▁sange	-8804
▁sigir	-8805
▁sɔɔra	-8806
▁sɛnbɛ	-8807
▁tiɲan	-8808
▁tonge	-8809
▁tɔnun	-8810
▁xanma	-8811
▁xɔnna	-8812
▁yiŋgɔ	-8813
▁zuifu	-8814
jiginin	-8815
▁action	-8816
▁bankoo	-8817
▁bognan	-8818
▁bonico	-8819
▁dabali	-8820
▁deepin	-8821
▁dɛmɛli	-8822
▁falatɔ	-8823
▁filiko	-8824
▁hommie	-8825
▁jateli	-8826
▁jimini	-8827
▁jɔyɔrɔ	-8828
▁kamili	-8829
▁kisiko	-8830
▁kɛtuma	-8831
▁lojban	-8832
▁makali	-8833
▁maminɛ	-8834
▁misipa	-8835
▁moriya	-8836
▁nyinan	-8837
▁nyɛgɛn	-8838
▁samara	-8839
▁sarati	-8840
▁sutara	-8841
▁takami	-8842
▁tigɛko	-8843
▁ɛsukoa	-8844
gwangwan	-8845
karamògò	-8846
▁awovolɛ	-8847
▁binaani	-8848
▁dafalon	-8849
▁durunya	-8850
▁faliden	-8851
▁girinna	-8852
▁gnouman	-8853
▁intento	-8854
▁kàlanso	-8855
▁ladkiyo	-8856
▁latɛɛni	-8857
▁snoofed	-8858
▁sotigiw	-8859
▁tàbiyaw	-8860
kololailu	-8861
lafiɲɛlon	-8862
miralailu	-8863
▁barabasi	-8864
▁denninya	-8865
▁diɲɛjugu	-8866
▁dunanman	-8867
▁jagofɛnw	-8868
▁jurumukã	-8869
▁jurumutɔ	-8870
▁kewalilu	-8871
▁kolokolo	-8872
▁kuntigin	-8873
▁nyanaman	-8874
▁previous	-8875
▁sɛbɛnkun	-8876
▁vinɛgiri	-8877
▁yɔgɔrimɔ	-8878
▁ŋunankan	-8879
belebeleba	-8880
▁denmidenw	-8881
▁desanburu	-8882
▁halakilon	-8883
▁josɔnsogo	-8884
▁misiranka	-8885
▁sapurukko	-8886
▁haminankow	-8887
▁kafuɲoxoya	-8888
▁kikokikona	-8889
▁kɔnɔnafɛnw	-8890
▁lagɛrikɛla	-8891
▁marisikalo	-8892
▁talontalon	-8893
▁awirilikalo	-8894
▁dugugwɛdafɛ	-8895
▁translation	-8896
▁demetiriyusi	-8897
▁nafolotigiya	-8898
▁sigɛnbagatɔw	-8899
▁denmakololailu	-8900
▁denmamiralailu	-8901
▁banabagatɔlaman	-8902
"!	-8903
dí	-8904
ei	-8905
hy	-8906
kn	-8907
pé	-8908
aww	-8909
con	-8910
hia	-8911
jaa	-8912
kɔɔ	-8913
mbɛ	-8914
mui	-8915
niw	-8916
qui	-8917
sai	-8918
sim	-8919
sio	-8920
vil	-8921
▁&&	-8922
▁bá	-8923
▁eu	-8924
▁lá	-8925
▁sn	-8926
▁tâ	-8927
▁ua	-8928
▁yì	-8929
,...	-8930
baly	-8931
biŋe	-8932
fira	-8933
fiyɛ	-8934
ller	-8935
ring	-8936
rodi	-8937
sran	-8938
ster	-8939
teri	-8940
tôrô	-8941
tɔro	-8942
yazi	-8943
zeki	-8944
▁-.-	-8945
▁^_*	-8946
▁afɔ	-8947
▁cou	-8948
▁dar	-8949
▁djè	-8950
▁fri	-8951
▁gɔɔ	-8952
▁kɛ̃	-8953
▁loa	-8954
▁nsa	-8955
▁nsi	-8956
▁omi	-8957
▁oni	-8958
▁ont	-8959
▁she	-8960
▁tɛɛ	-8961
▁var	-8962
▁zir	-8963
▁ziī	-8964
▁ŋɔn	-8965
...!"	-8966
bdaan	-8967
hiiri	-8968
kanbe	-8969
kuruw	-8970
ngbɛn	-8971
roolu	-8972
tungo	-8973
▁aiye	-8974
▁anda	-8975
▁atye	-8976
▁beli	-8977
▁bili	-8978
▁bɔku	-8979
▁bɔɲɛ	-8980
▁daba	-8981
▁data	-8982
▁dena	-8983
▁denn	-8984
▁edoo	-8985
▁egbl	-8986
▁fail	-8987
▁fren	-8988
▁jong	-8989
▁keme	-8990
▁klik	-8991
▁lale	-8992
▁lari	-8993
▁lass	-8994
▁made	-8995
▁mane	-8996
▁mang	-8997
▁medi	-8998
▁mita	-8999
▁nasa	-9000
▁nɛɛn	-9001
▁pala	-9002
▁plak	-9003
▁saka	-9004
▁segu	-9005
▁sena	-9006
▁sora	-9007
▁srɛ́	-9008
▁sura	-9009
▁wuro	-9010
▁wuuu	-9011
▁yita	-9012
▁ɲiiw	-9013
▁ɲɛfɛ	-9014
amiina	-9015
biŋeyo	-9016
cuatro	-9017
ingoma	-9018
jougou	-9019
kourou	-9020
tɔrocɛ	-9021
yɔgɔnw	-9022
ɲamɔgɔ	-9023
▁adɑmɑ	-9024
▁baari	-9025
▁bener	-9026
▁biinw	-9027
▁could	-9028
▁couli	-9029
▁djati	-9030
▁dunan	-9031
▁dònni	-9032
▁dɛɛro	-9033
▁fabor	-9034
▁fɔlen	-9035
▁hamin	-9036
▁jaŋgo	-9037
▁jisra	-9038
▁kakne	-9039
▁kanda	-9040
▁kanou	-9041
▁kasso	-9042
▁kegun	-9043
▁kiiri	-9044
▁klama	-9045
▁knoww	-9046
▁kouna	-9047
▁muumɛ	-9048
▁nakun	-9049
▁ocean	-9050
▁siman	-9051
▁sɔɔrɑ	-9052
▁sɔ̃na	-9053
▁tango	-9054
▁turun	-9055
▁tutun	-9056
▁whole	-9057
▁wulen	-9058
▁xuiin	-9059
igitugu	-9060
mɛlɛkɛw	-9061
▁billie	-9062
▁boloko	-9063
▁bonnie	-9064
▁bɔtuma	-9065
▁daaman	-9066
▁denfaw	-9067
▁duguti	-9068
▁etièni	-9069
▁gbɔɔrɔ	-9070
▁giingɔ	-9071
▁kotogo	-9072
▁kuntii	-9073
▁lakura	-9074
▁lokaso	-9075
▁loveee	-9076
▁maroya	-9077
▁memang	-9078
▁mintak	-9079
▁morikɛ	-9080
▁sailin	-9081
▁sumuso	-9082
▁sɔmiɲɛ	-9083
▁sɛbɛri	-9084
▁ttungo	-9085
▁yirata	-9086
▁yongon	-9087
▁yoyada	-9088
baaraden	-9089
taradunu	-9090
▁alemaɲi	-9091
▁bezanid	-9092
▁bondori	-9093
▁desired	-9094
▁habadan	-9095
▁jamanan	-9096
▁jɔrɔkɔw	-9097
▁kokɛtaw	-9098
▁kpɑ̃ɑru	-9099
▁kɔrɔilu	-9100
▁laadala	-9101
▁lajɛnko	-9102
▁mbakɔgɔ	-9103
▁sɔrɔnna	-9104
▁wahiiri	-9105
▁wasanin	-9106
▁yiigeli	-9107
▁amalɛkiw	-9108
▁dususuma	-9109
▁jɔnmusow	-9110
▁kelennan	-9111
▁kulujanw	-9112
▁kɔrɔbɔra	-9113
▁lahilala	-9114
▁minisiri	-9115
▁mɔgɔwolo	-9116
▁saniyali	-9117
▁sungurun	-9118
▁sɔnbagaw	-9119
▁welewele	-9120
▁wubiŋeyo	-9121
▁yirakala	-9122
▁yonmdaan	-9123
barinabasi	-9124
zeruzalɛmu	-9125
▁bakɔrɔnin	-9126
▁coulibaly	-9127
▁dayɛlɛnin	-9128
▁kpɛnngbɛn	-9129
▁kɔnɔnakow	-9130
▁lɛnpominɛ	-9131
▁saduseènw	-9132
▁sinsinnen	-9133
▁tangabaga	-9134
▁cɛnnikɛfɛn	-9135
▁cɛtigɛfani	-9136
▁dabaritigi	-9137
▁dɔkɔtɔrocɛ	-9138
▁karikarila	-9139
▁ladilikuma	-9140
▁lanabaliya	-9141
▁tulogwɛlɛn	-9142
▁ɲininkaliw	-9143
isirayɛliden	-9144
▁baataradunu	-9145
▁jalakibaliw	-9146
▁nanbaramɔgɔ	-9147
▁sigɛnbagatɔ	-9148
▁sìrakɔrɔnin	-9149
▁tolonkɛyɔrɔ	-9150
▁sɔngɔgwɛlɛnw	-9151
▁ɲɔgɔndanboli	-9152
▁kerecɛnɲɔgɔnw	-9153
▁nisɔndiyapɛrɛn	-9154
cy	-9155
dò	-9156
iz	-9157
ñi	-9158
▁è	-9159
aso	-9160
ata	-9161
bui	-9162
bye	-9163
clo	-9164
dum	-9165
gli	-9166
gwa	-9167
naa	-9168
pti	-9169
ram	-9170
sèn	-9171
unt	-9172
▁!'	-9173
▁.;	-9174
▁bg	-9175
anni	-9176
dent	-9177
enai	-9178
golo	-9179
hala	-9180
rian	-9181
rɛni	-9182
sabu	-9183
sèbè	-9184
tact	-9185
tobi	-9186
tɔɔn	-9187
waka	-9188
yanw	-9189
yawu	-9190
zayi	-9191
ɔgon	-9192
ɲɔɔn	-9193
▁(?)	-9194
▁aag	-9195
▁abe	-9196
▁amé	-9197
▁ane	-9198
▁biw	-9199
▁boe	-9200
▁cue	-9201
▁elo	-9202
▁faw	-9203
▁fru	-9204
▁hɔn	-9205
▁ike	-9206
▁jam	-9207
▁klu	-9208
▁kpɔ	-9209
▁nnɛ	-9210
▁oye	-9211
▁sub	-9212
▁sèn	-9213
▁uuu	-9214
▁yak	-9215
▁ŋan	-9216
asiri	-9217
denfa	-9218
ezawu	-9219
gboya	-9220
zenin	-9221
▁aayi	-9222
▁adun	-9223
▁angi	-9224
▁arti	-9225
▁buba	-9226
▁bèna	-9227
▁cana	-9228
▁dona	-9229
▁dɔ̃ɔ	-9230
▁fofo	-9231
▁gadi	-9232
▁hell	-9233
▁jeni	-9234
▁john	-9235
▁jude	-9236
▁kaku	-9237
▁kano	-9238
▁keso	-9239
▁kpɛ̃	-9240
▁kwlá	-9241
▁kɛɛn	-9242
▁maki	-9243
▁mule	-9244
▁mɛdi	-9245
▁nakɔ	-9246
▁niye	-9247
▁nàna	-9248
▁pasa	-9249
▁satu	-9250
▁silo	-9251
▁sofe	-9252
▁taaw	-9253
▁toto	-9254
▁tuku	-9255
▁waso	-9256
▁weel	-9257
▁worɔ	-9258
▁wɛ̃ɛ	-9259
▁xɔri	-9260
▁ŋgɔɔ	-9261
▁ɛntɛ	-9262
▁ɡɑri	-9263
▁ɲigi	-9264
kɛniya	-9265
lieved	-9266
ssigui	-9267
ugouni	-9268
zakari	-9269
▁ajtun	-9270
▁akoto	-9271
▁aliya	-9272
▁balen	-9273
▁balon	-9274
▁baron	-9275
▁bhala	-9276
▁deema	-9277
▁douni	-9278
▁dugaw	-9279
▁ebola	-9280
▁fanfè	-9281
▁fuloo	-9282
▁gunma	-9283
▁gɛlɛn	-9284
▁jende	-9285
▁kamar	-9286
▁koren	-9287
▁kunwɔ	-9288
▁livru	-9289
▁manji	-9290
▁monde	-9291
▁nanta	-9292
▁nisòn	-9293
▁otona	-9294
▁segui	-9295
▁setan	-9296
▁sudon	-9297
▁sɔgon	-9298
▁taman	-9299
▁tanya	-9300
▁tɔrɔn	-9301
▁wuloo	-9302
▁zaluu	-9303
▁ɲayen	-9304
▁batuma	-9305
▁birila	-9306
▁bittoo	-9307
▁defina	-9308
▁deleke	-9309
▁gratis	-9310
▁halisa	-9311
▁kaname	-9312
▁kilita	-9313
▁kirisa	-9314
▁kowobu	-9315
▁labanw	-9316
▁lamaga	-9317
▁melayu	-9318
▁pepewu	-9319
▁suulun	-9320
▁sɛnbɛn	-9321
▁talaga	-9322
▁talenw	-9323
▁wakati	-9324
fariziɲɛ	-9325
samuyɛli	-9326
▁ananiya	-9327
▁baarakè	-9328
▁banbana	-9329
▁contact	-9330
▁danguma	-9331
▁denwolo	-9332
▁furunin	-9333
▁gwannin	-9334
▁kafeela	-9335
▁kajanin	-9336
▁kamalen	-9337
▁kedenna	-9338
▁kolofen	-9339
▁kulokan	-9340
▁kèwalew	-9341
▁kɔnɔnin	-9342
▁labaari	-9343
▁mansinw	-9344
▁nafolow	-9345
▁nayinmɛ	-9346
▁nyɛrɛla	-9347
▁spilled	-9348
▁surunya	-9349
▁waajulo	-9350
▁waajura	-9351
▁wagabɔn	-9352
▁wolokun	-9353
▁bangebaw	-9354
▁believed	-9355
▁bɛriseba	-9356
▁caamanba	-9357
▁jurumutò	-9358
▁jɛnkuluw	-9359
▁kalokura	-9360
▁kitiyɔrɔ	-9361
▁miriyama	-9362
▁nilifènw	-9363
▁warimako	-9364
▁wolomana	-9365
▁ɲanamaya	-9366
▁batizenin	-9367
▁denmisenw	-9368
▁fagabagaw	-9369
▁galilekaw	-9370
▁hɔrɔnyali	-9371
▁jamanajan	-9372
▁nisòndiya	-9373
▁bolomafara	-9374
▁defination	-9375
▁farikoloya	-9376
▁gabiriyɛli	-9377
▁kɛrɛkɛniya	-9378
▁makoyafɛnw	-9379
▁sisansisan	-9380
▁baarakɛyɔrɔ	-9381
▁balikukalan	-9382
▁kolatigɛnin	-9383
▁kininkininma	-9384
▁talontalonna	-9385
▁dusukunnasiri	-9386
▁ngalontigɛlaw	-9387
▁tilenninyakow	-9388
▁tilenbaliyakow	-9389
▁dingɛbelebeleba	-9390
],	-9391
dè	-9392
fp	-9393
ph	-9394
.""	-9395
and	-9396
blu	-9397
ded	-9398
kôn	-9399
lar	-9400
lɔɔ	-9401
mes	-9402
naw	-9403
old	-9404
ras	-9405
raz	-9406
rry	-9407
tha	-9408
òlu	-9409
▁qi	-9410
▁sc	-9411
▁ɡo	-9412
bena	-9413
dara	-9414
dena	-9415
flɛn	-9416
fɔla	-9417
fɔɔn	-9418
gina	-9419
hhee	-9420
huhu	-9421
kɔru	-9422
mino	-9423
nked	-9424
renu	-9425
tɛgɛ	-9426
uari	-9427
wɛrɛ	-9428
yepe	-9429
yɔmu	-9430
ɲadi	-9431
̀nna	-9432
▁add	-9433
▁cla	-9434
▁cɛɲ	-9435
▁dit	-9436
▁epi	-9437
▁gbu	-9438
▁gbī	-9439
▁gee	-9440
▁gni	-9441
▁itu	-9442
▁kaŋ	-9443
▁kɛw	-9444
▁med	-9445
▁ngu	-9446
▁nko	-9447
▁ori	-9448
▁rio	-9449
▁sye	-9450
▁tio	-9451
▁wii	-9452
▁xɛɛ	-9453
▁zar	-9454
▁ɲun	-9455
▁ɲìi	-9456
▁̈nu	-9457
awuni	-9458
dooos	-9459
funun	-9460
giere	-9461
guini	-9462
senai	-9463
waaju	-9464
weenu	-9465
ŋgɔlɔ	-9466
▁aiki	-9467
▁ambɔ	-9468
▁anua	-9469
▁aust	-9470
▁bank	-9471
▁beau	-9472
▁bien	-9473
▁biwo	-9474
▁bota	-9475
▁bulo	-9476
▁cɛni	-9477
▁espe	-9478
▁hina	-9479
▁hobo	-9480
▁jɛɛn	-9481
▁maaf	-9482
▁magi	-9483
▁megl	-9484
▁milo	-9485
▁miyé	-9486
▁mujh	-9487
▁mɔgɛ	-9488
▁niyɔ	-9489
▁nyun	-9490
▁pula	-9491
▁sayo	-9492
▁sede	-9493
▁sulɛ	-9494
▁sàra	-9495
▁séré	-9496
▁toga	-9497
▁toki	-9498
▁unna	-9499
▁wase	-9500
▁wélé	-9501
▁yaad	-9502
▁yawa	-9503
▁yeeu	-9504
▁yuru	-9505
▁zozɛ	-9506
aninnu	-9507
dugaan	-9508
rinɛti	-9509
tekɔte	-9510
▁araba	-9511
▁arara	-9512
▁awlɛn	-9513
▁bhula	-9514
▁biibi	-9515
▁buuru	-9516
▁dalan	-9517
▁denmu	-9518
▁digir	-9519
▁diinɛ	-9520
▁dusuw	-9521
▁ekeyn	-9522
▁filen	-9523
▁ikoni	-9524
▁jahan	-9525
▁jèlen	-9526
▁kajɛn	-9527
▁label	-9528
▁latas	-9529
▁lepas	-9530
▁lonba	-9531
▁mosiw	-9532
▁moulo	-9533
▁saman	-9534
▁seene	-9535
▁start	-9536
▁tchin	-9537
▁tɔɔrɛ	-9538
▁uwien	-9539
▁yiŋgi	-9540
▁yɛɛra	-9541
minnɔgɔ	-9542
▁andere	-9543
▁bagara	-9544
▁batana	-9545
▁bewafa	-9546
▁burodi	-9547
▁cantik	-9548
▁dawula	-9549
▁fagata	-9550
▁firila	-9551
▁fourou	-9552
▁fòlenw	-9553
▁israil	-9554
▁jijali	-9555
▁jɔrɔgɔ	-9556
▁kadugo	-9557
▁kofɔra	-9558
▁kunbèn	-9559
▁kunman	-9560
▁kunsin	-9561
▁kòkari	-9562
▁maxidi	-9563
▁mininw	-9564
▁muxune	-9565
▁nadine	-9566
▁nfenna	-9567
▁ntanya	-9568
▁online	-9569
▁sesɔrɔ	-9570
▁sibiri	-9571
▁sipyii	-9572
▁sisɛmu	-9573
▁tigèra	-9574
▁tɔkɔru	-9575
▁waliba	-9576
kabakuru	-9577
▁baawure	-9578
▁bananin	-9579
▁daminan	-9580
▁dɛsɛnin	-9581
▁emayusi	-9582
▁fagataw	-9583
▁kangari	-9584
▁mananin	-9585
▁manjito	-9586
▁naawuni	-9587
▁silifen	-9588
▁sirinin	-9589
▁sonyali	-9590
▁todooos	-9591
▁trouver	-9592
▁yanuari	-9593
▁yinniwa	-9594
sogomisɛn	-9595
▁balɔntan	-9596
▁faankɔnɔ	-9597
▁farisicɛ	-9598
▁fɔɔnfɔɔn	-9599
▁hɔɔrɔnya	-9600
▁jamanolu	-9601
▁jɛnɲɔgɔn	-9602
▁kasobonw	-9603
▁kofidugu	-9604
▁lajɛnbaw	-9605
▁lɔgɔsiri	-9606
▁ntolatan	-9607
▁weeweenu	-9608
▁cɛdenninw	-9609
▁erodiyadi	-9610
▁fɛnfitini	-9611
▁kitabuenu	-9612
▁minaninnu	-9613
▁nyènamaya	-9614
▁tigitigiw	-9615
waajulikɛla	-9616
▁dounougnan	-9617
▁kasadimanw	-9618
▁nkalontigè	-9619
▁tɔɔrɔwaati	-9620
▁yɔrɔdatugu	-9621
▁yɛrɛmajigi	-9622
▁dabaribanaw	-9623
▁dugudenninw	-9624
▁kɛlɛdenŋana	-9625
▁siginyɔgɔnw	-9626
▁taamaɲɔgɔnw	-9627
▁ɲasiranbaga	-9628
▁sunguruɲuman	-9629
▁siranyayɔrɔba	-9630
▁faankɔnɔtasuma	-9631
▁mɔgɔmurutininw	-9632
%.	-9633
bs	-9634
kw	-9635
lw	-9636
yè	-9637
òd	-9638
́n	-9639
▁ö	-9640
!!;	-9641
..;	-9642
ast	-9643
bɛr	-9644
dap	-9645
fén	-9646
gno	-9647
ksi	-9648
mar	-9649
mbe	-9650
mpi	-9651
sco	-9652
ven	-9653
via	-9654
vla	-9655
wun	-9656
êrê	-9657
ɲaa	-9658
▁kn	-9659
▁lò	-9660
▁pm	-9661
▁pì	-9662
▁ìn	-9663
?!!;	-9664
aaba	-9665
buli	-9666
gnon	-9667
koun	-9668
lɔra	-9669
mand	-9670
mɛli	-9671
niin	-9672
nost	-9673
sali	-9674
soba	-9675
stow	-9676
sôrô	-9677
teen	-9678
tɛlɛ	-9679
yoro	-9680
yèrè	-9681
▁adv	-9682
▁agi	-9683
▁arg	-9684
▁atu	-9685
▁ayu	-9686
▁bae	-9687
▁blk	-9688
▁bor	-9689
▁dju	-9690
▁eba	-9691
▁eee	-9692
▁fur	-9693
▁gia	-9694
▁gɛn	-9695
▁ibe	-9696
▁kàn	-9697
▁kùn	-9698
▁mik	-9699
▁nag	-9700
▁nti	-9701
▁nòd	-9702
▁nɔɛ	-9703
▁pad	-9704
▁sbb	-9705
▁sha	-9706
▁sya	-9707
▁sɛɛ	-9708
▁toh	-9709
▁tôn	-9710
▁wam	-9711
!!!;)	-9712
banba	-9713
biliw	-9714
ezayi	-9715
faniw	-9716
image	-9717
kɔnɔn	-9718
lɛmun	-9719
masaw	-9720
masen	-9721
surun	-9722
tandi	-9723
tinue	-9724
ugbɔɔ	-9725
zoova	-9726
▁abra	-9727
▁acih	-9728
▁anak	-9729
▁anum	-9730
▁baca	-9731
▁baso	-9732
▁blik	-9733
▁ciko	-9734
▁cɛba	-9735
▁deri	-9736
▁djin	-9737
▁dɛbɛ	-9738
▁esta	-9739
▁fact	-9740
▁fifa	-9741
▁fɔrɔ	-9742
▁gbee	-9743
▁guru	-9744
▁gusu	-9745
▁hela	-9746
▁hota	-9747
▁igno	-9748
▁jamu	-9749
▁jona	-9750
▁keba	-9751
▁labò	-9752
▁lasã	-9753
▁lima	-9754
▁malu	-9755
▁natò	-9756
▁noho	-9757
▁pegi	-9758
▁pɔrɔ	-9759
▁rock	-9760
▁sage	-9761
▁sega	-9762
▁sent	-9763
▁sewa	-9764
▁sige	-9765
▁snow	-9766
▁swɑɑ	-9767
▁sàgo	-9768
▁tewu	-9769
▁tilé	-9770
▁tsee	-9771
▁wuna	-9772
▁wunɛ	-9773
▁yian	-9774
▁yoru	-9775
bangga	-9776
gilizi	-9777
matiyo	-9778
zozuwe	-9779
▁abang	-9780
▁blunt	-9781
▁calle	-9782
▁cikin	-9783
▁cubao	-9784
▁dagaw	-9785
▁denfa	-9786
▁diine	-9787
▁elifa	-9788
▁elisa	-9789
▁fagan	-9790
▁firin	-9791
▁fɔɔnɔ	-9792
▁ganji	-9793
▁gongo	-9794
▁italy	-9795
▁kafɛɛ	-9796
▁kalaa	-9797
▁katòd	-9798
▁kiini	-9799
▁kitty	-9800
▁koora	-9801
▁mboro	-9802
▁metro	-9803
▁minit	-9804
▁nyaan	-9805
▁nāulu	-9806
▁pinlɛ	-9807
▁puuni	-9808
▁sabes	-9809
▁sabtu	-9810
▁sanna	-9811
▁story	-9812
▁sugar	-9813
▁tanbi	-9814
▁times	-9815
▁trump	-9816
▁tunmb	-9817
▁ujala	-9818
▁wanan	-9819
▁wuluw	-9820
▁yaara	-9821
dinŋolu	-9822
▁bestow	-9823
▁birama	-9824
▁bolitɔ	-9825
▁boɲako	-9826
▁bɛɛnkɛ	-9827
▁cɛɲiya	-9828
▁dafali	-9829
▁erefaw	-9830
▁kanyan	-9831
▁karila	-9832
▁katimi	-9833
▁kilomè	-9834
▁komini	-9835
▁kosebe	-9836
▁koulou	-9837
▁kunnin	-9838
▁laseli	-9839
▁layiri	-9840
▁loloba	-9841
▁makabe	-9842
▁minggu	-9843
▁rutrum	-9844
▁saliya	-9845
▁saraga	-9846
▁sennin	-9847
▁sɛdiri	-9848
▁urubɛn	-9849
▁zowasi	-9850
▁ɲɔngɔn	-9851
▁albatro	-9852
▁bilanin	-9853
▁bolofen	-9854
▁donsocɛ	-9855
▁ehehhee	-9856
▁falenna	-9857
▁faragwɛ	-9858
▁fɛnjugu	-9859
▁gbɔgɔwɔ	-9860
▁handuni	-9861
▁kalankɛ	-9862
▁kanunin	-9863
▁korente	-9864
▁kumaloo	-9865
▁majigin	-9866
▁musonin	-9867
▁nafamaw	-9868
▁nosnost	-9869
▁nɛɛmaba	-9870
▁pensare	-9871
▁reading	-9872
▁timinin	-9873
▁akunndan	-9874
▁batosoba	-9875
▁benbailu	-9876
▁bɛnadadi	-9877
▁continue	-9878
▁dangaden	-9879
▁fenɛtiri	-9880
▁gbɛnbere	-9881
▁gwatigiw	-9882
▁gèlèyara	-9883
▁ignorant	-9884
▁jigisɔbɛ	-9885
▁jigitugu	-9886
▁kaselege	-9887
▁katugala	-9888
▁kɔnɔninw	-9889
▁lakuraya	-9890
▁lɔgɔfiyɛ	-9891
▁lɛbuyɔrɔ	-9892
▁madiyanw	-9893
▁mafiɲɛya	-9894
▁yibɛrɛbɑ	-9895
▁ɲanasisi	-9896
nafolotigi	-9897
▁bugurigwɛ	-9898
▁deepinsid	-9899
▁farankanw	-9900
▁ikoniyɔmu	-9901
▁jamakuluw	-9902
▁kanunlenw	-9903
▁murutinin	-9904
▁pentekɔte	-9905
▁superhero	-9906
▁tilenbali	-9907
▁tɔɔrɔninw	-9908
▁ɲanagwɛba	-9909
▁ɲèminèbaa	-9910
▁buurufunun	-9911
▁gwɛrɛgwɛrɛ	-9912
▁tigɛgwɛlɛn	-9913
▁timinadiya	-9914
▁ɛntɛrinɛti	-9915
▁burufununan	-9916
▁fangatigiya	-9917
▁kɔnɔntɔnnan	-9918
▁laadalabato	-9919
▁nisɔndiyaba	-9920
▁yɛrɛminɛlaw	-9921
▁ɲɔgɔnkanuya	-9922
▁kititigɛyɔrɔ	-9923
gê	-9924
ut	-9925
ɣi	-9926
▁á	-9927
alo	-9928
bip	-9929
bro	-9930
ill	-9931
ism	-9932
kɛw	-9933
mɛr	-9934
nka	-9935
obi	-9936
oma	-9937
reh	-9938
sir	-9939
ssè	-9940
try	-9941
tuɛ	-9942
wae	-9943
àri	-9944
éré	-9945
▁?!	-9946
▁aā	-9947
▁ep	-9948
▁er	-9949
▁fê	-9950
▁hd	-9951
▁iǹ	-9952
▁ré	-9953
▁sp	-9954
▁uw	-9955
▁ŋɔ	-9956
▁ɡɔ	-9957
aker	-9958
burg	-9959
busi	-9960
cant	-9961
cian	-9962
cute	-9963
doni	-9964
dɛsɛ	-9965
fuku	-9966
gaua	-9967
kela	-9968
kele	-9969
kɛɲɛ	-9970
lòkò	-9971
ptee	-9972
sere	-9973
soyi	-9974
tele	-9975
tien	-9976
toma	-9977
tèri	-9978
verb	-9979
yaga	-9980
ɑɑbɑ	-9981
ɛɛŋɛ	-9982
▁arɛ	-9983
▁buñ	-9984
▁die	-9985
▁djô	-9986
▁dɛm	-9987
▁est	-9988
▁fal	-9989
▁gɔ̃	-9990
▁iba	-9991
▁nja	-9992
▁ohh	-9993
▁phe	-9994
▁raa	-9995
▁ros	-9996
▁sas	-9997
▁sid	-9998
▁syg	-9999
▁tax	-10000
▁tiɑ	-10001
▁tɛ̀	-10002
▁why	-10003
▁wɛɛ	-10004
▁ɓɔɔ	-10005
dalaw	-10006
illet	-10007
kabin	-10008
naire	-10009
senta	-10010
tiguè	-10011
yinkɛ	-10012
▁akii	-10013
▁akpa	-10014
▁asen	-10015
▁asso	-10016
▁ayyy	-10017
▁biba	-10018
▁bésé	-10019
▁dijo	-10020
▁dong	-10021
▁déni	-10022
▁feli	-10023
▁film	-10024
▁fusi	-10025
▁fɛlɛ	-10026
▁gɔri	-10027
▁hine	-10028
▁hɛnɛ	-10029
▁hɛra	-10030
▁jese	-10031
▁july	-10032
▁jùru	-10033
▁kade	-10034
▁kaji	-10035
▁kici	-10036
▁koya	-10037
▁kudu	-10038
▁kuye	-10039
▁kèli	-10040
▁lakɔ	-10041
▁lona	-10042
▁lɔɔn	-10043
▁mail	-10044
▁mese	-10045
▁mind	-10046
▁muju	-10047
▁mwan	-10048
▁nate	-10049
▁naxɛ	-10050
▁ngue	-10051
▁paan	-10052
▁saco	-10053
▁sasa	-10054
▁sens	-10055
▁sian	-10056
▁soli	-10057
▁sudi	-10058
▁sɛrɛ	-10059
▁thai	-10060
▁tiap	-10061
▁till	-10062
▁tola	-10063
▁tori	-10064
▁tìle	-10065
▁tɔri	-10066
▁tɛnɛ	-10067
▁wann	-10068
▁wuyi	-10069
▁yaci	-10070
▁yado	-10071
▁yɛnu	-10072
bosɛti	-10073
▁about	-10074
▁akisi	-10075
▁angle	-10076
▁barna	-10077
▁bonbo	-10078
▁boozi	-10079
▁buloo	-10080
▁bɔ̀gɔ	-10081
▁cogow	-10082
▁cɛnko	-10083
▁deemɑ	-10084
▁deeni	-10085
▁esoti	-10086
▁fanfɛ	-10087
▁kaisi	-10088
▁kalii	-10089
▁kanko	-10090
▁kanla	-10091
▁koonw	-10092
▁lamai	-10093
▁latan	-10094
▁latin	-10095
▁lìlan	-10096
▁majnu	-10097
▁meble	-10098
▁naman	-10099
▁nunuw	-10100
▁omuri	-10101
▁sakta	-10102
▁sannu	-10103
▁sikow	-10104
▁tuubi	-10105
▁tɛmui	-10106
▁yesoo	-10107
▁yitɔn	-10108
▁yɑ̃ku	-10109
▁yɔngɔ	-10110
▁ɲaxan	-10111
▁ɲaxin	-10112
anikɛla	-10113
koɲuman	-10114
lilailu	-10115
samusɔn	-10116
ɲumailu	-10117
▁bakàri	-10118
▁binani	-10119
▁biriki	-10120
▁blessm	-10121
▁boloci	-10122
▁dajugu	-10123
▁decidí	-10124
▁faniko	-10125
▁fiyɛwu	-10126
▁fɔlikɛ	-10127
▁gamanw	-10128
▁janvuɛ	-10129
▁jɛ̀nna	-10130
▁kanada	-10131
▁kristi	-10132
▁kuntan	-10133
▁kururu	-10134
▁kàlanw	-10135
▁kòɲòcè	-10136
▁lafies	-10137
▁lafiɲè	-10138
▁lantaw	-10139
▁ligama	-10140
▁posted	-10141
▁sangan	-10142
▁siento	-10143
▁tchama	-10144
▁tinmin	-10145
▁tɔgɔba	-10146
▁walahi	-10147
▁wulada	-10148
▁ɲɛbɔra	-10149
▁ɲɛnama	-10150
▁agiripa	-10151
▁alakira	-10152
▁baronin	-10153
▁bònsònw	-10154
▁dibagaw	-10155
▁etiyɛni	-10156
▁funteni	-10157
▁garadiw	-10158
▁gyihova	-10159
▁jibaatɔ	-10160
▁kagbɔgɔ	-10161
▁kanaanw	-10162
▁kaningi	-10163
▁koyinkɛ	-10164
▁kulujan	-10165
▁labanko	-10166
▁layirin	-10167
▁musakaw	-10168
▁mɔgɔfin	-10169
▁romèkaw	-10170
▁sagolon	-10171
▁sanbara	-10172
▁speaker	-10173
▁yɛlɛman	-10174
▁ɔrɔmuka	-10175
ɛrɛzɛnsun	-10176
▁batocogo	-10177
▁cɛdennin	-10178
▁gbanflɛn	-10179
▁jamanako	-10180
▁kasadila	-10181
▁kisilenw	-10182
▁kɔrɔsili	-10183
▁lafilila	-10184
▁presenta	-10185
▁tigɛtigɛ	-10186
▁tougouni	-10187
▁tɔgɔjugu	-10188
▁baaradege	-10189
▁bolibagaw	-10190
▁faragwɛla	-10191
▁gwɛlɛyara	-10192
▁kolɔnbali	-10193
▁kuntigine	-10194
▁mujuugbɔɔ	-10195
▁nisɔngoya	-10196
▁orobowamu	-10197
▁sòròdasiw	-10198
▁tilenyɔrɔ	-10199
faamubaliya	-10200
▁bolomisɛnw	-10201
▁delilikɛla	-10202
▁furakɛcogo	-10203
▁kibaaroolu	-10204
▁tesalonike	-10205
▁association	-10206
▁fɔrɔgɔfɛnnɛ	-10207
▁gɛrɛfɛmusow	-10208
▁karamɔgɔden	-10209
▁benkannikɛla	-10210
▁gofɛrɛnɛmanw	-10211
▁halakilikèla	-10212
▁kowagaraseru	-10213
▁soronanikɛla	-10214
▁warigwɛlaman	-10215
▁xarandinŋolu	-10216
▁kewaliɲumailu	-10217
▁kititigɛbagaw	-10218
▁kowagarasenai	-10219
▁kɔlɔsilikɛlaw	-10220
▁kowagarasemasu	-10221
▁mɔgɔwolomaninw	-10222
▁kowagarasemasen	-10223
:.	-10224
bê	-10225
cé	-10226
ln	-10227
né	-10228
uk	-10229
,,,	-10230
del	-10231
kee	-10232
kok	-10233
kyɛ	-10234
mbé	-10235
pau	-10236
vin	-10237
▁!-	-10238
▁fã	-10239
▁gê	-10240
▁ie	-10241
▁lj	-10242
▁nô	-10243
▁rɛ	-10244
▁yí	-10245
▁ɓa	-10246
...>	-10247
bone	-10248
bɛdi	-10249
cien	-10250
date	-10251
gila	-10252
guna	-10253
kata	-10254
kere	-10255
lɔnm	-10256
mogo	-10257
paan	-10258
sson	-10259
yòrò	-10260
zese	-10261
▁aas	-10262
▁api	-10263
▁bay	-10264
▁blà	-10265
▁cri	-10266
▁dey	-10267
▁fab	-10268
▁fli	-10269
▁glu	-10270
▁gum	-10271
▁gwe	-10272
▁ijẹ	-10273
▁làa	-10274
▁mbɔ	-10275
▁mug	-10276
▁mut	-10277
▁oba	-10278
▁set	-10279
▁sɔŋ	-10280
▁yie	-10281
▁yim	-10282
▁ɔli	-10283
▁ɲòn	-10284
fitri	-10285
jɛŋgɛ	-10286
lajɛn	-10287
lenba	-10288
menna	-10289
sɔngɔ	-10290
ununa	-10291
wanna	-10292
xuman	-10293
ɲɛɛgɛ	-10294
▁anga	-10295
▁anna	-10296
▁bhar	-10297
▁blue	-10298
▁bèrè	-10299
▁cari	-10300
▁daun	-10301
▁dini	-10302
▁divo	-10303
▁dook	-10304
▁dôni	-10305
▁ekpo	-10306
▁falɛ	-10307
▁fola	-10308
▁fɔlɛ	-10309
▁gafa	-10310
▁gang	-10311
▁gian	-10312
▁gigi	-10313
▁giya	-10314
▁hafu	-10315
▁jesu	-10316
▁jɔgɔ	-10317
▁katɔ	-10318
▁khud	-10319
▁kiau	-10320
▁kola	-10321
▁kopi	-10322
▁kumɛ	-10323
▁kuya	-10324
▁kɔnɛ	-10325
▁kɛ̃ɛ	-10326
▁lear	-10327
▁lega	-10328
▁lono	-10329
▁maha	-10330
▁mide	-10331
▁miss	-10332
▁nari	-10333
▁naso	-10334
▁pyew	-10335
▁seee	-10336
▁simi	-10337
▁slow	-10338
▁subo	-10339
▁sunɔ	-10340
▁surɔ	-10341
▁sègè	-10342
▁sɑri	-10343
▁tche	-10344
▁tubi	-10345
▁tɔke	-10346
▁tɛli	-10347
▁wuru	-10348
▁yoon	-10349
▁zala	-10350
▁ɲani	-10351
▁ɲuŋɔ	-10352
barika	-10353
gierek	-10354
siyasi	-10355
ɲɛninw	-10356
▁agara	-10357
▁arima	-10358
▁birds	-10359
▁biɲɛw	-10360
▁brooo	-10361
▁cɛnya	-10362
▁dɛɛre	-10363
▁faman	-10364
▁famou	-10365
▁fiige	-10366
▁funŋɔ	-10367
▁fɑɑbɑ	-10368
▁fɛɛlɛ	-10369
▁hantu	-10370
▁helin	-10371
▁japan	-10372
▁jenni	-10373
▁kamoo	-10374
▁kanya	-10375
▁karri	-10376
▁karun	-10377
▁kiyoo	-10378
▁maala	-10379
▁merci	-10380
▁mesie	-10381
▁minɛm	-10382
▁mlɔnm	-10383
▁naale	-10384
▁nanan	-10385
▁neevu	-10386
▁nkili	-10387
▁nzuɛn	-10388
▁nɔɔbu	-10389
▁nɔ̀gɔ	-10390
▁palos	-10391
▁roman	-10392
▁saanw	-10393
▁senna	-10394
▁souma	-10395
▁suuru	-10396
▁sègèn	-10397
▁sɔgɔn	-10398
▁talua	-10399
▁taran	-10400
▁yiire	-10401
▁yuuro	-10402
▁yɛnri	-10403
etiyɛni	-10404
iyaminu	-10405
obiyusi	-10406
▁alonso	-10407
▁answer	-10408
▁bɛtɛlɛ	-10409
▁dibila	-10410
▁dingɛw	-10411
▁galati	-10412
▁gwɛrɛl	-10413
▁gɛ̀lɛn	-10414
▁ikampe	-10415
▁jàmana	-10416
▁jòlòkò	-10417
▁jɛrɛgi	-10418
▁kabiye	-10419
▁kagaua	-10420
▁karisa	-10421
▁kiraan	-10422
▁kiribi	-10423
▁kisɛya	-10424
▁lafasa	-10425
▁lagara	-10426
▁lamara	-10427
▁lawili	-10428
▁maiden	-10429
▁merika	-10430
▁munzun	-10431
▁nagara	-10432
▁russie	-10433
▁segila	-10434
▁sikaso	-10435
▁suanlɛ	-10436
▁sumani	-10437
▁sɔ̃ɔwɑ	-10438
▁toumbi	-10439
▁tɛtɛtɛ	-10440
▁tɛ̀mɛn	-10441
▁update	-10442
▁walikɛ	-10443
▁yebisa	-10444
xumanism	-10445
▁agabusi	-10446
▁bisaaba	-10447
▁bonlɔla	-10448
▁bonyali	-10449
▁bulonda	-10450
▁bɔɲɔgɔn	-10451
▁colored	-10452
▁dangatɔ	-10453
▁gbanzan	-10454
▁ijẹrisi	-10455
▁ladikun	-10456
▁lajɛnna	-10457
▁mangoro	-10458
▁masenyi	-10459
▁maxandi	-10460
▁ntagara	-10461
▁proverb	-10462
▁sacaria	-10463
▁sɔsɔliw	-10464
▁temenna	-10465
▁yinrigi	-10466
▁yoofuku	-10467
▁zedeyɔn	-10468
▁ɲaɲuman	-10469
▁ɲòngiri	-10470
dilanbaga	-10471
▁denmasaw	-10472
▁fasodenw	-10473
▁furumuso	-10474
▁hakilila	-10475
▁jinatigi	-10476
▁kafokulu	-10477
▁kalanfaw	-10478
▁kanubaaw	-10479
▁kasinŋge	-10480
▁kɔgɔjida	-10481
▁kɔɲɔmuso	-10482
▁legilizi	-10483
▁mlɔnmlɔn	-10484
▁nɛnɛjugu	-10485
▁sirajugu	-10486
▁sɔnnifɛn	-10487
▁thankful	-10488
salabagatɔ	-10489
▁abimelɛki	-10490
▁baarakèla	-10491
▁barnabasi	-10492
▁bwisikunu	-10493
▁dougouman	-10494
▁dɛndɛbaga	-10495
▁heburukan	-10496
▁jaabibaga	-10497
▁kɛlɛɲɔgɔn	-10498
▁lemɛninya	-10499
▁ziralaman	-10500
▁ɲɛsiranya	-10501
▁bɛniyaminu	-10502
▁jɛkuluwɛrɛ	-10503
▁makaritigi	-10504
▁minigierek	-10505
▁namaramɔgɔ	-10506
▁sigiɲògònw	-10507
▁siratigɛla	-10508
▁tilayɔrɔba	-10509
▁ŋunuŋununa	-10510
▁ɲɔgɔnlajɛn	-10511
▁atenobiyusi	-10512
▁barikatigiw	-10513
▁bololabaara	-10514
▁bololakolon	-10515
▁barikantanya	-10516
▁lɛnpominɛlaw	-10517
▁sɔnnikɛyɔrɔw	-10518
▁ɲanagwɛwaati	-10519
▁transxumanism	-10520
▁kalankaramɔgɔw	-10521
!:	-10522
)!	-10523
bk	-10524
dɑ	-10525
ew	-10526
kö	-10527
tt	-10528
ŋŋ	-10529
̀,	-10530
das	-10531
dit	-10532
dou	-10533
fil	-10534
fon	-10535
kur	-10536
lgi	-10537
lia	-10538
lii	-10539
lil	-10540
mim	-10541
mɛi	-10542
put	-10543
tto	-10544
uge	-10545
vam	-10546
zab	-10547
▁"?	-10548
▁ei	-10549
▁kg	-10550
▁kî	-10551
▁nm	-10552
▁vu	-10553
ania	-10554
beka	-10555
beya	-10556
bile	-10557
bina	-10558
ción	-10559
gbɛn	-10560
goni	-10561
kees	-10562
lako	-10563
mati	-10564
seri	-10565
site	-10566
suku	-10567
tusi	-10568
xtra	-10569
yili	-10570
ɲiŋɛ	-10571
▁---	-10572
▁___	-10573
▁adj	-10574
▁alɔ	-10575
▁awn	-10576
▁ayo	-10577
▁boi	-10578
▁bol	-10579
▁cam	-10580
▁cra	-10581
▁diɲ	-10582
▁dya	-10583
▁eun	-10584
▁fud	-10585
▁gri	-10586
▁jèn	-10587
▁kòn	-10588
▁lia	-10589
▁lyo	-10590
▁mam	-10591
▁met	-10592
▁ngi	-10593
▁osu	-10594
▁rea	-10595
▁ron	-10596
▁rto	-10597
▁sah	-10598
▁sur	-10599
▁tot	-10600
▁uyo	-10601
▁wou	-10602
▁wɔl	-10603
▁zep	-10604
▁ɡoo	-10605
badaa	-10606
elize	-10607
faran	-10608
hemen	-10609
saanu	-10610
sidan	-10611
sifuɛ	-10612
taama	-10613
tiɲɛn	-10614
̄dɛɛ̄	-10615
▁!-.!	-10616
▁..."	-10617
▁aaye	-10618
▁ahin	-10619
▁alle	-10620
▁anya	-10621
▁baki	-10622
▁baye	-10623
▁benn	-10624
▁bles	-10625
▁bɔnu	-10626
▁dans	-10627
▁dilɛ	-10628
▁dimɔ	-10629
▁ebip	-10630
▁fɛfɛ	-10631
▁gaan	-10632
▁gene	-10633
▁grow	-10634
▁home	-10635
▁iran	-10636
▁jawa	-10637
▁joon	-10638
▁jɔɔw	-10639
▁kaih	-10640
▁kaki	-10641
▁kamo	-10642
▁kapɛ	-10643
▁kaɲɛ	-10644
▁kéré	-10645
▁luna	-10646
▁mahu	-10647
▁mand	-10648
▁mexi	-10649
▁moku	-10650
▁mɛyɑ	-10651
▁ninw	-10652
▁nuru	-10653
▁nɔɔn	-10654
▁page	-10655
▁puan	-10656
▁saxi	-10657
▁self	-10658
▁sugo	-10659
▁sukɔ	-10660
▁sula	-10661
▁toyi	-10662
▁tvam	-10663
▁ugon	-10664
▁vidi	-10665
▁wiki	-10666
▁wila	-10667
▁wiya	-10668
▁xidi	-10669
▁yada	-10670
▁yorô	-10671
▁zara	-10672
▁çeki	-10673
fariya	-10674
fɔɲɔba	-10675
kesian	-10676
lamɛya	-10677
moriya	-10678
▁ajalɛ	-10679
▁andre	-10680
▁aruna	-10681
▁audio	-10682
▁balan	-10683
▁bandu	-10684
▁beeni	-10685
▁besse	-10686
▁blugi	-10687
▁caron	-10688
▁cɛbaw	-10689
▁dalen	-10690
▁entry	-10691
▁extra	-10692
▁filiw	-10693
▁intan	-10694
▁jiran	-10695
▁kaarh	-10696
▁kanba	-10697
▁kanus	-10698
▁keree	-10699
▁koron	-10700
▁koyan	-10701
▁kɔ̃so	-10702
▁kɛlɛw	-10703
▁laadi	-10704
▁ladòn	-10705
▁laman	-10706
▁lover	-10707
▁nahan	-10708
▁nkala	-10709
▁nɔɔru	-10710
▁pette	-10711
▁proba	-10712
▁savia	-10713
▁sonko	-10714
▁sɛ̀nɛ	-10715
▁teens	-10716
▁world	-10717
▁yesun	-10718
▁ɲangi	-10719
filisiw	-10720
fitrión	-10721
isiyaka	-10722
▁afɔtuɛ	-10723
▁antifa	-10724
▁baganw	-10725
▁balaki	-10726
▁basigi	-10727
▁bloods	-10728
▁dourou	-10729
▁dɔwɛrɛ	-10730
▁eacute	-10731
▁falama	-10732
▁famiɛn	-10733
▁farasi	-10734
▁filɛra	-10735
▁foroca	-10736
▁furuko	-10737
▁kamari	-10738
▁kanama	-10739
▁kapere	-10740
▁kasoon	-10741
▁kelima	-10742
▁klikli	-10743
▁kurɔbu	-10744
▁kusɛnɛ	-10745
▁kɔnɔma	-10746
▁lakoli	-10747
▁magoɲè	-10748
▁nakisi	-10749
▁nation	-10750
▁nigiri	-10751
▁nôgôya	-10752
▁nɛnina	-10753
▁ponana	-10754
▁saabui	-10755
▁sagoon	-10756
▁serikɔ	-10757
▁songon	-10758
▁sɔnnin	-10759
▁thanks	-10760
▁tseegh	-10761
▁velugu	-10762
▁verdad	-10763
▁wagafe	-10764
▁walama	-10765
▁ɲidaan	-10766
▁ɲɛfɔra	-10767
▁ɲɛnata	-10768
kanbelen	-10769
lemayisi	-10770
▁adoptee	-10771
▁akiiloo	-10772
▁akpasua	-10773
▁bissaba	-10774
▁britani	-10775
▁bɔwaati	-10776
▁cɛnbaga	-10777
▁djourou	-10778
▁fabrics	-10779
▁fanngan	-10780
▁goodbye	-10781
▁kajɛŋgɛ	-10782
▁kirinna	-10783
▁kokolon	-10784
▁kɔnɔtɔn	-10785
▁namaraw	-10786
▁nilifèn	-10787
▁nimafen	-10788
▁nolumaw	-10789
▁orhemen	-10790
▁pensaba	-10791
▁pèrènna	-10792
▁sayangg	-10793
▁sekolah	-10794
▁soronji	-10795
▁station	-10796
▁sukɔrɔw	-10797
▁tiyɔngɔ	-10798
▁tugunin	-10799
▁vɛrisew	-10800
▁banbanin	-10801
▁batolikɛ	-10802
▁bonyafɛn	-10803
▁bɛrɛbɛrɛ	-10804
▁dakamana	-10805
▁dogoninw	-10806
▁dɔtɔrɔya	-10807
▁furaburu	-10808
▁gɛrɛgɛrɛ	-10809
▁kanutigi	-10810
▁karimɛli	-10811
▁kàramɔgɔ	-10812
▁kɔrɔsigi	-10813
▁labɛnlon	-10814
▁masacɛba	-10815
▁minɛtuma	-10816
▁niyɔriki	-10817
▁nɛnɛkiri	-10818
▁sagadenw	-10819
▁sidabana	-10820
▁surafana	-10821
▁sìlamɛya	-10822
boroyanfan	-10823
hakilitigi	-10824
sɔgɔmadafɛ	-10825
takɔrɔsigi	-10826
▁anfitrión	-10827
▁biranmuso	-10828
▁bɔgɔdagaw	-10829
▁commenced	-10830
▁denɲɛninw	-10831
▁dɔgɔmusow	-10832
▁jalakinin	-10833
▁kamanagan	-10834
▁kirgistan	-10835
▁kongotaga	-10836
▁kɛlɛbagaw	-10837
▁labɛnbaga	-10838
▁lɔnniyafu	-10839
▁masirifɛn	-10840
▁miirijugu	-10841
▁musoɲuman	-10842
▁saduseɲɛw	-10843
▁sudonyɔrɔ	-10844
▁sugandixi	-10845
▁tilanyɔrɔ	-10846
▁tɛmɛsiraw	-10847
▁ɛrɛzɛnsun	-10848
▁ɲamɔgɔden	-10849
ɛrɛzɛnforow	-10850
▁balenmancɛ	-10851
▁dougoukolo	-10852
▁forobayɔrɔ	-10853
▁jinatɔkɔrɔ	-10854
▁kotilennin	-10855
▁kurunbabaw	-10856
▁munumununa	-10857
▁mɔgɔɲɔgɔnw	-10858
▁pettesaanu	-10859
▁hakilintanw	-10860
▁kojugukèlaw	-10861
▁kunmabɔbaga	-10862
▁kuntigimuso	-10863
▁kɛlɛkuntigi	-10864
▁gwɛrɛgwɛrɛko	-10865
▁potolemayisi	-10866
▁sigiyɔrɔsoba	-10867
▁tilenninyako	-10868
▁timinadiyanin	-10869
▁zuwifusunguru	-10870
▁ɲumanlɔnbagaw	-10871
ez	-10872
jɔ	-10873
lv	-10874
or	-10875
pɔ	-10876
zɔ	-10877
ɲe	-10878
."*	-10879
aba	-10880
abu	-10881
cuu	-10882
dah	-10883
efa	-10884
gis	-10885
let	-10886
mua	-10887
nrn	-10888
ppy	-10889
sak	-10890
sit	-10891
tty	-10892
yes	-10893
yiɛ	-10894
zil	-10895
▁eg	-10896
▁ph	-10897
▁sm	-10898
▁ww	-10899
...]	-10900
..:)	-10901
binu	-10902
daar	-10903
dɛmu	-10904
faan	-10905
firi	-10906
foli	-10907
giba	-10908
hile	-10909
inan	-10910
inba	-10911
kiya	-10912
kutu	-10913
modi	-10914
muan	-10915
rist	-10916
sana	-10917
sili	-10918
sima	-10919
sing	-10920
sɔsi	-10921
tage	-10922
tina	-10923
tiya	-10924
tted	-10925
wana	-10926
yere	-10927
▁ass	-10928
▁bie	-10929
▁blh	-10930
▁bul	-10931
▁bur	-10932
▁cag	-10933
▁cho	-10934
▁daf	-10935
▁das	-10936
▁dei	-10937
▁det	-10938
▁dim	-10939
▁dut	-10940
▁eki	-10941
▁gbè	-10942
▁grè	-10943
▁gua	-10944
▁hah	-10945
▁ing	-10946
▁jàn	-10947
▁ker	-10948
▁kra	-10949
▁ney	-10950
▁nib	-10951
▁nyã	-10952
▁ore	-10953
▁out	-10954
▁pua	-10955
▁rap	-10956
▁sao	-10957
▁sud	-10958
▁swe	-10959
▁vii	-10960
▁vow	-10961
▁wad	-10962
▁wen	-10963
▁yia	-10964
▁yra	-10965
altho	-10966
kongo	-10967
kuman	-10968
ladon	-10969
leele	-10970
mbele	-10971
minɛn	-10972
mpkin	-10973
seere	-10974
sigui	-10975
tenir	-10976
ɲaren	-10977
▁alan	-10978
▁albu	-10979
▁ange	-10980
▁awek	-10981
▁bhai	-10982
▁bolɛ	-10983
▁buay	-10984
▁bɛsɛ	-10985
▁call	-10986
▁cama	-10987
▁cian	-10988
▁como	-10989
▁demi	-10990
▁dian	-10991
▁drug	-10992
▁dɑ̃ɑ	-10993
▁dɔni	-10994
▁esto	-10995
▁fima	-10996
▁fite	-10997
▁fɛma	-10998
▁gata	-10999
▁gbin	-11000
▁gets	-11001
▁gobi	-11002
▁haan	-11003
▁holi	-11004
▁ikan	-11005
▁jeli	-11006
▁jɔrɛ	-11007
▁kèta	-11008
▁kìla	-11009
▁leru	-11010
▁lode	-11011
▁lodi	-11012
▁loni	-11013
▁mafɔ	-11014
▁meet	-11015
▁mood	-11016
▁nene	-11017
▁nige	-11018
▁nnɛn	-11019
▁nsfw	-11020
▁poti	-11021
▁raba	-11022
▁sagt	-11023
▁saki	-11024
▁seba	-11025
▁sexy	-11026
▁side	-11027
▁sigo	-11028
▁siti	-11029
▁soko	-11030
▁sule	-11031
▁sɛti	-11032
▁taso	-11033
▁tumu	-11034
▁tàan	-11035
▁wuya	-11036
▁xono	-11037
▁yolɛ	-11038
▁yooo	-11039
▁yìri	-11040
▁zabu	-11041
▁zero	-11042
▁ɲɛɛn	-11043
efakyɛ	-11044
fɛrine	-11045
kabako	-11046
mɛnɛmɛ	-11047
nawomi	-11048
pilige	-11049
tioned	-11050
▁anuan	-11051
▁bikia	-11052
▁built	-11053
▁busan	-11054
▁coraz	-11055
▁corre	-11056
▁efkan	-11057
▁eliya	-11058
▁enugu	-11059
▁essay	-11060
▁fango	-11061
▁filip	-11062
▁gasnu	-11063
▁gbele	-11064
▁green	-11065
▁gèlèn	-11066
▁jaldi	-11067
▁jelek	-11068
▁jogin	-11069
▁jɛngɛ	-11070
▁kamal	-11071
▁kanyi	-11072
▁katoo	-11073
▁kiran	-11074
▁kissi	-11075
▁konna	-11076
▁kɔɛɛn	-11077
▁kɔ̃su	-11078
▁learn	-11079
▁leman	-11080
▁lesin	-11081
▁loolu	-11082
▁majii	-11083
▁mbɔɔn	-11084
▁nanni	-11085
▁ninin	-11086
▁ninvu	-11087
▁oorun	-11088
▁pulak	-11089
▁ragbɛ	-11090
▁roses	-11091
▁saari	-11092
▁sbnrn	-11093
▁seewo	-11094
▁simòn	-11095
▁solar	-11096
▁sɔndi	-11097
▁sɛbɛw	-11098
▁tagai	-11099
▁tanin	-11100
▁tanto	-11101
▁teren	-11102
▁wanso	-11103
▁yôrôw	-11104
▁yɛnlɛ	-11105
▁ɲinɛn	-11106
▁balawo	-11107
▁burama	-11108
▁busgui	-11109
▁dandan	-11110
▁davidi	-11111
▁djoumè	-11112
▁dònbaa	-11113
▁fatɔya	-11114
▁filèli	-11115
▁gerumɔ	-11116
▁geyazi	-11117
▁jɔncɛw	-11118
▁jɛjugu	-11119
▁kalako	-11120
▁kitiko	-11121
▁koonoo	-11122
▁kpuron	-11123
▁kuluwo	-11124
▁ladies	-11125
▁miskin	-11126
▁mɛnnin	-11127
▁nebati	-11128
▁nunfuɛ	-11129
▁pretty	-11130
▁reason	-11131
▁sadegi	-11132
▁sigila	-11133
▁sikora	-11134
▁sokɔnɔ	-11135
▁suguya	-11136
▁sìgira	-11137
▁triing	-11138
▁wɛrɛku	-11139
▁yɛtagi	-11140
▁zozɛfu	-11141
bɛnzamɛn	-11142
waatijan	-11143
▁aaminin	-11144
▁bamusow	-11145
▁cagdaar	-11146
▁dajuruw	-11147
▁daminin	-11148
▁diction	-11149
▁dugugwɛ	-11150
▁dundunw	-11151
▁dɛ̄dɛɛ̄	-11152
▁fanigwɛ	-11153
▁gomanye	-11154
▁halimaw	-11155
▁kakalaw	-11156
▁kamakun	-11157
▁kiitiyo	-11158
▁kikoete	-11159
▁kititɛɛ	-11160
▁kulunba	-11161
▁kɛlɛkow	-11162
▁lamɛnni	-11163
▁manaman	-11164
▁million	-11165
▁musoilu	-11166
▁pumpkin	-11167
▁russian	-11168
▁tchèman	-11169
▁trotted	-11170
▁tèmènna	-11171
▁tɛmɛnen	-11172
▁yankees	-11173
▁çekiyon	-11174
▁ɲiɲaren	-11175
▁baaraban	-11176
▁bangelen	-11177
▁betuwɛli	-11178
▁cogokɔrɔ	-11179
▁gofɛrɛna	-11180
▁hɛrɛtigi	-11181
▁jakariya	-11182
▁kɔlɔsili	-11183
▁kɔnɔkisɛ	-11184
▁kɔrinɛyi	-11185
▁kɛnɛyaso	-11186
▁labɛnbaa	-11187
▁ladibaga	-11188
▁nagasira	-11189
▁nigɛjugu	-11190
▁nɛmɛnɛmɛ	-11191
▁sigibaga	-11192
▁sogojugu	-11193
▁strangor	-11194
▁sɔrɔsira	-11195
▁telennin	-11196
▁thailand	-11197
▁tiɲɛfɔla	-11198
▁tɛ̀mɛnen	-11199
▁walikɛɛn	-11200
▁yonbdaan	-11201
▁barikatan	-11202
▁bɔnefakyɛ	-11203
▁dilancogo	-11204
▁dingɛjugu	-11205
▁donkilila	-11206
▁dugumisɛn	-11207
▁julakolon	-11208
▁jɛnɲɔgɔnw	-11209
▁kalancogo	-11210
▁kalanjugu	-11211
▁kodjougou	-11212
▁kumakolon	-11213
▁kumancogo	-11214
▁nafolofɛn	-11215
▁siyamɔgɔw	-11216
▁sumangosi	-11217
▁sumantigɛ	-11218
▁bɛtisayida	-11219
▁denmusoilu	-11220
▁dugudennin	-11221
▁dugutigiya	-11222
▁dusukasiko	-11223
▁jinamoriya	-11224
▁kabakomanw	-11225
▁sedesiyasi	-11226
▁ɛrɛzɛnforo	-11227
hakilitigiya	-11228
▁bangekɔlɔsi	-11229
▁barokɛcogow	-11230
▁begɛnmisɛnw	-11231
▁dictionnaire	-11232
▁filɛlikɛyɔrɔ	-11233
▁tilegwangwan	-11234
▁zeruzalɛmuka	-11235
▁kunkanbaaraba	-11236
▁nkalontigèlaw	-11237
▁weleweledalaw	-11238
▁kabakurulamanw	-11239
▁nalomanyabaara	-11240
▁timinadiyaninw	-11241
.;	-11242
vɛ	-11243
ŋu	-11244
▁†	-11245
,.,	-11246
bbe	-11247
bei	-11248
car	-11249
cee	-11250
ces	-11251
fei	-11252
gai	-11253
hya	-11254
iyɔ	-11255
jit	-11256
lai	-11257
lod	-11258
lén	-11259
mps	-11260
ouw	-11261
pii	-11262
sal	-11263
sat	-11264
the	-11265
tuk	-11266
vas	-11267
yaa	-11268
yie	-11269
zma	-11270
òro	-11271
▁ná	-11272
▁ní	-11273
▁oi	-11274
▁rk	-11275
▁ty	-11276
▁tê	-11277
▁ud	-11278
▁wá	-11279
anya	-11280
babi	-11281
best	-11282
bont	-11283
buni	-11284
bɛɛ̄	-11285
fulu	-11286
galo	-11287
ginu	-11288
hehe	-11289
hele	-11290
hɛɛn	-11291
koon	-11292
loyo	-11293
maka	-11294
mbun	-11295
mɔgɛ	-11296
nada	-11297
njin	-11298
pada	-11299
peja	-11300
rami	-11301
rced	-11302
ricɛ	-11303
room	-11304
ruya	-11305
rɛsi	-11306
sika	-11307
sègè	-11308
tang	-11309
tong	-11310
tuba	-11311
tuna	-11312
turn	-11313
xine	-11314
yimi	-11315
ɛngɛ	-11316
▁agk	-11317
▁bau	-11318
▁bgt	-11319
▁bot	-11320
▁dab	-11321
▁egw	-11322
▁eku	-11323
▁ela	-11324
▁fad	-11325
▁feu	-11326
▁foh	-11327
▁fɔr	-11328
▁fɔɛ	-11329
▁gne	-11330
▁gol	-11331
▁ill	-11332
▁kaā	-11333
▁kof	-11334
▁kɛ̀	-11335
▁lye	-11336
▁lɔɔ	-11337
▁màn	-11338
▁naf	-11339
▁nbe	-11340
▁nir	-11341
▁nɲɛ	-11342
▁pet	-11343
▁pyi	-11344
▁ram	-11345
▁rɑɑ	-11346
▁sau	-11347
▁tgk	-11348
▁tta	-11349
▁une	-11350
▁yey	-11351
▁ŋmɔ	-11352
▁ɛvu	-11353
akabu	-11354
coooo	-11355
donda	-11356
ganan	-11357
liyɔn	-11358
mamɔɔ	-11359
minen	-11360
tenin	-11361
tiful	-11362
tiriw	-11363
tower	-11364
▁____	-11365
▁aliɛ	-11366
▁annɛ	-11367
▁babe	-11368
▁baja	-11369
▁beka	-11370
▁blin	-11371
▁boor	-11372
▁buna	-11373
▁béna	-11374
▁bôla	-11375
▁dera	-11376
▁digo	-11377
▁dyan	-11378
▁enya	-11379
▁fori	-11380
▁forn	-11381
▁gabu	-11382
▁gift	-11383
▁gree	-11384
▁gɔgi	-11385
▁hong	-11386
▁htar	-11387
▁inte	-11388
▁iron	-11389
▁juro	-11390
▁kafô	-11391
▁kage	-11392
▁kakè	-11393
▁kalɛ	-11394
▁kito	-11395
▁kwun	-11396
▁kèni	-11397
▁laks	-11398
▁legs	-11399
▁lidi	-11400
▁liya	-11401
▁lɔni	-11402
▁maal	-11403
▁maya	-11404
▁mens	-11405
▁nsan	-11406
▁nyɔn	-11407
▁pili	-11408
▁piyo	-11409
▁pyar	-11410
▁seem	-11411
▁seka	-11412
▁soku	-11413
▁stal	-11414
▁sɛri	-11415
▁text	-11416
▁tggu	-11417
▁thin	-11418
▁thug	-11419
▁tika	-11420
▁tuka	-11421
▁tökö	-11422
▁vody	-11423
▁wiga	-11424
▁yinɑ	-11425
▁yugu	-11426
▁zoom	-11427
precia	-11428
seyiri	-11429
tiguiw	-11430
▁abiir	-11431
▁aniga	-11432
▁badoo	-11433
▁banda	-11434
▁baril	-11435
▁barin	-11436
▁bibig	-11437
▁bilen	-11438
▁bènba	-11439
▁caama	-11440
▁carti	-11441
▁ciraw	-11442
▁dakow	-11443
▁diyar	-11444
▁djoli	-11445
▁donba	-11446
▁dɔ̀lɔ	-11447
▁ebɛɛ̄	-11448
▁efira	-11449
▁fanmo	-11450
▁fizaa	-11451
▁glɛki	-11452
▁gwɛya	-11453
▁hanma	-11454
▁haría	-11455
▁juruw	-11456
▁kamba	-11457
▁kumfa	-11458
▁kywae	-11459
▁lalla	-11460
▁larki	-11461
▁mante	-11462
▁mbege	-11463
▁model	-11464
▁mouse	-11465
▁quiet	-11466
▁sagar	-11467
▁saxan	-11468
▁seben	-11469
▁seeri	-11470
▁shuun	-11471
▁syste	-11472
▁taunu	-11473
▁tilin	-11474
▁yaari	-11475
▁yɔnlɔ	-11476
▁ɲataa	-11477
fitinin	-11478
zalɛmun	-11479
▁angilɛ	-11480
▁ankahi	-11481
▁arabuw	-11482
▁arinɔn	-11483
▁awlobo	-11484
▁deedee	-11485
▁demuso	-11486
▁dèmèni	-11487
▁filana	-11488
▁filɛri	-11489
▁finnin	-11490
▁gibeya	-11491
▁girɛsi	-11492
▁jigiko	-11493
▁jirali	-11494
▁kalige	-11495
▁karina	-11496
▁killer	-11497
▁kɛnɛba	-11498
▁lajɛba	-11499
▁lakisi	-11500
▁manden	-11501
▁menyan	-11502
▁môbili	-11503
▁mɔwisi	-11504
▁mɛrɛgɛ	-11505
▁ninugu	-11506
▁nògòya	-11507
▁pooche	-11508
▁rafara	-11509
▁rebeka	-11510
▁risila	-11511
▁sanbon	-11512
▁sariru	-11513
▁seento	-11514
▁setana	-11515
▁sirada	-11516
▁siyɔrɔ	-11517
▁souman	-11518
▁taamaw	-11519
▁tantan	-11520
▁tisaga	-11521
▁tɔrɔfɛ	-11522
▁tɛmɛni	-11523
▁walrus	-11524
▁wuswaa	-11525
▁ɲaɲiŋɛ	-11526
farisogo	-11527
nimanfɛn	-11528
zozafati	-11529
▁bangkok	-11530
▁barigon	-11531
▁cinnjin	-11532
▁etiyusi	-11533
▁fasoden	-11534
▁fununan	-11535
▁galiyɔn	-11536
▁gɛlɛyaw	-11537
▁hinanni	-11538
▁juillet	-11539
▁kirisin	-11540
▁kolonɲɛ	-11541
▁lafiyɛn	-11542
▁lasiran	-11543
▁lovedto	-11544
▁maliden	-11545
▁mentira	-11546
▁minɛlon	-11547
▁ninvuɣu	-11548
▁nyinina	-11549
▁taamash	-11550
▁tagayee	-11551
▁waxatin	-11552
▁woloden	-11553
▁yaalala	-11554
▁yamanan	-11555
gɛnbagatɔ	-11556
▁apoliyɔn	-11557
▁asensado	-11558
▁britania	-11559
▁divorced	-11560
▁dubatigi	-11561
▁dugusajè	-11562
▁dɔkɔtɔrɔ	-11563
▁hakilina	-11564
▁juulumun	-11565
▁kaburuda	-11566
▁kisiliko	-11567
▁kɛrɛkɛrɛ	-11568
▁labatoli	-11569
▁lodebari	-11570
▁minɛcogo	-11571
▁mɔgɔsaba	-11572
▁nɔrɔcogo	-11573
▁salaminè	-11574
▁samariya	-11575
▁sitefana	-11576
▁sègèsègè	-11577
▁sɔrɔbali	-11578
▁sɛbɛninw	-11579
▁tantunma	-11580
▁tununnen	-11581
▁yeelenba	-11582
▁ɲamɔgɔba	-11583
zerobowamu	-11584
▁beautiful	-11585
▁bɔɲɔgɔnko	-11586
▁denbayaan	-11587
▁enjergara	-11588
▁jigitigiw	-11589
▁kalendenw	-11590
▁kikoeteru	-11591
▁kumaɲuman	-11592
▁latigɛkow	-11593
▁mexicoooo	-11594
▁sumankisɛ	-11595
▁yɛlɛmanna	-11596
▁bòɲògònkow	-11597
▁dabaribana	-11598
▁kabakurunw	-11599
▁lasigidenw	-11600
▁barikantanw	-11601
▁dusukunnako	-11602
▁fɛlɛlilailu	-11603
▁karamɔgɔlɔɔ	-11604
▁kɛwalijuguw	-11605
▁numanyanfan	-11606
▁nɛrɛmuguman	-11607
▁sɛbɛnnikɛla	-11608
▁zerizalɛmun	-11609
▁siratilennin	-11610
▁jatigɛkulekan	-11611
▁lemɛninyamɔɔilu	-11612
!)	-11613
-!	-11614
cɔ	-11615
ol	-11616
pr	-11617
ps	-11618
ña	-11619
ית	-11620
anu	-11621
cer	-11622
deh	-11623
dgi	-11624
dra	-11625
dri	-11626
eso	-11627
fir	-11628
ges	-11629
gèn	-11630
haa	-11631
irɑ	-11632
jen	-11633
jun	-11634
kam	-11635
mel	-11636
nam	-11637
suf	-11638
sɛr	-11639
tek	-11640
tfw	-11641
uŋɔ	-11642
was	-11643
éné	-11644
▁hy	-11645
▁mí	-11646
▁mò	-11647
▁nz	-11648
▁sĩ	-11649
▁tb	-11650
▁tc	-11651
▁tp	-11652
▁ut	-11653
????	-11654
blok	-11655
ciɛn	-11656
dòmè	-11657
fini	-11658
foor	-11659
geba	-11660
gɛli	-11661
humu	-11662
iner	-11663
kimu	-11664
kiru	-11665
less	-11666
lone	-11667
long	-11668
mela	-11669
phan	-11670
ribu	-11671
roni	-11672
suuw	-11673
sɔla	-11674
tutu	-11675
vati	-11676
xolu	-11677
ɣisi	-11678
▁ann	-11679
▁awu	-11680
▁awé	-11681
▁bao	-11682
▁dĩɑ	-11683
▁gad	-11684
▁gha	-11685
▁hui	-11686
▁hve	-11687
▁ion	-11688
▁job	-11689
▁jul	-11690
▁jur	-11691
▁jyo	-11692
▁keu	-11693
▁kik	-11694
▁kim	-11695
▁kyu	-11696
▁leb	-11697
▁led	-11698
▁lir	-11699
▁luk	-11700
▁mag	-11701
▁mao	-11702
▁mol	-11703
▁mua	-11704
▁ngɛ	-11705
▁nia	-11706
▁nie	-11707
▁nmn	-11708
▁num	-11709
▁nòn	-11710
▁obi	-11711
▁pod	-11712
▁pɛn	-11713
▁rin	-11714
▁roy	-11715
▁sal	-11716
▁sav	-11717
▁sew	-11718
▁sma	-11719
▁tar	-11720
▁taā	-11721
▁tua	-11722
▁ume	-11723
▁wùu	-11724
▁yel	-11725
..???	-11726
alous	-11727
ankaw	-11728
burao	-11729
ggert	-11730
imene	-11731
inilu	-11732
lilwe	-11733
masɔn	-11734
penda	-11735
saalo	-11736
ssion	-11737
uroun	-11738
yôrôw	-11739
̀gɔma	-11740
▁alex	-11741
▁asta	-11742
▁baap	-11743
▁bane	-11744
▁bini	-11745
▁bore	-11746
▁boys	-11747
▁bèti	-11748
▁bôni	-11749
▁bɔke	-11750
▁caro	-11751
▁dadi	-11752
▁deta	-11753
▁dewa	-11754
▁didi	-11755
▁dola	-11756
▁dolu	-11757
▁dàba	-11758
▁eyin	-11759
▁fôla	-11760
▁hera	-11761
▁itte	-11762
▁jiha	-11763
▁kaho	-11764
▁karu	-11765
▁kavi	-11766
▁kool	-11767
▁koŋɔ	-11768
▁kpee	-11769
▁kɔkɔ	-11770
▁laba	-11771
▁libi	-11772
▁ligɛ	-11773
▁liye	-11774
▁liñi	-11775
▁loyi	-11776
▁macu	-11777
▁mafi	-11778
▁matɔ	-11779
▁miru	-11780
▁mmua	-11781
▁muse	-11782
▁ngun	-11783
▁nibi	-11784
▁nson	-11785
▁nɔru	-11786
▁nɛma	-11787
▁nɛɛ̄	-11788
▁okan	-11789
▁papi	-11790
▁pona	-11791
▁rene	-11792
▁salu	-11793
▁shee	-11794
▁sisa	-11795
▁sofa	-11796
▁sorô	-11797
▁sunn	-11798
▁taki	-11799
▁tapi	-11800
▁tire	-11801
▁tsɔɔ	-11802
▁tuko	-11803
▁turo	-11804
▁tɛɛ̄	-11805
▁uzma	-11806
▁xoto	-11807
▁yilɛ	-11808
▁yège	-11809
▁zayn	-11810
▁zope	-11811
▁ɲɔxɔ	-11812
akwara	-11813
djigui	-11814
kɛninw	-11815
maniye	-11816
mayaan	-11817
missin	-11818
tayimu	-11819
▁abiya	-11820
▁akazi	-11821
▁bango	-11822
▁beeko	-11823
▁brode	-11824
▁brodi	-11825
▁daaju	-11826
▁fanha	-11827
▁faraw	-11828
▁fariz	-11829
▁fiyen	-11830
▁fyɛrɛ	-11831
▁garan	-11832
▁grupu	-11833
▁hahha	-11834
▁hecho	-11835
▁irina	-11836
▁islam	-11837
▁jaagi	-11838
▁jango	-11839
▁karim	-11840
▁kisss	-11841
▁kèlen	-11842
▁lasii	-11843
▁likin	-11844
▁loser	-11845
▁mmusu	-11846
▁mutce	-11847
▁mùgan	-11848
▁nison	-11849
▁npogo	-11850
▁nɔɔri	-11851
▁parti	-11852
▁sakpa	-11853
▁sanfe	-11854
▁sinnd	-11855
▁sirvo	-11856
▁sofia	-11857
▁syila	-11858
▁sɛrɛn	-11859
▁tagae	-11860
▁tunbè	-11861
▁tunga	-11862
▁tàata	-11863
▁tɔɔnw	-11864
▁uruti	-11865
▁viiii	-11866
▁wazan	-11867
▁wɔrɔn	-11868
▁wɛ̃re	-11869
▁yeeri	-11870
▁yomɛn	-11871
▁zurna	-11872
▁ŋgase	-11873
bolilaw	-11874
lɔgɔkun	-11875
masamaw	-11876
ɲanmiɛn	-11877
▁adoroo	-11878
▁amiina	-11879
▁amunɔn	-11880
▁anukun	-11881
▁badila	-11882
▁bariya	-11883
▁bhooot	-11884
▁buruku	-11885
▁bɔlenw	-11886
▁daftar	-11887
▁djidja	-11888
▁doodoo	-11889
▁dògòya	-11890
▁fɔninw	-11891
▁gnôngô	-11892
▁greece	-11893
▁julayi	-11894
▁kalian	-11895
▁kalili	-11896
▁keyita	-11897
▁kimaan	-11898
▁kumata	-11899
▁kɔlɔnw	-11900
▁kɔnɔnɔ	-11901
▁labhon	-11902
▁lamɔko	-11903
▁lamɔɛn	-11904
▁lɔbaga	-11905
▁maklum	-11906
▁maleya	-11907
▁mamacɛ	-11908
▁manman	-11909
▁mufasa	-11910
▁naruto	-11911
▁natɛgɛ	-11912
▁nawala	-11913
▁nijugu	-11914
▁numukɛ	-11915
▁pilasi	-11916
▁sereyɛ	-11917
▁sigini	-11918
▁sirusi	-11919
▁sodòmè	-11920
▁summer	-11921
▁sèbèli	-11922
▁sòsòli	-11923
▁sɔŋsim	-11924
▁taxala	-11925
▁tokola	-11926
▁tugana	-11927
▁tumodi	-11928
▁tunuma	-11929
▁tɛmana	-11930
▁woletɔ	-11931
▁yafako	-11932
▁yafari	-11933
▁yitala	-11934
asirikaw	-11935
rinahumu	-11936
▁aniguna	-11937
▁asafura	-11938
▁baburao	-11939
▁baleman	-11940
▁blingee	-11941
▁chisɔsi	-11942
▁cɛnniba	-11943
▁denmusi	-11944
▁faantan	-11945
▁farigan	-11946
▁gabaŋɔn	-11947
▁granted	-11948
▁jugunin	-11949
▁kaninba	-11950
▁kirinni	-11951
▁kɔsegir	-11952
▁lɔyɔrɔw	-11953
▁manfoor	-11954
▁pasaran	-11955
▁pɛrɛsiw	-11956
▁saranna	-11957
▁sbnrnya	-11958
▁sɔ̀gɔma	-11959
▁taalikɛ	-11960
▁tubabuw	-11961
▁tununna	-11962
▁youtube	-11963
▁yèlèman	-11964
preciated	-11965
▁australi	-11966
▁balabugu	-11967
▁bisimila	-11968
▁blaggert	-11969
▁bɔnsɔnna	-11970
▁bɔɲɔgɔnw	-11971
▁cɛfariya	-11972
▁cɛɲumani	-11973
▁daaliliw	-11974
▁daripada	-11975
▁dibidibi	-11976
▁dàbakala	-11977
▁fantancɛ	-11978
▁farafina	-11979
▁farifaga	-11980
▁jamanaɲɛ	-11981
▁lakalita	-11982
▁lɔnbagaw	-11983
▁mantenir	-11984
▁saniyako	-11985
▁tagabolo	-11986
▁wikipeja	-11987
▁wolofila	-11988
▁wɛrɛkunu	-11989
▁albatross	-11990
▁ananpenda	-11991
▁batobagaw	-11992
▁denfitini	-11993
▁dilanbaga	-11994
▁dususaalo	-11995
▁fɔrɔmasɔn	-11996
▁kalelilwe	-11997
▁kannafani	-11998
▁kunmabɔra	-11999
▁kòseginna	-12000
▁lonanmuso	-12001
▁nigɛlaman	-12002
▁saanankaw	-12003
▁siimayaan	-12004
▁sɛrɛnbaga	-12005
▁tubabukan	-12006
▁denbatigiw	-12007
▁feereyɔɔrɔ	-12008
▁isirayilaa	-12009
▁murutininw	-12010
▁sanulamanw	-12011
▁sunguruman	-12012
▁taamashyèn	-12013
▁tiɲɛtigiya	-12014
▁ɲagamininw	-12015
▁appreciated	-12016
▁dibilamɔgɔw	-12017
▁makolontɔya	-12018
▁ɲagalilenba	-12019
▁dusukasiyɔrɔ	-12020
▁kapɛrinahumu	-12021
▁kunkɔrɔtafɛn	-12022
▁nyanamanyara	-12023
▁baarakɛɲɔgɔnw	-12024
▁bamusofitinin	-12025
'"	-12026
':	-12027
'?	-12028
.]	-12029
?.	-12030
ab	-12031
hè	-12032
ok	-12033
vv	-12034
aku	-12035
ate	-12036
dal	-12037
die	-12038
gti	-12039
iti	-12040
jon	-12041
kei	-12042
kio	-12043
kti	-12044
lli	-12045
luw	-12046
mot	-12047
nnn	-12048
por	-12049
rog	-12050
tsu	-12051
vre	-12052
wur	-12053
yam	-12054
yum	-12055
èti	-12056
▁"-	-12057
▁("	-12058
▁//	-12059
▁bn	-12060
▁bó	-12061
▁jt	-12062
▁kã	-12063
▁mg	-12064
▁mh	-12065
▁ml	-12066
▁nâ	-12067
▁pd	-12068
▁ps	-12069
▁tt	-12070
▁ví	-12071
▁wô	-12072
▁zɔ	-12073
▁ˈˈ	-12074
aati	-12075
aniɛ	-12076
bulu	-12077
bɔhɔ	-12078
cɛnw	-12079
feek	-12080
fɛlɛ	-12081
fɛti	-12082
gene	-12083
hama	-12084
hanu	-12085
jina	-12086
kini	-12087
kuna	-12088
lena	-12089
life	-12090
lire	-12091
lonɛ	-12092
mage	-12093
mbri	-12094
miii	-12095
mine	-12096
mɔkɔ	-12097
ndra	-12098
nenw	-12099
oogo	-12100
rayi	-12101
riba	-12102
ruru	-12103
tɔla	-12104
viye	-12105
walo	-12106
yigi	-12107
yime	-12108
yugu	-12109
yuma	-12110
égui	-12111
▁:-!	-12112
▁???	-12113
▁apa	-12114
▁bik	-12115
▁biɛ	-12116
▁bue	-12117
▁clo	-12118
▁cut	-12119
▁dos	-12120
▁dra	-12121
▁dɔr	-12122
▁gaj	-12123
▁gwo	-12124
▁her	-12125
▁his	-12126
▁ili	-12127
▁imi	-12128
▁jit	-12129
▁lax	-12130
▁lil	-12131
▁mid	-12132
▁miī	-12133
▁mus	-12134
▁màa	-12135
▁mɔk	-12136
▁nni	-12137
▁nuv	-12138
▁oun	-12139
▁pas	-12140
▁pur	-12141
▁pɔn	-12142
▁sei	-12143
▁siā	-12144
▁tai	-12145
▁tam	-12146
▁tos	-12147
▁uma	-12148
▁umu	-12149
▁ved	-12150
▁vos	-12151
▁wum	-12152
▁yip	-12153
▁ŋma	-12154
▁ɲèw	-12155
abisa	-12156
bɔɔrɔ	-12157
clock	-12158
cuumɔ	-12159
daanɔ	-12160
danla	-12161
edɔmu	-12162
eligi	-12163
lakow	-12164
lolon	-12165
mbala	-12166
mment	-12167
mɛnni	-12168
siyɛn	-12169
tanba	-12170
tigɛw	-12171
ɔgwɛn	-12172
▁abam	-12173
▁afee	-12174
▁amɔn	-12175
▁ansi	-12176
▁bace	-12177
▁beti	-12178
▁bibɑ	-12179
▁biko	-12180
▁biti	-12181
▁butu	-12182
▁butɔ	-12183
▁bélé	-12184
▁bɛta	-12185
▁cook	-12186
▁danx	-12187
▁dejo	-12188
▁duku	-12189
▁fann	-12190
▁frem	-12191
▁fuza	-12192
▁fòro	-12193
▁gouv	-12194
▁haze	-12195
▁hooo	-12196
▁hoyi	-12197
▁imot	-12198
▁junu	-12199
▁kaal	-12200
▁kaje	-12201
▁kaww	-12202
▁kiga	-12203
▁labô	-12204
▁latɔ	-12205
▁luxi	-12206
▁lìgi	-12207
▁lòle	-12208
▁lɛgɛ	-12209
▁mada	-12210
▁mena	-12211
▁migi	-12212
▁miir	-12213
▁minj	-12214
▁mura	-12215
▁mɛnɛ	-12216
▁naam	-12217
▁noun	-12218
▁nuun	-12219
▁peen	-12220
▁peri	-12221
▁pina	-12222
▁pɛ̃ɛ	-12223
▁rook	-12224
▁saso	-12225
▁sawu	-12226
▁seal	-12227
▁seme	-12228
▁sikɛ	-12229
▁soci	-12230
▁somo	-12231
▁sɛla	-12232
▁tabu	-12233
▁teha	-12234
▁teme	-12235
▁tete	-12236
▁tite	-12237
▁tune	-12238
▁tɑbu	-12239
▁tɛlɛ	-12240
▁whoo	-12241
▁wugu	-12242
▁wɑrɑ	-12243
▁yana	-12244
▁yaoi	-12245
▁yeko	-12246
▁yeru	-12247
▁yiga	-12248
▁yiyi	-12249
▁youn	-12250
▁zege	-12251
▁ñing	-12252
amoniw	-12253
cidenw	-12254
lininw	-12255
masɔla	-12256
situsi	-12257
wakaru	-12258
yinŋge	-12259
▁adoro	-12260
▁album	-12261
▁alima	-12262
▁aning	-12263
▁aniɛn	-12264
▁anufɔ	-12265
▁arafa	-12266
▁asɛri	-12267
▁baleh	-12268
▁banki	-12269
▁banni	-12270
▁belgi	-12271
▁bɔkua	-12272
▁bɔkun	-12273
▁china	-12274
▁coast	-12275
▁colle	-12276
▁criis	-12277
▁djica	-12278
▁dukia	-12279
▁dunia	-12280
▁dɔndɔ	-12281
▁faaba	-12282
▁gaari	-12283
▁ganba	-12284
▁ganna	-12285
▁gayee	-12286
▁gbara	-12287
▁gbogo	-12288
▁grèki	-12289
▁james	-12290
▁jibun	-12291
▁kamii	-12292
▁kansa	-12293
▁karta	-12294
▁kassi	-12295
▁kikun	-12296
▁klolɛ	-12297
▁kulon	-12298
▁kuncɛ	-12299
▁kélén	-12300
▁ladjè	-12301
▁likaw	-12302
▁louis	-12303
▁lɛtri	-12304
▁magar	-12305
▁magni	-12306
▁matic	-12307
▁mibiɛ	-12308
▁minji	-12309
▁minna	-12310
▁mɛdiw	-12311
▁mɛnnɑ	-12312
▁mɛɛna	-12313
▁nadia	-12314
▁nèguè	-12315
▁nɔɔba	-12316
▁nɔɔwɑ	-12317
▁sanba	-12318
▁seewa	-12319
▁senun	-12320
▁sides	-12321
▁smile	-12322
▁taako	-12323
▁teele	-12324
▁turaw	-12325
▁uriya	-12326
▁varry	-12327
▁yinmɛ	-12328
▁yiren	-12329
▁yĩiyɔ	-12330
▁zuwɛn	-12331
arabuni	-12332
doncogo	-12333
ɛsitɛri	-12334
▁animal	-12335
▁barakè	-12336
▁barasu	-12337
▁bayesa	-12338
▁budget	-12339
▁canada	-12340
▁damage	-12341
▁dekhna	-12342
▁djouma	-12343
▁espere	-12344
▁farani	-12345
▁farawo	-12346
▁filisi	-12347
▁fyɔngɔ	-12348
▁hikari	-12349
▁iimiii	-12350
▁jaabiw	-12351
▁janjan	-12352
▁jeblok	-12353
▁juguye	-12354
▁kaafɛɛ	-12355
▁kakɔna	-12356
▁karafe	-12357
▁kasôrô	-12358
▁keleen	-12359
▁kelixi	-12360
▁kiriya	-12361
▁kitira	-12362
▁korila	-12363
▁kumino	-12364
▁kuyeie	-12365
▁lakana	-12366
▁lakɛrɛ	-12367
▁malaga	-12368
▁malika	-12369
▁market	-12370
▁master	-12371
▁matɔxɔ	-12372
▁mingaw	-12373
▁mosoyi	-12374
▁motiyo	-12375
▁mounou	-12376
▁mwɛɛru	-12377
▁ndanla	-12378
▁nitigi	-12379
▁niyòrò	-12380
▁nɔaniɛ	-12381
▁olorun	-12382
▁samjne	-12383
▁sirika	-12384
▁siriki	-12385
▁sogɛli	-12386
▁sorasi	-12387
▁sowari	-12388
▁tchien	-12389
▁toumbé	-12390
▁tulɔra	-12391
▁tungan	-12392
▁tɔgɛnu	-12393
▁yamana	-12394
▁yarada	-12395
▁yinnin	-12396
▁zurnal	-12397
abisalɔn	-12398
beriyadi	-12399
jigininw	-12400
kunnaden	-12401
sɔrɔbali	-12402
▁barista	-12403
▁bonbosi	-12404
▁daniɛli	-12405
▁doussou	-12406
▁faratiw	-12407
▁fataman	-12408
▁fontana	-12409
▁gwatigi	-12410
▁jirinin	-12411
▁jolidaw	-12412
▁josɔnko	-12413
▁kajɛnmɛ	-12414
▁kolonjo	-12415
▁kunkolo	-12416
▁kununni	-12417
▁kɛɲɛnin	-12418
▁lagnini	-12419
▁lajɛlen	-12420
▁lannaya	-12421
▁latanga	-12422
▁lɔsɔngɔ	-12423
▁lɛsɛnin	-12424
▁lɛtɛrɛw	-12425
▁mankutu	-12426
▁mannzin	-12427
▁marifaw	-12428
▁mɔntɔrɔ	-12429
▁mɔɔɲɔɔn	-12430
▁nanfenw	-12431
▁nɔgɔyak	-12432
▁oziyasi	-12433
▁sanfɛla	-12434
▁saratiw	-12435
▁serubɛn	-12436
▁sicuumɔ	-12437
▁telenet	-12438
▁trainer	-12439
▁tɔɔrɔko	-12440
▁waajuri	-12441
▁welenin	-12442
▁wulenna	-12443
▁yitandi	-12444
▁zabulɔn	-12445
▁zayirus	-12446
▁ɲɛnagwɛ	-12447
▁̈namaya	-12448
alabatoso	-12449
kunnafoni	-12450
musoɲuman	-12451
▁anuannzɛ	-12452
▁baarakɛn	-12453
▁basitigi	-12454
▁boliboli	-12455
▁bulayiye	-12456
▁doninilu	-12457
▁dugubaba	-12458
▁dònkiliw	-12459
▁fiɲɛnnin	-12460
▁gwansanw	-12461
▁jagokɛla	-12462
▁jɛnɛtuba	-12463
▁kaankaan	-12464
▁karansow	-12465
▁kasalema	-12466
▁komokili	-12467
▁kunbɛnni	-12468
▁lakalila	-12469
▁lakolifa	-12470
▁lanibala	-12471
▁loorunan	-12472
▁magidala	-12473
▁mɔgɔfari	-12474
▁mɔnikɛla	-12475
▁pakistan	-12476
▁polisicɛ	-12477
▁simirini	-12478
▁sofericɛ	-12479
▁sulemani	-12480
▁sɔgɔsɔgɔ	-12481
▁yarilire	-12482
▁yuguyugu	-12483
▁ɲanagwɛw	-12484
▁bonyatɔgɔ	-12485
▁danxaniya	-12486
▁faamakuma	-12487
▁fariyakow	-12488
▁farizhɛɛn	-12489
▁isireliba	-12490
▁kalanyɔrɔ	-12491
▁kanmaniye	-12492
▁karriyime	-12493
▁kunkankow	-12494
▁lamininin	-12495
▁nafamanba	-12496
▁olofɛrine	-12497
▁sunguruni	-12498
▁tehatiriw	-12499
▁waajibiya	-12500
▁woronyimi	-12501
▁collection	-12502
▁dibidibiko	-12503
▁gongokolon	-12504
▁halakiyɔrɔ	-12505
▁kongololon	-12506
▁kɔrɔsibaga	-12507
▁lesinmbele	-12508
▁maminɛmuso	-12509
▁natanayɛli	-12510
▁tiberiyadi	-12511
▁yatagarasu	-12512
salabagatɔya	-12513
▁densɔrɔbali	-12514
▁gofɛrɛnaman	-12515
▁musokɔnɔmaw	-12516
▁mɔgɔɲumanya	-12517
▁nigɛfugulan	-12518
▁siranbagatɔ	-12519
▁batiselikèla	-12520
▁kurunbolilaw	-12521
▁kɛlɛdenŋanaw	-12522
▁kɔlɔsilikɛbaga	-12523
▁mɔgɔsabalininw	-12524
▁ninsaraminabaga	-12525
.”	-12526
ht	-12527
ɛw	-12528
..?	-12529
aau	-12530
amu	-12531
ase	-12532
cle	-12533
dim	-12534
dow	-12535
ell	-12536
ese	-12537
ete	-12538
ght	-12539
gow	-12540
kir	-12541
kte	-12542
mli	-12543
nba	-12544
nde	-12545
ner	-12546
pla	-12547
pta	-12548
rki	-12549
rɛt	-12550
sas	-12551
sôn	-12552
sɛl	-12553
yei	-12554
ère	-12555
▁av	-12556
▁ex	-12557
▁lm	-12558
▁os	-12559
▁ot	-12560
▁rt	-12561
▁tî	-12562
▁vw	-12563
▁wn	-12564
..??	-12565
bini	-12566
deed	-12567
deer	-12568
dria	-12569
duba	-12570
ermê	-12571
fano	-12572
fiye	-12573
furu	-12574
fusi	-12575
girɛ	-12576
hiye	-12577
jing	-12578
kuya	-12579
lana	-12580
lili	-12581
mboo	-12582
mena	-12583
moga	-12584
mɛni	-12585
pani	-12586
qman	-12587
raka	-12588
ranu	-12589
riye	-12590
rned	-12591
rona	-12592
ruba	-12593
sidi	-12594
vɛni	-12595
èrin	-12596
▁abɔ	-12597
▁ahí	-12598
▁amu	-12599
▁art	-12600
▁asn	-12601
▁ast	-12602
▁bhe	-12603
▁bié	-12604
▁cee	-12605
▁cen	-12606
▁dôn	-12607
▁ean	-12608
▁enu	-12609
▁fat	-12610
▁fea	-12611
▁gui	-12612
▁hal	-12613
▁hla	-12614
▁hèr	-12615
▁iro	-12616
▁iyé	-12617
▁kru	-12618
▁kĩa	-12619
▁kɔ̀	-12620
▁lie	-12621
▁lom	-12622
▁mbi	-12623
▁miɛ	-12624
▁mur	-12625
▁mío	-12626
▁môn	-12627
▁nao	-12628
▁nyé	-12629
▁nôn	-12630
▁nɑɑ	-12631
▁oko	-12632
▁ora	-12633
▁pal	-12634
▁rte	-12635
▁soi	-12636
▁suɑ	-12637
▁tse	-12638
▁tsɔ	-12639
▁ulu	-12640
▁vas	-12641
▁wah	-12642
▁yíe	-12643
▁zuo	-12644
baden	-12645
fiɲɛn	-12646
gbɔmɔ	-12647
langa	-12648
ninɲa	-12649
wisɔn	-12650
ɛnɛzi	-12651
▁ajan	-12652
▁akɔɔ	-12653
▁ambe	-12654
▁asse	-12655
▁bate	-12656
▁boku	-12657
▁bole	-12658
▁boma	-12659
▁bora	-12660
▁bule	-12661
▁chew	-12662
▁chun	-12663
▁cost	-12664
▁cɛla	-12665
▁diet	-12666
▁dieu	-12667
▁djaa	-12668
▁dòrò	-12669
▁enfp	-12670
▁euro	-12671
▁fore	-12672
▁fufu	-12673
▁féyi	-12674
▁geda	-12675
▁giri	-12676
▁gnon	-12677
▁guun	-12678
▁gɔsa	-12679
▁halo	-12680
▁hice	-12681
▁hoga	-12682
▁igen	-12683
▁ihen	-12684
▁jaba	-12685
▁jene	-12686
▁jiyo	-12687
▁kaya	-12688
▁kenw	-12689
▁kiwi	-12690
▁kofè	-12691
▁kosé	-12692
▁kuan	-12693
▁kulɛ	-12694
▁kumu	-12695
▁kêmê	-12696
▁kɛnu	-12697
▁kɛtɛ	-12698
▁laan	-12699
▁laaz	-12700
▁lafa	-12701
▁lago	-12702
▁lepe	-12703
▁lisi	-12704
▁luda	-12705
▁lugu	-12706
▁luli	-12707
▁miis	-12708
▁mizu	-12709
▁moko	-12710
▁mono	-12711
▁mumɛ	-12712
▁màdu	-12713
▁mèlè	-12714
▁mìnɛ	-12715
▁naka	-12716
▁naŋa	-12717
▁ndɛɛ	-12718
▁noor	-12719
▁nɛre	-12720
▁poyi	-12721
▁pues	-12722
▁pɛri	-12723
▁sach	-12724
▁salo	-12725
▁sape	-12726
▁sele	-12727
▁sigɛ	-12728
▁siɛn	-12729
▁solu	-12730
▁soto	-12731
▁suxu	-12732
▁sɛni	-12733
▁teru	-12734
▁tihs	-12735
▁tore	-12736
▁tɔmɔ	-12737
▁wawɛ	-12738
▁xanu	-12739
▁yaar	-12740
▁yaju	-12741
▁yege	-12742
▁yiye	-12743
▁zebu	-12744
▁ɡɑ̃ɑ	-12745
cation	-12746
cɛnbaa	-12747
dibiba	-12748
lakɛrɛ	-12749
lanigɛ	-12750
lazari	-12751
qmanmi	-12752
raoogo	-12753
siside	-12754
wɛlɛya	-12755
yezɛri	-12756
▁[...]	-12757
▁along	-12758
▁amina	-12759
▁amooo	-12760
▁anata	-12761
▁aramu	-12762
▁baate	-12763
▁bagɔɔ	-12764
▁banaw	-12765
▁banco	-12766
▁barok	-12767
▁belen	-12768
▁benar	-12769
▁bikiɑ	-12770
▁blame	-12771
▁bonda	-12772
▁bruce	-12773
▁daani	-12774
▁dannu	-12775
▁denyɛ	-12776
▁diire	-12777
▁doilu	-12778
▁donni	-12779
▁dunna	-12780
▁durom	-12781
▁farka	-12782
▁flɛri	-12783
▁gates	-12784
▁gbɛnɛ	-12785
▁gnôgô	-12786
▁haiti	-12787
▁happy	-12788
▁horro	-12789
▁iyeii	-12790
▁janta	-12791
▁jɛnri	-12792
▁kaajo	-12793
▁kaale	-12794
▁kaise	-12795
▁kalah	-12796
▁kitiw	-12797
▁kunnu	-12798
▁kɔ̃sa	-12799
▁lagik	-12800
▁lassé	-12801
▁libre	-12802
▁loves	-12803
▁lugar	-12804
▁lɛsɛn	-12805
▁mangɛ	-12806
▁mende	-12807
▁minuw	-12808
▁munda	-12809
▁mɔŋdi	-12810
▁rahab	-12811
▁raogo	-12812
▁retun	-12813
▁sanun	-12814
▁segir	-12815
▁senke	-12816
▁singe	-12817
▁sɔɔrɔ	-12818
▁taāŋa	-12819
▁temps	-12820
▁usage	-12821
▁voted	-12822
▁wulod	-12823
▁yusuf	-12824
▁ɲaden	-12825
gnongon	-12826
kɛbagaw	-12827
talsolo	-12828
yalaban	-12829
ɔgɔninw	-12830
▁adrɛsi	-12831
▁afrika	-12832
▁awhile	-12833
▁balema	-12834
▁barada	-12835
▁batman	-12836
▁bennin	-12837
▁bowtie	-12838
▁boɲali	-12839
▁buñɔbu	-12840
▁denmin	-12841
▁dumini	-12842
▁duruki	-12843
▁fanyen	-12844
▁filita	-12845
▁franci	-12846
▁friend	-12847
▁fɔlɔla	-12848
▁fɛɛrɛw	-12849
▁gaandi	-12850
▁gafado	-12851
▁gbanna	-12852
▁gbɛman	-12853
▁heroin	-12854
▁jeremi	-12855
▁jɔlɔgɔ	-12856
▁kabaga	-12857
▁kafari	-12858
▁kahilu	-12859
▁kalami	-12860
▁kamera	-12861
▁karibi	-12862
▁keleya	-12863
▁kieran	-12864
▁kiiero	-12865
▁kilomɛ	-12866
▁kitana	-12867
▁kologo	-12868
▁kotoba	-12869
▁kulowe	-12870
▁kònòna	-12871
▁kòròla	-12872
▁kɔmɔko	-12873
▁kɛninw	-12874
▁ladiya	-12875
▁lagosi	-12876
▁lataga	-12877
▁longto	-12878
▁lɔgɔfɛ	-12879
▁macana	-12880
▁makeda	-12881
▁marina	-12882
▁misɛli	-12883
▁mɛtɛrɛ	-12884
▁nakoma	-12885
▁namori	-12886
▁nawɔri	-12887
▁nokiba	-12888
▁panama	-12889
▁saguru	-12890
▁siisii	-12891
▁sirila	-12892
▁siātam	-12893
▁susuma	-12894
▁sérélu	-12895
▁sɔndia	-12896
▁tannin	-12897
▁tarata	-12898
▁tigiri	-12899
▁unless	-12900
▁warned	-12901
▁wɑ̃ɑru	-12902
▁yacili	-12903
▁yahuwa	-12904
▁zoramu	-12905
▁ɲɛtugu	-12906
▁ɲɛyɛlɛ	-12907
babilɔni	-12908
fibosɛti	-12909
kɔnɔntɔn	-12910
sigibaga	-12911
▁amériki	-12912
▁biwolon	-12913
▁chariya	-12914
▁corazón	-12915
▁diminna	-12916
▁doncogo	-12917
▁dɛnkɛlɛ	-12918
▁jagboya	-12919
▁karanso	-12920
▁kiiriwe	-12921
▁kitabun	-12922
▁kitilon	-12923
▁limitan	-12924
▁naannnn	-12925
▁nyamɔgɔ	-12926
▁nɛɛmako	-12927
▁ragbɛla	-12928
▁siradaw	-12929
▁sirilon	-12930
▁systems	-12931
▁tabɛnnɛ	-12932
▁tawfeek	-12933
▁tigɛlon	-12934
▁tutunan	-12935
▁tɔgɔcɛn	-12936
▁urufusi	-12937
▁wolonin	-12938
▁wunmiɛn	-12939
▁yaamari	-12940
▁yerebah	-12941
▁younger	-12942
▁ɲɛgɛnni	-12943
dɔnkilila	-12944
lakɔliden	-12945
▁bankebaa	-12946
▁batiyaan	-12947
▁bɛtavɛni	-12948
▁dɔgɔyara	-12949
▁gintanba	-12950
▁golokami	-12951
▁kangaroo	-12952
▁kibaroya	-12953
▁kitibaga	-12954
▁kofitini	-12955
▁kunkurun	-12956
▁lakɔliko	-12957
▁lasɔmini	-12958
▁maloyara	-12959
▁murutiri	-12960
▁mùsotigi	-12961
▁nakɔrɔsi	-12962
▁nbalimaw	-12963
▁potifari	-12964
▁sabatili	-12965
▁seriseri	-12966
▁sunɔgɔra	-12967
▁sɔrɔcogo	-12968
▁tilemana	-12969
▁tugbɔɔrɔ	-12970
▁tuludaga	-12971
▁yelifɛnw	-12972
▁yiracogo	-12973
▁yoyakimu	-12974
▁yɛyinŋge	-12975
▁cogoɲuman	-12976
▁daajuloon	-12977
▁dugubabaw	-12978
▁dɛsɛyɔrɔw	-12979
▁fanibuguw	-12980
▁jurumutɔw	-12981
▁kititɛɛla	-12982
▁lasiritɔw	-12983
▁ninivukaw	-12984
▁ntolatanw	-12985
▁sanfɔɲɔba	-12986
▁sigibagaw	-12987
▁taamabaaw	-12988
▁telewisɔn	-12989
ɛrɛzɛnjanin	-12990
▁adamadiine	-12991
▁bikɔnɔntɔn	-12992
▁brutalsolo	-12993
▁dugutilama	-12994
▁dɔkɔtɔrɔcɛ	-12995
▁filankuruw	-12996
▁furusasɛbɛ	-12997
▁gwengwenna	-12998
▁isirelibɑn	-12999
▁jalakibaga	-13000
▁kagauagaua	-13001
▁kunnacɛnni	-13002
▁kɛlɛtigɛla	-13003
▁ladegebaaw	-13004
▁latanganin	-13005
▁loyiqmanmi	-13006
▁masirifɛnw	-13007
▁rafarafara	-13008
▁samarikacɛ	-13009
▁tagasiside	-13010
▁tilinninɲa	-13011
▁tiyatirika	-13012
lakɔlimɛtiri	-13013
▁baaragwɛlɛn	-13014
▁dusugwɛlɛya	-13015
▁fililatilen	-13016
▁kɛlɛkɛminan	-13017
▁kɛwaliɲuman	-13018
▁nɛnɛkirilon	-13019
▁tagamasiyɛn	-13020
▁waajulikɛla	-13021
▁wololabanaw	-13022
▁ɲamɔgɔbabaw	-13023
▁ɲɔgɔnyeyɔrɔ	-13024
▁kititigɛbaga	-13025
▁lakɔlimɛtiri	-13026
▁ntolatankulu	-13027
▁senkelenninw	-13028
▁baarakuntigiw	-13029
▁baarakɛnyɔgɔn	-13030
▁jamanaɲɛmɔgɔw	-13031
▁kabakuruɲuman	-13032
▁nisɔndiyakalo	-13033
▁alaɲasiranbali	-13034
▁sebaayabɛɛtigi	-13035
:$	-13036
dɩ	-13037
gò	-13038
jt	-13039
kt	-13040
sī	-13041
uâ	-13042
òo	-13043
›,	-13044
adu	-13045
chu	-13046
cɛw	-13047
dor	-13048
gam	-13049
hèm	-13050
jig	-13051
jou	-13052
kel	-13053
kha	-13054
kna	-13055
ler	-13056
liɛ	-13057
mil	-13058
oun	-13059
ris	-13060
sus	-13061
tai	-13062
tit	-13063
tma	-13064
tôn	-13065
uwe	-13066
vui	-13067
zir	-13068
▁(;	-13069
▁bɩ	-13070
▁cy	-13071
▁cô	-13072
▁ft	-13073
▁jy	-13074
▁kl	-13075
▁ká	-13076
▁mc	-13077
▁md	-13078
▁op	-13079
▁pé	-13080
▁rh	-13081
▁sû	-13082
▁tr	-13083
▁tí	-13084
▁ɡu	-13085
aala	-13086
aara	-13087
alla	-13088
baro	-13089
chee	-13090
dira	-13091
dula	-13092
fala	-13093
gbɔn	-13094
ggia	-13095
jiji	-13096
jɔɔn	-13097
kanu	-13098
kuki	-13099
kélé	-13100
laga	-13101
llun	-13102
luwɔ	-13103
mail	-13104
musu	-13105
mɔti	-13106
naum	-13107
pasi	-13108
pɔrɔ	-13109
sama	-13110
seru	-13111
sinu	-13112
stau	-13113
sôbè	-13114
ugba	-13115
ussa	-13116
very	-13117
viga	-13118
xuma	-13119
yudi	-13120
ònin	-13121
ɛɛlɛ	-13122
▁bab	-13123
▁baj	-13124
▁bez	-13125
▁bid	-13126
▁buɛ	-13127
▁dir	-13128
▁dom	-13129
▁dub	-13130
▁efu	-13131
▁fak	-13132
▁fou	-13133
▁iii	-13134
▁ikh	-13135
▁jas	-13136
▁jek	-13137
▁joe	-13138
▁kue	-13139
▁kuw	-13140
▁kɔm	-13141
▁lbs	-13142
▁lga	-13143
▁lit	-13144
▁loh	-13145
▁mwa	-13146
▁nei	-13147
▁nok	-13148
▁nui	-13149
▁obé	-13150
▁oil	-13151
▁oly	-13152
▁oso	-13153
▁pio	-13154
▁res	-13155
▁roj	-13156
▁sky	-13157
▁sok	-13158
▁sri	-13159
▁sro	-13160
▁swɛ	-13161
▁tay	-13162
▁tea	-13163
▁tiŋ	-13164
▁tob	-13165
▁war	-13166
▁waɛ	-13167
▁yai	-13168
▁yei	-13169
▁yek	-13170
▁yep	-13171
▁ɔgi	-13172
▁ɛli	-13173
▁ɛri	-13174
bolow	-13175
bɛnna	-13176
deenw	-13177
dencɛ	-13178
filan	-13179
furaw	-13180
guage	-13181
gwɛlɛ	-13182
gɔnna	-13183
juuya	-13184
kanna	-13185
landi	-13186
lèhèm	-13187
maari	-13188
phant	-13189
piire	-13190
rkina	-13191
siraw	-13192
taana	-13193
tones	-13194
unten	-13195
yɛlɛn	-13196
yɛnin	-13197
ŋinba	-13198
▁adon	-13199
▁away	-13200
▁baan	-13201
▁babu	-13202
▁bhaa	-13203
▁boɲɛ	-13204
▁bute	-13205
▁cent	-13206
▁cuti	-13207
▁dayi	-13208
▁deba	-13209
▁denj	-13210
▁dere	-13211
▁djen	-13212
▁dobu	-13213
▁douw	-13214
▁dron	-13215
▁drɔn	-13216
▁dôyé	-13217
▁dɔra	-13218
▁dɛna	-13219
▁eman	-13220
▁esca	-13221
▁eyɔɔ	-13222
▁feet	-13223
▁fefe	-13224
▁fohi	-13225
▁fulo	-13226
▁gale	-13227
▁galo	-13228
▁gato	-13229
▁geet	-13230
▁hati	-13231
▁hold	-13232
▁hope	-13233
▁hosi	-13234
▁hèrò	-13235
▁inde	-13236
▁jaja	-13237
▁kant	-13238
▁kete	-13239
▁kêlê	-13240
▁lamò	-13241
▁laso	-13242
▁leke	-13243
▁loaa	-13244
▁loka	-13245
▁loke	-13246
▁léyé	-13247
▁lôgô	-13248
▁lɔhɔ	-13249
▁mabò	-13250
▁mawu	-13251
▁meru	-13252
▁mulo	-13253
▁musu	-13254
▁mɛna	-13255
▁mɛro	-13256
▁naba	-13257
▁naku	-13258
▁naze	-13259
▁nine	-13260
▁nzal	-13261
▁nɔra	-13262
▁oran	-13263
▁piri	-13264
▁pori	-13265
▁prov	-13266
▁rapu	-13267
▁ruka	-13268
▁sadi	-13269
▁sadɔ	-13270
▁sang	-13271
▁sare	-13272
▁sati	-13273
▁slam	-13274
▁somi	-13275
▁stag	-13276
▁sugi	-13277
▁suis	-13278
▁suku	-13279
▁sôgô	-13280
▁sɛkɔ	-13281
▁tank	-13282
▁task	-13283
▁tikɛ	-13284
▁tolu	-13285
▁tona	-13286
▁tong	-13287
▁tung	-13288
▁ture	-13289
▁tuuw	-13290
▁ummi	-13291
▁vgti	-13292
▁wama	-13293
▁wanl	-13294
▁will	-13295
▁wiri	-13296
▁wɔru	-13297
▁xddd	-13298
▁yawu	-13299
▁yiko	-13300
▁yipi	-13301
▁yowa	-13302
▁yume	-13303
▁yunu	-13304
aaumma	-13305
cembre	-13306
damasi	-13307
denmis	-13308
edɔmuw	-13309
ganisa	-13310
jukɔrɔ	-13311
kalasi	-13312
keribu	-13313
kisiki	-13314
kunnan	-13315
lazarè	-13316
marigi	-13317
ramidi	-13318
sɔdiya	-13319
uggalo	-13320
ussouf	-13321
zeremi	-13322
èrnaum	-13323
▁ageru	-13324
▁ampun	-13325
▁aseki	-13326
▁berew	-13327
▁bisyo	-13328
▁buena	-13329
▁buran	-13330
▁buruw	-13331
▁conte	-13332
▁doona	-13333
▁durum	-13334
▁dɔŋgu	-13335
▁famba	-13336
▁fiiko	-13337
▁finti	-13338
▁foliw	-13339
▁fools	-13340
▁gbèlè	-13341
▁gɔ̃ru	-13342
▁helal	-13343
▁honto	-13344
▁iyepe	-13345
▁japon	-13346
▁jinèw	-13347
▁jivan	-13348
▁jokin	-13349
▁kafea	-13350
▁kahun	-13351
▁kalma	-13352
▁kaāna	-13353
▁kilan	-13354
▁kisee	-13355
▁kisne	-13356
▁koilu	-13357
▁koosu	-13358
▁kpali	-13359
▁kpara	-13360
▁kpaun	-13361
▁kuali	-13362
▁kòsso	-13363
▁laara	-13364
▁lanka	-13365
▁lawak	-13366
▁liike	-13367
▁looma	-13368
▁lukes	-13369
▁madon	-13370
▁minin	-13371
▁moche	-13372
▁motow	-13373
▁musoo	-13374
▁muɲun	-13375
▁mɔɲɔn	-13376
▁nyɔnɛ	-13377
▁nɔrɔn	-13378
▁nɔɔbɑ	-13379
▁nɔɔmɔ	-13380
▁profe	-13381
▁quien	-13382
▁russe	-13383
▁saria	-13384
▁seeee	-13385
▁sieli	-13386
▁sielɛ	-13387
▁sinma	-13388
▁sizes	-13389
▁soonw	-13390
▁sorry	-13391
▁stupi	-13392
▁sɔmbu	-13393
▁tagih	-13394
▁tanni	-13395
▁tatoo	-13396
▁tatte	-13397
▁tinya	-13398
▁tried	-13399
▁tudun	-13400
▁turki	-13401
▁tɔnwu	-13402
▁unico	-13403
▁vidio	-13404
▁waraw	-13405
▁yataa	-13406
▁zerok	-13407
▁zifaw	-13408
▁ŋgele	-13409
▁ŋmɔbe	-13410
▁ɲaami	-13411
comment	-13412
fiɲɛntɔ	-13413
galista	-13414
girɛkiw	-13415
ŋgbanwa	-13416
▁banban	-13417
▁baniye	-13418
▁barake	-13419
▁bereta	-13420
▁bitini	-13421
▁bugòli	-13422
▁burayi	-13423
▁cuttin	-13424
▁cɛdenw	-13425
▁dancin	-13426
▁dankan	-13427
▁dechee	-13428
▁diablo	-13429
▁dunanw	-13430
▁dòònin	-13431
▁dɛnkɛn	-13432
▁ekurɔn	-13433
▁entien	-13434
▁foruba	-13435
▁gbanan	-13436
▁gundow	-13437
▁hinaba	-13438
▁horror	-13439
▁hɔɔrɔn	-13440
▁jatigi	-13441
▁jatɔya	-13442
▁jeneba	-13443
▁jirala	-13444
▁kacili	-13445
▁kalati	-13446
▁kannzɛ	-13447
▁kieroo	-13448
▁kineki	-13449
▁kpafuɛ	-13450
▁kèrèfè	-13451
▁manowa	-13452
▁martɛn	-13453
▁mbanla	-13454
▁mifano	-13455
▁milika	-13456
▁misiri	-13457
▁mituna	-13458
▁mèlèkè	-13459
▁mɔbili	-13460
▁nature	-13461
▁naviga	-13462
▁ndɛvui	-13463
▁nenina	-13464
▁nigger	-13465
▁niyeto	-13466
▁nunman	-13467
▁peters	-13468
▁rezeki	-13469
▁sacker	-13470
▁samedi	-13471
▁samiɲa	-13472
▁season	-13473
▁sibora	-13474
▁siesie	-13475
▁sofɛri	-13476
▁sàriya	-13477
▁sèbèma	-13478
▁taanin	-13479
▁tereke	-13480
▁tibont	-13481
▁tifaga	-13482
▁tigɛta	-13483
▁tiyepe	-13484
▁tomasi	-13485
▁tunggu	-13486
▁wahala	-13487
denɲɛnin	-13488
eligible	-13489
kerecɛnw	-13490
▁alayiye	-13491
▁assetou	-13492
▁baaraba	-13493
▁bancian	-13494
▁bedroom	-13495
▁beijing	-13496
▁biloolu	-13497
▁binkɛnɛ	-13498
▁bonyana	-13499
▁burkina	-13500
▁command	-13501
▁dibilon	-13502
▁dibiman	-13503
▁dònbali	-13504
▁ekalasi	-13505
▁facɛman	-13506
▁fitiniw	-13507
▁fitinɛw	-13508
▁galanga	-13509
▁gbiliyɛ	-13510
▁jatinin	-13511
▁jealous	-13512
▁jijaliw	-13513
▁joginda	-13514
▁jurumaw	-13515
▁kalanan	-13516
▁koŋgban	-13517
▁kpɛɛngɛ	-13518
▁kôgôdji	-13519
▁lakikaw	-13520
▁laminin	-13521
▁lepeele	-13522
▁mɔ̀gɔya	-13523
▁mɛgbɔgɔ	-13524
▁ngunmin	-13525
▁pondria	-13526
▁sheeran	-13527
▁stalkin	-13528
▁tourist	-13529
▁uriyawu	-13530
▁wunluwɔ	-13531
▁ɲogɔnna	-13532
aaummaled	-13533
abigayɛli	-13534
duurutigi	-13535
filankuru	-13536
kabakurun	-13537
taamasiɲɛ	-13538
▁babilonɛ	-13539
▁balimela	-13540
▁belgique	-13541
▁biaŋinba	-13542
▁bilasila	-13543
▁cɛnimuso	-13544
▁dafitini	-13545
▁damakɛɲɛ	-13546
▁dannabaa	-13547
▁elephant	-13548
▁felikisi	-13549
▁filiyɔrɔ	-13550
▁gafebonw	-13551
▁handunia	-13552
▁jolidɛsɛ	-13553
▁jukunnan	-13554
▁jɛniyɔrɔ	-13555
▁jɛnsɛnni	-13556
▁kaburutu	-13557
▁kanuyako	-13558
▁kokolonw	-13559
▁kɔlɔsira	-13560
▁kɔniyako	-13561
▁language	-13562
▁lanibara	-13563
▁lelɛgɛrɛ	-13564
▁marabaga	-13565
▁mɛkisiki	-13566
▁namarako	-13567
▁nɔgɔninw	-13568
▁sagakulu	-13569
▁somebody	-13570
▁telefoni	-13571
▁xanunten	-13572
▁youssouf	-13573
▁zootones	-13574
▁ɲɛnamanw	-13575
▁bètilèhèm	-13576
▁cɛnnikɛla	-13577
▁dennyɛnin	-13578
▁denyɛrɛni	-13579
▁faamamuso	-13580
▁faaninbon	-13581
▁fagawaati	-13582
▁filankafo	-13583
▁furumusow	-13584
▁gafefeere	-13585
▁haminakow	-13586
▁kapèrnaum	-13587
▁kunmabòli	-13588
▁lɛɛbuyɔrɔ	-13589
▁masataana	-13590
▁naŋgbanwa	-13591
▁nigɛjuguw	-13592
▁npogotigi	-13593
▁peresidan	-13594
▁sekɔrɔnin	-13595
▁sinndɛɛrɛ	-13596
▁struggled	-13597
▁sɔrɔdasiw	-13598
▁wagatijan	-13599
▁yahudiyaw	-13600
▁ɲagaminen	-13601
▁ɲasiranya	-13602
▁ɲɛnatigɛw	-13603
ganisasiyɔn	-13604
▁denkɔrɔbaw	-13605
▁dumunifɛnw	-13606
▁etiyopikaw	-13607
▁faamuyalen	-13608
▁frugalista	-13609
▁jamanjanba	-13610
▁kolonkalan	-13611
▁kɔsegituma	-13612
▁latigɛninw	-13613
▁malobaliya	-13614
▁senakeribu	-13615
▁siranyakow	-13616
▁tesaloniki	-13617
▁wasabaliya	-13618
▁watchtower	-13619
▁yirilamanw	-13620
▁abidjansigi	-13621
▁aoaaummaled	-13622
▁jamanjanbaw	-13623
▁kalifayɔrɔw	-13624
▁kulujanjanw	-13625
▁lawodisekaw	-13626
▁murutibagaw	-13627
▁nisɔngoyako	-13628
▁tulomasamaw	-13629
▁dununyalaban	-13630
▁kerecɛnɲɔgɔn	-13631
▁jaladuurutigi	-13632
▁sarakabɔyɔrɔw	-13633
▁warigwɛlamanw	-13634
▁ɲanamanyakura	-13635
▁yɛrɛtangacogow	-13636
.+	-13637
?」	-13638
dî	-13639
id	-13640
kg	-13641
nt	-13642
oi	-13643
rã	-13644
vn	-13645
xh	-13646
▁ẹ	-13647
.›"	-13648
:-:	-13649
bas	-13650
cam	-13651
dak	-13652
eer	-13653
gat	-13654
gué	-13655
hin	-13656
iiv	-13657
keh	-13658
kus	-13659
kyi	-13660
kùn	-13661
lés	-13662
mas	-13663
nau	-13664
oom	-13665
ore	-13666
pop	-13667
pri	-13668
pɔn	-13669
sha	-13670
sor	-13671
sou	-13672
sty	-13673
tic	-13674
und	-13675
vao	-13676
war	-13677
yde	-13678
yer	-13679
yɛr	-13680
zèn	-13681
élé	-13682
ɛnm	-13683
▁aŋ	-13684
▁bf	-13685
▁bz	-13686
▁gy	-13687
▁mn	-13688
▁mv	-13689
▁nc	-13690
▁nù	-13691
▁nɩ	-13692
▁om	-13693
▁sê	-13694
▁ŋɛ	-13695
▁ɔr	-13696
▁ɛr	-13697
▁ɡe	-13698
aliw	-13699
amɔn	-13700
bada	-13701
balu	-13702
dafi	-13703
fɛrɛ	-13704
gido	-13705
gnin	-13706
guon	-13707
gɔrɔ	-13708
gɛni	-13709
hari	-13710
hɛmu	-13711
jigɛ	-13712
jolo	-13713
kadi	-13714
kisè	-13715
kiyo	-13716
lanu	-13717
lasi	-13718
linw	-13719
moro	-13720
mɛri	-13721
ness	-13722
star	-13723
stre	-13724
suba	-13725
tabu	-13726
tifi	-13727
tuku	-13728
tèrè	-13729
woof	-13730
xini	-13731
yahu	-13732
ying	-13733
yété	-13734
zara	-13735
ziye	-13736
▁ath	-13737
▁awi	-13738
▁bea	-13739
▁brɛ	-13740
▁bta	-13741
▁cus	-13742
▁cɛf	-13743
▁deh	-13744
▁duɑ	-13745
▁dɔk	-13746
▁fer	-13747
▁geo	-13748
▁gln	-13749
▁gɔn	-13750
▁had	-13751
▁ibk	-13752
▁ibé	-13753
▁ink	-13754
▁ivi	-13755
▁jud	-13756
▁jum	-13757
▁jva	-13758
▁ley	-13759
▁mia	-13760
▁mli	-13761
▁mot	-13762
▁mtv	-13763
▁nax	-13764
▁neh	-13765
▁obe	-13766
▁oke	-13767
▁oki	-13768
▁pes	-13769
▁rem	-13770
▁sco	-13771
▁sep	-13772
▁sho	-13773
▁sol	-13774
▁soɛ	-13775
▁sôn	-13776
▁ted	-13777
▁ter	-13778
▁tes	-13779
▁tok	-13780
▁tsi	-13781
▁tôw	-13782
▁uba	-13783
▁vau	-13784
▁wei	-13785
▁xen	-13786
▁xoo	-13787
▁xxx	-13788
▁yag	-13789
▁yet	-13790
▁yɑɑ	-13791
▁zma	-13792
▁ŋuu	-13793
▁ŋɔɔ	-13794
▁ɛnt	-13795
▁ɛst	-13796
▁ɡbi	-13797
asobi	-13798
ation	-13799
cript	-13800
diroo	-13801
ezeki	-13802
fanga	-13803
galow	-13804
gedɔn	-13805
gnini	-13806
janai	-13807
loola	-13808
ngali	-13809
ozina	-13810
pɛɛŋɛ	-13811
rrent	-13812
rɛnin	-13813
sitas	-13814
sitaw	-13815
sɛkan	-13816
tures	-13817
yonbe	-13818
▁..??	-13819
▁ahhh	-13820
▁alou	-13821
▁anis	-13822
▁baha	-13823
▁basu	-13824
▁bend	-13825
▁bhee	-13826
▁bhul	-13827
▁bogi	-13828
▁boop	-13829
▁bɛli	-13830
▁capi	-13831
▁dake	-13832
▁diii	-13833
▁dikh	-13834
▁dima	-13835
▁doon	-13836
▁dulò	-13837
▁dɛɛn	-13838
▁ebre	-13839
▁ekpɛ	-13840
▁fain	-13841
▁fatu	-13842
▁fele	-13843
▁geek	-13844
▁goun	-13845
▁guud	-13846
▁gɔra	-13847
▁hama	-13848
▁helo	-13849
▁hopu	-13850
▁hɔrɔ	-13851
▁ilon	-13852
▁ivan	-13853
▁jaye	-13854
▁jita	-13855
▁jomɔ	-13856
▁joob	-13857
▁kapi	-13858
▁kula	-13859
▁kyon	-13860
▁kɛle	-13861
▁labe	-13862
▁lemu	-13863
▁masɔ	-13864
▁mire	-13865
▁miti	-13866
▁modɛ	-13867
▁muku	-13868
▁nato	-13869
▁nije	-13870
▁niya	-13871
▁nkun	-13872
▁nomb	-13873
▁nude	-13874
▁nzue	-13875
▁olou	-13876
▁rabe	-13877
▁roma	-13878
▁sahi	-13879
▁sekɔ	-13880
▁sona	-13881
▁soɲɛ	-13882
▁suɛn	-13883
▁swɛɛ	-13884
▁sènè	-13885
▁sɔbe	-13886
▁sɛsɛ	-13887
▁taka	-13888
▁tasa	-13889
▁team	-13890
▁tewo	-13891
▁ther	-13892
▁tige	-13893
▁tilo	-13894
▁torɑ	-13895
▁used	-13896
▁welé	-13897
▁wemu	-13898
▁what	-13899
▁when	-13900
▁wiru	-13901
▁woof	-13902
▁wure	-13903
▁wɔ̃ɔ	-13904
▁yetɔ	-13905
▁yevi	-13906
▁yiin	-13907
▁yini	-13908
▁yuan	-13909
▁yude	-13910
▁yugi	-13911
▁ŋami	-13912
▁ɡere	-13913
▁ɲèbò	-13914
▁ɲɔgɔ	-13915
balaki	-13916
batoli	-13917
bitigi	-13918
guwɛli	-13919
karata	-13920
ladimi	-13921
lɛhɛmu	-13922
mdaanɔ	-13923
mɔgɛnu	-13924
roloyo	-13925
tation	-13926
tobiya	-13927
wulisi	-13928
yinika	-13929
zebuli	-13930
ɲɛnajɛ	-13931
▁amani	-13932
▁apple	-13933
▁ayika	-13934
▁bagan	-13935
▁bagee	-13936
▁baris	-13937
▁bayii	-13938
▁beiiv	-13939
▁bgtau	-13940
▁bibun	-13941
▁bilar	-13942
▁birdy	-13943
▁boliw	-13944
▁boyan	-13945
▁bulan	-13946
▁bɛsɛn	-13947
▁ciyèn	-13948
▁clown	-13949
▁coger	-13950
▁cryin	-13951
▁cɛnwɛ	-13952
▁djigi	-13953
▁efese	-13954
▁eyudi	-13955
▁fantà	-13956
▁fanyi	-13957
▁fatɔw	-13958
▁given	-13959
▁heheh	-13960
▁hello	-13961
▁hotel	-13962
▁indon	-13963
▁kaafi	-13964
▁kadow	-13965
▁kalje	-13966
▁kanpa	-13967
▁kapye	-13968
▁karao	-13969
▁kissè	-13970
▁konaa	-13971
▁koore	-13972
▁kpele	-13973
▁kplan	-13974
▁kòròn	-13975
▁kɔɔlɔ	-13976
▁laben	-13977
▁ladɛn	-13978
▁lanzu	-13979
▁lapau	-13980
▁lokwa	-13981
▁maale	-13982
▁mikan	-13983
▁milan	-13984
▁mɔgɔn	-13985
▁mɔ̀kɛ	-13986
▁mɛɛra	-13987
▁nafan	-13988
▁nagoo	-13989
▁nekaa	-13990
▁nibii	-13991
▁ninmu	-13992
▁nkama	-13993
▁nosal	-13994
▁nyaga	-13995
▁nònsi	-13996
▁oluwa	-13997
▁onhon	-13998
▁orɛbu	-13999
▁pehli	-14000
▁piile	-14001
▁rafan	-14002
▁rezèn	-14003
▁saiko	-14004
▁scene	-14005
▁sedap	-14006
▁sidon	-14007
▁sweet	-14008
▁tagal	-14009
▁tanla	-14010
▁thena	-14011
▁tinbi	-14012
▁usayi	-14013
▁wandi	-14014
▁wanla	-14015
▁wɔllɔ	-14016
▁xɔtɔn	-14017
▁xɛɛxi	-14018
▁yaama	-14019
▁yadon	-14020
▁yakpa	-14021
▁yengi	-14022
▁yetaw	-14023
▁yɛndu	-14024
▁zdani	-14025
zedeyɔn	-14026
▁adaman	-14027
▁asuwan	-14028
▁bandit	-14029
▁bandun	-14030
▁baraki	-14031
▁barisi	-14032
▁bondow	-14033
▁bootan	-14034
▁bɔsira	-14035
▁bɔxɔni	-14036
▁dekiru	-14037
▁denkun	-14038
▁domuna	-14039
▁dudenw	-14040
▁dɔrɔgi	-14041
▁espaɲi	-14042
▁failed	-14043
▁fenisi	-14044
▁fuckin	-14045
▁fungɔn	-14046
▁fururu	-14047
▁fɛfɛri	-14048
▁gbèrèw	-14049
▁granny	-14050
▁gwɛlɛn	-14051
▁honest	-14052
▁hèròde	-14053
▁hɔrɔnw	-14054
▁ikhlas	-14055
▁indian	-14056
▁iyonbe	-14057
▁jagoya	-14058
▁jènsèn	-14059
▁kalide	-14060
▁karega	-14061
▁kavita	-14062
▁kounou	-14063
▁kpakpa	-14064
▁krecɛn	-14065
▁kônôna	-14066
▁lamɛki	-14067
▁layega	-14068
▁levite	-14069
▁lidigɛ	-14070
▁lonacɛ	-14071
▁lɔxɔni	-14072
▁lɛkulu	-14073
▁maanaw	-14074
▁medias	-14075
▁megido	-14076
▁mennin	-14077
▁munuɲa	-14078
▁mutɔla	-14079
▁mɔgɔma	-14080
▁nabɔti	-14081
▁nazarè	-14082
▁ngbaha	-14083
▁niggas	-14084
▁nimisi	-14085
▁nogoya	-14086
▁nouvel	-14087
▁nshele	-14088
▁nyɛsin	-14089
▁restau	-14090
▁sadɔki	-14091
▁sengal	-14092
▁silent	-14093
▁stupid	-14094
▁suzani	-14095
▁sɑ̃ɑwɑ	-14096
▁sɔkɔra	-14097
▁tabaga	-14098
▁tamanw	-14099
▁tigaua	-14100
▁tirani	-14101
▁tumhen	-14102
▁tuuboo	-14103
▁tɔmbun	-14104
▁tɛmɛta	-14105
▁tɛntɛn	-14106
▁woloba	-14107
▁woloko	-14108
▁worora	-14109
▁wunman	-14110
▁wɔkura	-14111
▁yalali	-14112
▁yellow	-14113
▁yitama	-14114
▁yôrôla	-14115
▁zamana	-14116
▁ɲagoya	-14117
▁ɲanama	-14118
▁ɲasigi	-14119
▁ɲataga	-14120
▁ɲɛtaga	-14121
denmisèn	-14122
hɛrɛtigi	-14123
▁azayɛli	-14124
▁basanin	-14125
▁bilorou	-14126
▁buteliw	-14127
▁charlie	-14128
▁chiaman	-14129
▁cɛngɛlɛ	-14130
▁dagalen	-14131
▁doumini	-14132
▁dubalen	-14133
▁dɔwfaga	-14134
▁dɛmɛnba	-14135
▁dɛnaxan	-14136
▁egilizi	-14137
▁elifazi	-14138
▁fagaliw	-14139
▁famouya	-14140
▁gbegele	-14141
▁gnamôgô	-14142
▁isakari	-14143
▁jagwɛlɛ	-14144
▁jònmuso	-14145
▁kamelen	-14146
▁kikoeru	-14147
▁kojuuya	-14148
▁kokɔrɔw	-14149
▁kookari	-14150
▁kunngba	-14151
▁likawlɛ	-14152
▁lɔwaati	-14153
▁maranin	-14154
▁muɲunin	-14155
▁mɔ̀muso	-14156
▁nantili	-14157
▁niannin	-14158
▁ntalenw	-14159
▁nɔɔwɑwɑ	-14160
▁pensado	-14161
▁senunŋo	-14162
▁sinambu	-14163
▁student	-14164
▁sìgilan	-14165
▁takdeer	-14166
▁telenni	-14167
▁tilebin	-14168
▁tirikaw	-14169
▁togodaw	-14170
▁trannin	-14171
▁unicorn	-14172
▁wulilen	-14173
▁wunmuan	-14174
▁yonguon	-14175
▁yɔnlɔgɔ	-14176
▁ɲɔgɔmɛw	-14177
▁backbone	-14178
▁batizeri	-14179
▁datougou	-14180
▁dimiyɔrɔ	-14181
▁djamanaw	-14182
▁dôgôtôrô	-14183
▁jaatenin	-14184
▁jogokura	-14185
▁jurukisɛ	-14186
▁klisifuɛ	-14187
▁konnigɛw	-14188
▁kunbɛnna	-14189
▁kèbaliya	-14190
▁kètchogo	-14191
▁kɔnɔmaya	-14192
▁kɔnɔnasu	-14193
▁kɛnɛyɔrɔ	-14194
▁lɛsɛcogo	-14195
▁lɛsɛninw	-14196
▁misimuso	-14197
▁moxobalu	-14198
▁mugumugu	-14199
▁nafabali	-14200
▁nafoloko	-14201
▁nanyuman	-14202
▁nisɔdiya	-14203
▁pornstar	-14204
▁sagagbɛn	-14205
▁saracogo	-14206
▁sofɛricɛ	-14207
▁solution	-14208
▁sɛrisɛsi	-14209
▁tchogoya	-14210
▁tigɛyɔrɔ	-14211
▁torowasi	-14212
▁tudunmɔɔ	-14213
▁tunmbyee	-14214
▁weleninw	-14215
▁yomdaanɔ	-14216
▁ɛntɛnɛti	-14217
▁ɲagalila	-14218
▁ɲanamini	-14219
antiyokusi	-14220
naforotigi	-14221
ɛrɛzɛnsunw	-14222
▁araguwɛli	-14223
▁dannamògò	-14224
▁dudaloola	-14225
▁dɛndɛbere	-14226
▁efirayimu	-14227
▁eliyezɛri	-14228
▁gajuggalo	-14229
▁kariɲɛɛgɛ	-14230
▁kuntigolu	-14231
▁kuruyɔrɔw	-14232
▁labanyɔrɔ	-14233
▁lajiginni	-14234
▁lajɛnsɛbɛ	-14235
▁latigɛtaw	-14236
▁manyinika	-14237
▁miiricogo	-14238
▁nɔɔrugiba	-14239
▁samedilon	-14240
▁sintigiya	-14241
▁sèbènnenw	-14242
▁sɔnnifara	-14243
▁tɔnwulenw	-14244
▁bolibatoli	-14245
▁bololanigɛ	-14246
▁bɛtilɛhɛmu	-14247
▁dɔgɔtɔrɔya	-14248
▁dɛndɛbagaw	-14249
▁dɛnkɛninya	-14250
▁karamɔgɔya	-14251
▁kilomɛtɛrɛ	-14252
▁koŋgbanŋga	-14253
▁kɛlɛɲɔgɔnw	-14254
▁latigèlenw	-14255
▁restaurant	-14256
▁sesɔrɔbaga	-14257
▁sɛdiriyiri	-14258
▁sɛgɛsɛgɛri	-14259
▁bayɛlɛmanin	-14260
▁fɔlikɛminan	-14261
▁hadamadenya	-14262
▁kɔrɔsibagaw	-14263
▁murujanjanw	-14264
▁mɔgɔkolonya	-14265
▁nisɔndiyatɔ	-14266
▁ɲanibagatɔw	-14267
▁jalakibaliya	-14268
▁jigitugubaga	-14269
▁kɛwaliɲumanw	-14270
▁misirankailu	-14271
▁sɛ̀gɛnbagatɔ	-14272
▁ɲènatòmòlenw	-14273
nabukodonozɔri	-14274
▁bilasirabagaw	-14275
▁cɛkɔrɔbalaman	-14276
▁sumantigɛwaati	-14277
▁ɔriganisasiyɔn	-14278
▁kanbelenyawaati	-14279
!*	-14280
!?	-14281
^^	-14282
gã	-14283
ky	-14284
ls	-14285
yô	-14286
ŋi	-14287
ɑn	-14288
ɔ̃	-14289
ɛt	-14290
”,	-14291
.›*	-14292
ari	-14293
bat	-14294
bɑn	-14295
cen	-14296
cto	-14297
dje	-14298
eux	-14299
fle	-14300
gau	-14301
gea	-14302
gné	-14303
gou	-14304
guê	-14305
ite	-14306
kil	-14307
kɔr	-14308
mat	-14309
mia	-14310
nce	-14311
nsd	-14312
onu	-14313
par	-14314
pro	-14315
spe	-14316
suu	-14317
tas	-14318
tey	-14319
uud	-14320
vɔɔ	-14321
wag	-14322
zhi	-14323
été	-14324
òmi	-14325
ŋkɛ	-14326
ɔɔl	-14327
ɛɛn	-14328
▁cé	-14329
▁fb	-14330
▁fw	-14331
▁mā	-14332
▁oí	-14333
▁pō	-14334
▁pẹ	-14335
▁sō	-14336
▁uŋ	-14337
▁ɲà	-14338
?...	-14339
bira	-14340
dagi	-14341
deba	-14342
eiro	-14343
ferr	-14344
figi	-14345
fine	-14346
fèli	-14347
fɛli	-14348
gedo	-14349
heur	-14350
iiii	-14351
jida	-14352
juli	-14353
kafɔ	-14354
kisa	-14355
koto	-14356
kumu	-14357
kɔni	-14358
likè	-14359
mede	-14360
misa	-14361
mpti	-14362
mégé	-14363
onto	-14364
oula	-14365
port	-14366
rana	-14367
rdda	-14368
rene	-14369
rinɔ	-14370
seya	-14371
ssan	-14372
sual	-14373
suri	-14374
tamu	-14375
tine	-14376
tiɔn	-14377
tsty	-14378
tsɔɔ	-14379
tulu	-14380
tɔnu	-14381
tɔri	-14382
ukee	-14383
undi	-14384
unyo	-14385
were	-14386
xara	-14387
yagi	-14388
yako	-14389
yiko	-14390
yɔɔn	-14391
zimu	-14392
èula	-14393
ɔrin	-14394
ɛnti	-14395
ɲama	-14396
▁ahq	-14397
▁akɔ	-14398
▁alp	-14399
▁arm	-14400
▁aze	-14401
▁bna	-14402
▁bom	-14403
▁cuo	-14404
▁diw	-14405
▁dog	-14406
▁doi	-14407
▁dol	-14408
▁dɛh	-14409
▁eyi	-14410
▁fas	-14411
▁fis	-14412
▁gly	-14413
▁gné	-14414
▁got	-14415
▁hae	-14416
▁hoi	-14417
▁ijɔ	-14418
▁jig	-14419
▁koh	-14420
▁kro	-14421
▁kye	-14422
▁lew	-14423
▁liw	-14424
▁mmg	-14425
▁nal	-14426
▁nil	-14427
▁niɛ	-14428
▁nuk	-14429
▁nur	-14430
▁nuw	-14431
▁odd	-14432
▁own	-14433
▁pah	-14434
▁ppe	-14435
▁pòo	-14436
▁rom	-14437
▁ryo	-14438
▁sag	-14439
▁suk	-14440
▁sûi	-14441
▁tap	-14442
▁tei	-14443
▁tis	-14444
▁toi	-14445
▁tso	-14446
▁töi	-14447
▁ula	-14448
▁uya	-14449
▁vin	-14450
▁wae	-14451
▁wai	-14452
▁yiu	-14453
▁àni	-14454
▁ɛɛɛ	-14455
▁ɲɛw	-14456
bbean	-14457
domma	-14458
fants	-14459
jɛndɛ	-14460
karan	-14461
keren	-14462
kitan	-14463
lding	-14464
lolow	-14465
lɛman	-14466
orɛbu	-14467
ransi	-14468
rasia	-14469
seegi	-14470
sitan	-14471
stana	-14472
sufuɛ	-14473
umanw	-14474
yɔnwɔ	-14475
zirga	-14476
▁akoo	-14477
▁alif	-14478
▁alii	-14479
▁also	-14480
▁asun	-14481
▁atan	-14482
▁baaw	-14483
▁bado	-14484
▁behi	-14485
▁beru	-14486
▁beya	-14487
▁blen	-14488
▁bood	-14489
▁boug	-14490
▁bubu	-14491
▁buta	-14492
▁codo	-14493
▁coun	-14494
▁cɛsi	-14495
▁dhun	-14496
▁dude	-14497
▁elfa	-14498
▁esan	-14499
▁fago	-14500
▁finw	-14501
▁funɛ	-14502
▁fàga	-14503
▁fèrè	-14504
▁fɔnv	-14505
▁gama	-14506
▁glan	-14507
▁hinè	-14508
▁iman	-14509
▁jiga	-14510
▁joèl	-14511
▁karn	-14512
▁kaum	-14513
▁khel	-14514
▁kise	-14515
▁kisè	-14516
▁koɲa	-14517
▁kpam	-14518
▁kéné	-14519
▁kêla	-14520
▁kɔsi	-14521
▁lalô	-14522
▁ledu	-14523
▁lege	-14524
▁leon	-14525
▁lian	-14526
▁line	-14527
▁lion	-14528
▁luzi	-14529
▁mona	-14530
▁nasi	-14531
▁neso	-14532
▁neun	-14533
▁newu	-14534
▁niib	-14535
▁nman	-14536
▁nyii	-14537
▁nènè	-14538
▁nɔkɔ	-14539
▁nɛmɛ	-14540
▁nɛna	-14541
▁omɛr	-14542
▁ooun	-14543
▁peli	-14544
▁pour	-14545
▁poyo	-14546
▁pɔɔl	-14547
▁rang	-14548
▁room	-14549
▁rtun	-14550
▁samo	-14551
▁sien	-14552
▁sikɑ	-14553
▁sirf	-14554
▁snsd	-14555
▁tabi	-14556
▁tatɔ	-14557
▁tebe	-14558
▁teko	-14559
▁tell	-14560
▁teni	-14561
▁tisa	-14562
▁tixi	-14563
▁toen	-14564
▁tonw	-14565
▁toru	-14566
▁tres	-14567
▁tubu	-14568
▁verb	-14569
▁warɛ	-14570
▁waxi	-14571
▁woow	-14572
▁xɔlɔ	-14573
▁yali	-14574
▁yela	-14575
▁yena	-14576
▁yenɔ	-14577
▁ying	-14578
▁yiya	-14579
▁yubi	-14580
▁yuso	-14581
▁yêrê	-14582
▁zaga	-14583
▁zana	-14584
▁òmɛɛ	-14585
▁önce	-14586
▁ɲenŋ	-14587
▁ɲinw	-14588
▁ɲiŋɛ	-14589
▁ɲugu	-14590
▁ɲɛji	-14591
!!!!!!	-14592
bɔbaga	-14593
fɛlɛgɛ	-14594
jagara	-14595
jehova	-14596
kawani	-14597
kilima	-14598
lafana	-14599
mousso	-14600
ninnge	-14601
sabati	-14602
sident	-14603
toober	-14604
walisa	-14605
walolu	-14606
xojida	-14607
zɛfite	-14608
▁adari	-14609
▁akiko	-14610
▁alugu	-14611
▁amati	-14612
▁amidu	-14613
▁amoni	-14614
▁angui	-14615
▁anima	-14616
▁aniye	-14617
▁ankhi	-14618
▁arrow	-14619
▁arufa	-14620
▁asked	-14621
▁banxi	-14622
▁baran	-14623
▁basan	-14624
▁bianu	-14625
▁binna	-14626
▁blooo	-14627
▁bonna	-14628
▁bɛŋkɛ	-14629
▁chama	-14630
▁david	-14631
▁denai	-14632
▁difuɛ	-14633
▁djago	-14634
▁djogo	-14635
▁dunli	-14636
▁duɑri	-14637
▁dɛnna	-14638
▁ekuma	-14639
▁encik	-14640
▁esayi	-14641
▁farah	-14642
▁fared	-14643
▁fasaw	-14644
▁filed	-14645
▁gbere	-14646
▁geema	-14647
▁gerua	-14648
▁gnein	-14649
▁gɛrɛn	-14650
▁honey	-14651
▁iijit	-14652
▁input	-14653
▁jamaw	-14654
▁janya	-14655
▁jodoh	-14656
▁kafan	-14657
▁kafoo	-14658
▁kafow	-14659
▁kalon	-14660
▁kanki	-14661
▁kantu	-14662
▁kasan	-14663
▁kayei	-14664
▁kayin	-14665
▁kemuw	-14666
▁kiije	-14667
▁kiisī	-14668
▁kiite	-14669
▁kiken	-14670
▁kisah	-14671
▁kisse	-14672
▁kitab	-14673
▁kokan	-14674
▁koori	-14675
▁koula	-14676
▁kpiri	-14677
▁kufri	-14678
▁kunan	-14679
▁kètaw	-14680
▁kɔsɔn	-14681
▁kɔ̃sɑ	-14682
▁kɛwan	-14683
▁ladoo	-14684
▁lataa	-14685
▁latɛn	-14686
▁lɔgɔw	-14687
▁maaka	-14688
▁maldi	-14689
▁mensi	-14690
▁mentu	-14691
▁miniw	-14692
▁mosam	-14693
▁motor	-14694
▁moyen	-14695
▁mɔnna	-14696
▁nadie	-14697
▁nguan	-14698
▁niimɛ	-14699
▁ninth	-14700
▁njara	-14701
▁nouvo	-14702
▁nsiii	-14703
▁nufɔm	-14704
▁numun	-14705
▁nunun	-14706
▁porta	-14707
▁puasa	-14708
▁radio	-14709
▁riots	-14710
▁sabun	-14711
▁sanki	-14712
▁seede	-14713
▁slain	-14714
▁still	-14715
▁sukan	-14716
▁suumɔ	-14717
▁sɔxɔn	-14718
▁tintɔ	-14719
▁todas	-14720
▁tondi	-14721
▁train	-14722
▁téssé	-14723
▁under	-14724
▁willi	-14725
▁woodɑ	-14726
▁wɔnna	-14727
▁yaaye	-14728
▁yanwi	-14729
▁yiali	-14730
▁yigin	-14731
▁yokan	-14732
▁yoori	-14733
▁yours	-14734
▁yɛlɛn	-14735
▁zaban	-14736
▁zirga	-14737
▁ŋuuri	-14738
▁ɛlina	-14739
▁ɲɛɛri	-14740
anistan	-14741
cɛnninw	-14742
dafiriw	-14743
etiyopi	-14744
masakɛw	-14745
mptible	-14746
nɔgɔnin	-14747
▁arouud	-14748
▁atadei	-14749
▁baruki	-14750
▁brazil	-14751
▁casual	-14752
▁dakili	-14753
▁dalila	-14754
▁dimiya	-14755
▁dɛkuru	-14756
▁follow	-14757
▁fɔnsɔn	-14758
▁galasi	-14759
▁galili	-14760
▁gbeeni	-14761
▁google	-14762
▁hakɛya	-14763
▁haseen	-14764
▁inglés	-14765
▁jurdda	-14766
▁jɔnilu	-14767
▁jɛnɛya	-14768
▁kahwin	-14769
▁kajolo	-14770
▁karama	-14771
▁karoge	-14772
▁karoon	-14773
▁kasike	-14774
▁kataga	-14775
▁kisila	-14776
▁kodaga	-14777
▁koosia	-14778
▁kèmèsi	-14779
▁kòròbò	-14780
▁kôgôji	-14781
▁kɔgɔra	-14782
▁ladira	-14783
▁lalaki	-14784
▁lamɛri	-14785
▁lasòmi	-14786
▁magaya	-14787
▁masaze	-14788
▁masina	-14789
▁mayiga	-14790
▁medana	-14791
▁misali	-14792
▁misènw	-14793
▁musoya	-14794
▁mɔmuso	-14795
▁nasrun	-14796
▁nimɔrɔ	-14797
▁numbri	-14798
▁nunugu	-14799
▁nɛreba	-14800
▁orange	-14801
▁osufuɛ	-14802
▁panpan	-14803
▁saaman	-14804
▁sahara	-14805
▁samjhe	-14806
▁sapana	-14807
▁sawura	-14808
▁segitɔ	-14809
▁shishi	-14810
▁siisir	-14811
▁siɲaga	-14812
▁sontha	-14813
▁soudan	-14814
▁subaga	-14815
▁sumaya	-14816
▁sunògò	-14817
▁sɔmɔbu	-14818
▁sɔ̃ɔwɔ	-14819
▁sɛsɛsɛ	-14820
▁tamaki	-14821
▁tchèma	-14822
▁timini	-14823
▁tiukee	-14824
▁tolila	-14825
▁tɔntɔn	-14826
▁tɔrɔxi	-14827
▁vidiya	-14828
▁walayi	-14829
▁wayasi	-14830
▁weeknd	-14831
▁wilitɔ	-14832
▁winter	-14833
▁wuswɑɑ	-14834
▁yalige	-14835
▁yiraka	-14836
▁yiritu	-14837
▁zɛnɛzi	-14838
▁ɲanman	-14839
fɔlɔfɔlɔ	-14840
ggiatura	-14841
hɛrɛɲini	-14842
kɛlɛdenw	-14843
ligieuse	-14844
maridose	-14845
▁aduunyo	-14846
▁akilito	-14847
▁aningko	-14848
▁batakiw	-14849
▁biduuru	-14850
▁bonheur	-14851
▁current	-14852
▁debaser	-14853
▁deewana	-14854
▁dunruya	-14855
▁enfants	-14856
▁feerela	-14857
▁filemɔn	-14858
▁filinin	-14859
▁gwɛlɛba	-14860
▁janeiro	-14861
▁jatiden	-14862
▁kalanko	-14863
▁kokkara	-14864
▁kpagedo	-14865
▁kpelewa	-14866
▁kuraman	-14867
▁kòkanna	-14868
▁kônondô	-14869
▁kɛnɛkɛ̄	-14870
▁lagwɛli	-14871
▁lakodɔn	-14872
▁mandjou	-14873
▁minutes	-14874
▁musoolu	-14875
▁môgôhou	-14876
▁mɔbiliw	-14877
▁nombres	-14878
▁nugunin	-14879
▁nɔrɔbun	-14880
▁nɔrɔnin	-14881
▁olougou	-14882
▁periziw	-14883
▁probado	-14884
▁rabeɲin	-14885
▁samasen	-14886
▁sefɛɛrɛ	-14887
▁silence	-14888
▁sorasiw	-14889
▁stefana	-14890
▁therfor	-14891
▁tigɛnin	-14892
▁tilekun	-14893
▁tòòròla	-14894
▁woronin	-14895
▁wuswaaɔ	-14896
▁yawutuu	-14897
▁yigisan	-14898
▁yɑ̃kuru	-14899
▁zaburuw	-14900
▁zebuziw	-14901
▁ŋunanna	-14902
▁ɲanafin	-14903
▁ɲèbòfèn	-14904
abimelɛki	-14905
cɛnbaambɛ	-14906
▁abraamun	-14907
▁baadomma	-14908
▁banakisɛ	-14909
▁banamini	-14910
▁barikala	-14911
▁building	-14912
▁bungalow	-14913
▁dakabana	-14914
▁datugura	-14915
▁dewasaan	-14916
▁dilannin	-14917
▁dugukura	-14918
▁dugulenw	-14919
▁dugutila	-14920
▁dumunikɛ	-14921
▁entiendo	-14922
▁faganinw	-14923
▁fɛsitusi	-14924
▁gabayɛli	-14925
▁jususuma	-14926
▁kewalolu	-14927
▁kumadenw	-14928
▁kunndɛli	-14929
▁kununlen	-14930
▁kɛnɛsigi	-14931
▁labatola	-14932
▁lankolon	-14933
▁lasebaga	-14934
▁liberiya	-14935
▁lɔyɔrɔba	-14936
▁minèbaaw	-14937
▁misikuru	-14938
▁necesito	-14939
▁nikodɛmu	-14940
▁pankurun	-14941
▁piramidi	-14942
▁senegali	-14943
▁sirannen	-14944
▁sɔgɔnanw	-14945
▁sɔ̃ɔsimɔ	-14946
▁taayɔrɔw	-14947
▁tasumaba	-14948
▁tchanman	-14949
▁tewofili	-14950
▁tɛmɛyɔrɔ	-14951
▁wolobaga	-14952
▁woloèula	-14953
▁yirannin	-14954
▁yirikɛnɛ	-14955
▁yomiyɛlɛ	-14956
▁ɛlinatan	-14957
▁ɛrɛzɛnji	-14958
▁ɲagwantɔ	-14959
▁arukawani	-14960
▁balawufɛn	-14961
▁balimancɛ	-14962
▁caribbean	-14963
▁djougouya	-14964
▁fɛnɲumanw	-14965
▁hankilima	-14966
▁hindustan	-14967
▁jenniferr	-14968
▁jigintuma	-14969
▁kilomètri	-14970
▁kumakanba	-14971
▁kunnadiya	-14972
▁kunndɛman	-14973
▁kɔnɔnɔban	-14974
▁librarian	-14975
▁mandenkan	-14976
▁marabagaw	-14977
▁mɔgɔfariw	-14978
▁nyinngali	-14979
▁questions	-14980
▁siguiyôrô	-14981
▁sɔnjuguya	-14982
▁wɔrɔnwula	-14983
▁xooxojida	-14984
▁yarijɛndɛ	-14985
▁yiigelitɔ	-14986
▁yiribabaw	-14987
▁yɔrɔsurun	-14988
▁yɛlɛyɛlɛn	-14989
▁ŋaniyakow	-14990
lɔnniyakuma	-14991
▁bakɔrɔninw	-14992
▁barokɛcogo	-14993
▁belezebuli	-14994
▁bolibagatɔ	-14995
▁cɛncɛnkisɛ	-14996
▁cɛnimusoko	-14997
▁daminɛyɔrɔ	-14998
▁gnongonnan	-14999
▁gɛrɛfɛmuso	-15000
▁isireliban	-15001
▁kalaapiire	-15002
▁kodagabali	-15003
▁koyinkɛilu	-15004
▁kɔrɔfɔbaga	-15005
▁kɛlɛkɛfani	-15006
▁musokɔnɔma	-15007
▁musomaninw	-15008
▁mɔgɔkolonw	-15009
▁namarakuma	-15010
▁navigatɛri	-15011
▁nyiningali	-15012
▁olivuyiriw	-15013
▁petersburg	-15014
▁sebagayaba	-15015
▁sumanladon	-15016
▁teriɲumanw	-15017
▁tilelafana	-15018
▁yugitoober	-15019
▁baarakɛlonw	-15020
▁jamanaɲuman	-15021
▁kunkɔrɔtako	-15022
▁miiriyajugu	-15023
▁sunguruninw	-15024
▁yɔrɔcɛnninw	-15025
dagadilanbaga	-15026
hɛrɛɲinibagaw	-15027
▁contemptible	-15028
▁dɔgɔcɛfitini	-15029
▁fangadafiriw	-15030
▁kanbelenninw	-15031
▁manamanacogo	-15032
▁mobilibolila	-15033
▁dugukoloɲuman	-15034
▁dugutagaminan	-15035
▁kɛnɛkɛnɛbaliw	-15036
▁nɛrɛmugulaman	-15037
▁sagagbɛnbagaw	-15038
▁sceneggiatura	-15039
▁alɛkisandiriba	-15040
▁lajiginnimusow	-15041
▁alaɲasiranbaliw	-15042
"-	-15043
):	-15044
ml	-15045
om	-15046
ɣa	-15047
?!?	-15048
ane	-15049
ano	-15050
asi	-15051
buk	-15052
cou	-15053
dai	-15054
dik	-15055
ein	-15056
eus	-15057
flè	-15058
fɔr	-15059
gah	-15060
gie	-15061
gnô	-15062
gén	-15063
had	-15064
him	-15065
hio	-15066
jee	-15067
kak	-15068
kew	-15069
kis	-15070
llo	-15071
lud	-15072
mek	-15073
ndɛ	-15074
ned	-15075
ngɛ	-15076
osi	-15077
pie	-15078
pua	-15079
rdo	-15080
ruw	-15081
sip	-15082
sɔɛ	-15083
tir	-15084
tol	-15085
toy	-15086
tur	-15087
val	-15088
wak	-15089
yah	-15090
yik	-15091
yôn	-15092
zie	-15093
zon	-15094
zɔs	-15095
êlê	-15096
ŋmu	-15097
ɔki	-15098
ɔɔ̄	-15099
▁bs	-15100
▁cd	-15101
▁dd	-15102
▁dy	-15103
▁dō	-15104
▁hé	-15105
▁hō	-15106
▁ip	-15107
▁mb	-15108
▁mj	-15109
▁pn	-15110
▁tl	-15111
▁ts	-15112
▁ui	-15113
▁yî	-15114
▁¿¿	-15115
▁ɛl	-15116
▁ɡi	-15117
...'	-15118
baar	-15119
baki	-15120
bane	-15121
biti	-15122
bora	-15123
chel	-15124
cher	-15125
dénw	-15126
dɔdi	-15127
dɛya	-15128
eniw	-15129
finw	-15130
fore	-15131
gafe	-15132
giru	-15133
jaga	-15134
juvo	-15135
kabi	-15136
kang	-15137
kani	-15138
kasa	-15139
kime	-15140
kula	-15141
kuwo	-15142
kuyu	-15143
lagi	-15144
lung	-15145
malu	-15146
moon	-15147
mɛsi	-15148
nama	-15149
niko	-15150
ohun	-15151
rusɑ	-15152
saka	-15153
saye	-15154
stam	-15155
stri	-15156
suru	-15157
syuu	-15158
tòla	-15159
woro	-15160
zaki	-15161
ùman	-15162
ɑsiɑ	-15163
ɔɔra	-15164
ɛnɛn	-15165
▁aar	-15166
▁abo	-15167
▁akè	-15168
▁bmw	-15169
▁bos	-15170
▁bwo	-15171
▁bɛr	-15172
▁cré	-15173
▁deg	-15174
▁dew	-15175
▁djé	-15176
▁dor	-15177
▁dry	-15178
▁dui	-15179
▁eja	-15180
▁ekɛ	-15181
▁emo	-15182
▁eol	-15183
▁ewo	-15184
▁fam	-15185
▁fei	-15186
▁gai	-15187
▁git	-15188
▁hay	-15189
▁ifa	-15190
▁ite	-15191
▁iyo	-15192
▁jfo	-15193
▁jhe	-15194
▁jia	-15195
▁jij	-15196
▁jra	-15197
▁khi	-15198
▁kna	-15199
▁knp	-15200
▁kuk	-15201
▁kwɛ	-15202
▁kɛ́	-15203
▁lma	-15204
▁mix	-15205
▁mɔr	-15206
▁neo	-15207
▁nic	-15208
▁ntɛ	-15209
▁nwa	-15210
▁nɔm	-15211
▁nɔ̄	-15212
▁ode	-15213
▁okɛ	-15214
▁oru	-15215
▁oyo	-15216
▁rtf	-15217
▁sae	-15218
▁sit	-15219
▁sue	-15220
▁sug	-15221
▁sén	-15222
▁tuh	-15223
▁tuk	-15224
▁tyr	-15225
▁tze	-15226
▁udu	-15227
▁ufl	-15228
▁ung	-15229
▁uti	-15230
▁vɛn	-15231
▁wag	-15232
▁wak	-15233
▁weh	-15234
▁wɔɔ	-15235
▁zhɛ	-15236
▁ɲyɛ	-15237
ctifi	-15238
galon	-15239
hsinw	-15240
jalan	-15241
jarah	-15242
karta	-15243
lonna	-15244
manaw	-15245
mouni	-15246
ngana	-15247
onime	-15248
rande	-15249
saana	-15250
siman	-15251
talen	-15252
tanla	-15253
tchen	-15254
thren	-15255
tonin	-15256
umani	-15257
vería	-15258
yeele	-15259
yɛɛri	-15260
ògòma	-15261
ŋgɛlɛ	-15262
ŋmuyɔ	-15263
ɛndun	-15264
ɲɔxun	-15265
▁aank	-15266
▁adey	-15267
▁adna	-15268
▁afgh	-15269
▁akha	-15270
▁alim	-15271
▁aneh	-15272
▁aneɛ	-15273
▁ankh	-15274
▁anto	-15275
▁anun	-15276
▁anuā	-15277
▁apih	-15278
▁baad	-15279
▁bahɛ	-15280
▁bebe	-15281
▁beto	-15282
▁biro	-15283
▁biyo	-15284
▁boun	-15285
▁brea	-15286
▁bôli	-15287
▁bɔxi	-15288
▁cali	-15289
▁chal	-15290
▁cogi	-15291
▁coko	-15292
▁cour	-15293
▁cɛka	-15294
▁dard	-15295
▁dekɛ	-15296
▁dino	-15297
▁dore	-15298
▁doro	-15299
▁dudu	-15300
▁dɑbi	-15301
▁dɔcɔ	-15302
▁dɔre	-15303
▁dɔxi	-15304
▁eeeh	-15305
▁ekɛɛ	-15306
▁ella	-15307
▁este	-15308
▁fabi	-15309
▁fang	-15310
▁fanu	-15311
▁filo	-15312
▁fira	-15313
▁fixa	-15314
[...]
