<unk>	0
<s>	0
</s>	0
▁d	-0
▁l	-1
es	-2
▁p	-3
en	-4
ou	-5
▁c	-6
▁s	-7
on	-8
ai	-9
qu	-10
▁a	-11
▁de	-12
re	-13
▁m	-14
▁qu	-15
il	-16
▁n	-17
an	-18
▁j	-19
er	-20
▁t	-21
eu	-22
▁v	-23
▁pa	-24
ent	-25
et	-26
is	-27
est	-28
▁f	-29
▁la	-30
▁le	-31
it	-32
ous	-33
un	-34
▁et	-35
le	-36
our	-37
oi	-38
▁il	-39
el	-40
▁pas	-41
▁à	-42
om	-43
▁en	-44
us	-45
▁les	-46
ait	-47
▁un	-48
▁que	-49
ais	-50
▁r	-51
▁je	-52
me	-53
or	-54
in	-55
ét	-56
▁"	-57
ant	-58
▁b	-59
ont	-60
ar	-61
ce	-62
eur	-63
au	-64
▁est	-65
▁vous	-66
em	-67
▁ne	-68
▁au	-69
at	-70
▁par	-71
▁pour	-72
ion	-73
▁ce	-74
és	-75
▁pr	-76
ui	-77
..	-78
▁qui	-79
ve	-80
te	-81
ans	-82
▁des	-83
▁?	-84
▁su	-85
▁di	-86
▁dans	-87
▁se	-88
tre	-89
▁ch	-90
onn	-91
ch	-92
▁com	-93
▁pl	-94
▁g	-95
▁du	-96
elle	-97
▁ét	-98
res	-99
▁tr	-100
ien	-101
▁tou	-102
ain	-103
se	-104
▁une	-105
av	-106
ie	-107
▁nous	-108
▁h	-109
eux	-110
end	-111
▁re	-112
al	-113
ment	-114
ère	-115
▁mais	-116
ag	-117
de	-118
ons	-119
ir	-120
pr	-121
ée	-122
ér	-123
▁plus	-124
am	-125
as	-126
ois	-127
ils	-128
▁dieu	-129
▁lui	-130
éc	-131
ig	-132
▁tout	-133
les	-134
os	-135
ers	-136
ac	-137
ort	-138
▁tu	-139
▁av	-140
si	-141
▁sont	-142
▁mon	-143
...	-144
▁an	-145
and	-146
aire	-147
▁ave	-148
▁fait	-149
▁ils	-150
ab	-151
▁dit	-152
ap	-153
ation	-154
ouv	-155
▁sur	-156
▁moi	-157
▁jour	-158
▁y	-159
ff	-160
▁ré	-161
im	-162
▁peu	-163
que	-164
iv	-165
▁cel	-166
ement	-167
ci	-168
▁son	-169
ra	-170
ut	-171
▁sa	-172
ès	-173
▁avec	-174
▁!	-175
ign	-176
oir	-177
mes	-178
▁ai	-179
être	-180
oy	-181
▁dis	-182
▁suis	-183
▁pro	-184
ité	-185
▁e	-186
aient	-187
omme	-188
ct	-189
▁comme	-190
ésus	-191
▁al	-192
▁dé	-193
▁jésus	-194
▁elle	-195
ez	-196
▁ou	-197
ol	-198
▁cr	-199
."	-200
ang	-201
▁faire	-202
▁été	-203
oit	-204
▁leur	-205
ême	-206
jour	-207
▁si	-208
▁ser	-209
▁tous	-210
emp	-211
▁é	-212
▁o	-213
▁gr	-214
ist	-215
aut	-216
ur	-217
ille	-218
id	-219
ors	-220
ants	-221
ance	-222
▁-	-223
ne	-224
êt	-225
▁bien	-226
ier	-227
▁aus	-228
ic	-229
▁con	-230
uis	-231
▁fils	-232
ux	-233
oin	-234
▁aussi	-235
onne	-236
était	-237
eau	-238
age	-239
▁in	-240
▁ans	-241
▁ent	-242
▁enf	-243
ul	-244
▁me	-245
▁ap	-246
▁car	-247
▁cet	-248
▁quel	-249
▁fr	-250
▁père	-251
ens	-252
uit	-253
une	-254
ue	-255
▁ont	-256
▁était	-257
▁ses	-258
▁on	-259
ale	-260
▁nom	-261
ess	-262
▁cela	-263
▁être	-264
▁monde	-265
▁peut	-266
▁même	-267
▁pers	-268
eurs	-269
ore	-270
oup	-271
ommes	-272
che	-273
vez	-274
▁donn	-275
▁fem	-276
▁part	-277
ri	-278
▁jus	-279
igneur	-280
ad	-281
hui	-282
ill	-283
jourd	-284
▁ar	-285
▁mar	-286
▁dev	-287
bre	-288
rent	-289
▁seigneur	-290
ure	-291
erre	-292
vous	-293
▁vie	-294
▁mort	-295
▁cette	-296
ions	-297
ot	-298
▁avait	-299
homme	-300
ail	-301
ord	-302
▁aux	-303
ert	-304
ées	-305
onc	-306
imp	-307
▁aujourd	-308
▁ma	-309
otre	-310
▁ex	-311
app	-312
endre	-313
▁dem	-314
▁temp	-315
▁cont	-316
rist	-317
quoi	-318
▁enfants	-319
ern	-320
um	-321
▁celui	-322
aint	-323
▁deux	-324
ière	-325
ond	-326
▁enc	-327
rai	-328
▁rép	-329
▁es	-330
▁env	-331
bl	-332
if	-333
▁aut	-334
ex	-335
▁comm	-336
ph	-337
▁pourquoi	-338
▁seu	-339
éd	-340
out	-341
▁alors	-342
ble	-343
▁ceux	-344
▁encore	-345
pl	-346
près	-347
▁oui	-348
int	-349
▁as	-350
eure	-351
▁femme	-352
én	-353
iens	-354
ça	-355
oire	-356
ard	-357
ient	-358
▁puis	-359
tr	-360
ères	-361
▁très	-362
ique	-363
▁homme	-364
▁toi	-365
▁non	-366
▁où	-367
▁conn	-368
ose	-369
▁jours	-370
▁déc	-371
pt	-372
êtes	-373
isra	-374
ole	-375
cc	-376
él	-377
▁rien	-378
endant	-379
ass	-380
elles	-381
▁cons	-382
prit	-383
▁donc	-384
iss	-385
ite	-386
ge	-387
née	-388
▁ces	-389
▁vrai	-390
ler	-391
▁ça	-392
ël	-393
▁app	-394
▁grand	-395
▁pass	-396
ouve	-397
▁beau	-398
ence	-399
▁temps	-400
ieux	-401
▁éc	-402
▁ca	-403
▁dire	-404
entre	-405
ise	-406
▁maison	-407
enir	-408
aiss	-409
èrent	-410
op	-411
ép	-412
▁peur	-413
▁jusqu	-414
▁ju	-415
▁trois	-416
ég	-417
▁roi	-418
▁terre	-419
▁vér	-420
rit	-421
able	-422
▁am	-423
ques	-424
▁sav	-425
▁eu	-426
▁pos	-427
orm	-428
israël	-429
riv	-430
▁trav	-431
▁êtes	-432
▁li	-433
▁comment	-434
ande	-435
▁parce	-436
ah	-437
ile	-438
▁mes	-439
aime	-440
▁fois	-441
ém	-442
▁rest	-443
ine	-444
acc	-445
▁là	-446
ains	-447
▁jam	-448
▁christ	-449
▁mal	-450
ys	-451
▁eux	-452
era	-453
ème	-454
▁autres	-455
oul	-456
éch	-457
▁mat	-458
▁soit	-459
coup	-460
▁ni	-461
▁sommes	-462
▁beaucoup	-463
ôt	-464
▁toute	-465
jours	-466
ob	-467
▁quand	-468
▁aim	-469
▁toujours	-470
ces	-471
aux	-472
▁per	-473
▁ville	-474
ction	-475
▁mont	-476
▁jamais	-477
▁voi	-478
ations	-479
▁vérité	-480
ainsi	-481
orte	-482
ace	-483
▁pre	-484
▁sais	-485
autre	-486
▁lors	-487
▁ainsi	-488
▁eff	-489
▁personne	-490
▁sera	-491
▁sau	-492
je	-493
autres	-494
▁bon	-495
▁sou	-496
▁ret	-497
▁all	-498
esp	-499
▁notre	-500
aî	-501
▁at	-502
ents	-503
cip	-504
fin	-505
enant	-506
▁faut	-507
▁pouv	-508
▁personn	-509
▁vers	-510
di	-511
▁fais	-512
▁travail	-513
aim	-514
▁veux	-515
▁roy	-516
▁mère	-517
▁ég	-518
enu	-519
att	-520
use	-521
▁hommes	-522
esprit	-523
▁mang	-524
ense	-525
▁toutes	-526
ins	-527
▁mo	-528
▁leurs	-529
▁conf	-530
alement	-531
▁comp	-532
▁seul	-533
ré	-534
▁peux	-535
même	-536
▁te	-537
▁pris	-538
vent	-539
▁quoi	-540
▁trouv	-541
oses	-542
tu	-543
art	-544
▁entre	-545
ay	-546
▁choses	-547
étais	-548
▁nouve	-549
aume	-550
▁ph	-551
▁jeu	-552
▁après	-553
▁prem	-554
▁pays	-555
avais	-556
▁répond	-557
▁arriv	-558
iel	-559
▁fin	-560
▁jér	-561
vit	-562
là	-563
all	-564
▁maint	-565
ête	-566
▁parole	-567
œur	-568
ié	-569
rait	-570
▁prés	-571
▁royaume	-572
▁afin	-573
og	-574
rez	-575
▁demand	-576
▁dés	-577
cher	-578
▁bonne	-579
tes	-580
▁cor	-581
▁[	-582
▁donné	-583
ivre	-584
▁pet	-585
▁fut	-586
itu	-587
▁peup	-588
▁man	-589
oint	-590
▁diff	-591
▁fam	-592
iez	-593
endu	-594
▁mois	-595
enc	-596
aine	-597
puis	-598
▁ab	-599
yp	-600
▁vu	-601
▁bes	-602
▁vraiment	-603
▁frères	-604
▁va	-605
ress	-606
avez	-607
▁sour	-608
▁cert	-609
▁ton	-610
▁besoin	-611
▁avez	-612
▁votre	-613
▁nouveau	-614
▁acc	-615
▁nombre	-616
enf	-617
jet	-618
ante	-619
▁ad	-620
▁étaient	-621
▁cas	-622
▁gens	-623
▁pendant	-624
▁att	-625
iste	-626
gn	-627
▁maintenant	-628
uv	-629
▁quest	-630
iers	-631
pos	-632
ernel	-633
oute	-634
ages	-635
ente	-636
▁mis	-637
▁saint	-638
▁personnes	-639
▁avons	-640
▁rem	-641
▁contre	-642
▁sans	-643
▁chose	-644
▁loi	-645
avait	-646
alem	-647
usalem	-648
ire	-649
▁rev	-650
▁cour	-651
▁envoy	-652
▁avoir	-653
▁auc	-654
▁jérusalem	-655
▁moin	-656
arg	-657
▁depuis	-658
▁appr	-659
lement	-660
fs	-661
▁peuple	-662
▁point	-663
▁compr	-664
▁déb	-665
▁dav	-666
▁cré	-667
▁sort	-668
▁che	-669
illes	-670
▁gl	-671
év	-672
▁rés	-673
irent	-674
amour	-675
▁sauv	-676
are	-677
ice	-678
roit	-679
▁journée	-680
ter	-681
▁moins	-682
▁dét	-683
▁autre	-684
▁gu	-685
ième	-686
▁nouv	-687
oc	-688
agn	-689
ong	-690
appr	-691
▁heure	-692
ici	-693
éri	-694
▁matin	-695
▁mari	-696
oyez	-697
▁retour	-698
▁met	-699
▁br	-700
▁nuit	-701
lé	-702
▁elles	-703
▁pai	-704
▁ciel	-705
▁or	-706
▁chez	-707
▁voul	-708
▁simp	-709
tant	-710
▁appel	-711
▁pu	-712
rais	-713
act	-714
▁im	-715
▁foi	-716
▁proph	-717
▁rec	-718
▁petit	-719
▁imp	-720
▁sui	-721
ements	-722
▁discip	-723
▁aime	-724
▁voir	-725
▁chem	-726
▁."	-727
▁quelqu	-728
eures	-729
ing	-730
▁reg	-731
▁paix	-732
▁sem	-733
ect	-734
▁passé	-735
▁avant	-736
▁vais	-737
▁lang	-738
▁sign	-739
cl	-740
▁ann	-741
iance	-742
▁fer	-743
▁mer	-744
▁chemin	-745
ète	-746
▁également	-747
▁veu	-748
▁sal	-749
▁col	-750
▁david	-751
▁péch	-752
christ	-753
▁enfant	-754
▁effet	-755
▁rel	-756
sez	-757
▁début	-758
▁for	-759
ffr	-760
▁uns	-761
▁k	-762
▁disciples	-763
▁fac	-764
▁rend	-765
▁cieux	-766
▁frère	-767
▁pens	-768
▁livre	-769
▁long	-770
▁cond	-771
▁savez	-772
▁â	-773
▁doit	-774
▁ass	-775
argent	-776
agit	-777
▁envoyé	-778
▁souv	-779
ult	-780
▁coup	-781
▁soi	-782
▁viv	-783
ps	-784
▁famille	-785
▁min	-786
▁connaiss	-787
▁jui	-788
ov	-789
anc	-790
▁déj	-791
▁cher	-792
▁manger	-793
omb	-794
ïse	-795
▁écrit	-796
apt	-797
▁ter	-798
avoir	-799
ies	-800
ypte	-801
▁voit	-802
▁moïse	-803
▁.	-804
omp	-805
▁devant	-806
▁grande	-807
oie	-808
▁prêt	-809
iqu	-810
▁fille	-811
oles	-812
▁femmes	-813
util	-814
▁sept	-815
▁donne	-816
lez	-817
▁nouvelle	-818
arde	-819
▁vis	-820
▁suiv	-821
▁cause	-822
▁der	-823
och	-824
▁fa	-825
▁déjà	-826
▁question	-827
▁heures	-828
ition	-829
nes	-830
▁cl	-831
▁heureux	-832
▁hum	-833
ellement	-834
▁venu	-835
sible	-836
▁morts	-837
▁confiance	-838
aires	-839
▁cœur	-840
▁mour	-841
ieu	-842
enez	-843
▁ép	-844
▁donner	-845
çon	-846
aill	-847
ompl	-848
▁lorsque	-849
▁pense	-850
▁auprès	-851
▁puiss	-852
▁port	-853
ach	-854
▁cha	-855
▁entendu	-856
éh	-857
agne	-858
▁simple	-859
▁ob	-860
▁parler	-861
▁nos	-862
ues	-863
bres	-864
▁vol	-865
up	-866
iques	-867
pendant	-868
aines	-869
▁tém	-870
▁vi	-871
▁seulement	-872
aimer	-873
appel	-874
▁soir	-875
▁vient	-876
ible	-877
ats	-878
nent	-879
▁quelques	-880
▁act	-881
▁ress	-882
▁jean	-883
▁lieu	-884
env	-885
▁sy	-886
▁grâ	-887
▁présent	-888
▁gloire	-889
▁premier	-890
▁cependant	-891
▁droit	-892
aît	-893
▁jug	-894
▁quat	-895
ham	-896
▁cin	-897
▁différ	-898
ip	-899
....	-900
▁jeune	-901
▁voici	-902
ront	-903
▁ins	-904
urent	-905
▁jud	-906
ention	-907
▁dern	-908
▁sujet	-909
der	-910
uite	-911
▁ri	-912
iend	-913
▁corps	-914
▁peuvent	-915
▁comb	-916
▁mom	-917
avons	-918
▁juifs	-919
oins	-920
ienne	-921
▁sous	-922
iser	-923
ann	-924
▁perm	-925
▁lev	-926
▁co	-927
▁sup	-928
▁ens	-929
▁place	-930
▁quelque	-931
ieurs	-932
▁serv	-933
rive	-934
▁sec	-935
▁avaient	-936
exc	-937
▁dois	-938
aï	-939
▁facile	-940
▁plusieurs	-941
▁décl	-942
▁reç	-943
▁mot	-944
▁tour	-945
▁servit	-946
iment	-947
▁soyez	-948
▁ta	-949
th	-950
té	-951
ze	-952
▁maî	-953
ances	-954
▁hab	-955
▁lum	-956
ib	-957
▁bou	-958
▁conv	-959
▁command	-960
▁pier	-961
▁vos	-962
ell	-963
▁prof	-964
alité	-965
▁bapt	-966
form	-967
▁sac	-968
▁pourtant	-969
heure	-970
ités	-971
▁ici	-972
onse	-973
nous	-974
▁perd	-975
▁chaque	-976
moi	-977
raham	-978
▁laiss	-979
▁voy	-980
▁ag	-981
▁sel	-982
▁prendre	-983
▁prison	-984
od	-985
▁repr	-986
▁demande	-987
▁dép	-988
▁tomb	-989
ends	-990
▁desc	-991
aître	-992
▁pri	-993
▁moment	-994
▁savoir	-995
mi	-996
ches	-997
▁dou	-998
▁faites	-999
,"	-1000
▁ven	-1001
▁cap	-1002
▁parle	-1003
▁réponse	-1004
▁dont	-1005
arr	-1006
édi	-1007
▁eut	-1008
▁quatre	-1009
▁sol	-1010
▁sang	-1011
▁aucun	-1012
▁ense	-1013
▁suite	-1014
ges	-1015
▁selon	-1016
▁...	-1017
▁pou	-1018
▁bén	-1019
oign	-1020
éternel	-1021
onté	-1022
▁aura	-1023
▁aimé	-1024
êmes	-1025
▁esprit	-1026
uc	-1027
▁vou	-1028
▁dix	-1029
▁pard	-1030
▁fl	-1031
▁st	-1032
ables	-1033
▁sp	-1034
erv	-1035
▁div	-1036
▁resp	-1037
▁envie	-1038
▁possible	-1039
équ	-1040
▁fort	-1041
appelle	-1042
▁temple	-1043
▁just	-1044
lise	-1045
air	-1046
▁répondit	-1047
ché	-1048
▁enseign	-1049
▁prop	-1050
▁veut	-1051
▁trouve	-1052
ailleurs	-1053
▁grâce	-1054
veill	-1055
fait	-1056
▁font	-1057
▁train	-1058
eternel	-1059
▁seront	-1060
asse	-1061
embl	-1062
▁fou	-1063
▁pouvoir	-1064
▁rom	-1065
▁aucune	-1066
emble	-1067
▁parents	-1068
abord	-1069
▁sent	-1070
▁amis	-1071
▁mieux	-1072
▁aff	-1073
rer	-1074
ovah	-1075
▁mill	-1076
▁aller	-1077
▁commenc	-1078
ange	-1079
▁voiture	-1080
lev	-1081
occ	-1082
▁conc	-1083
▁reste	-1084
▁lumière	-1085
▁ouv	-1086
ateur	-1087
▁parmi	-1088
omm	-1089
▁guerre	-1090
▁joie	-1091
▁bible	-1092
▁venir	-1093
▁tard	-1094
▁lorsqu	-1095
rée	-1096
▁feu	-1097
▁parl	-1098
▁trop	-1099
accord	-1100
enfant	-1101
▁év	-1102
▁yeux	-1103
▁th	-1104
▁regard	-1105
▁paroles	-1106
▁?"	-1107
▁fit	-1108
▁main	-1109
cept	-1110
ingt	-1111
▁sœur	-1112
user	-1113
▁sait	-1114
▁ay	-1115
oil	-1116
dre	-1117
▁réc	-1118
riture	-1119
uvre	-1120
▁crois	-1121
isé	-1122
▁no	-1123
▁paul	-1124
▁prod	-1125
▁jéh	-1126
▁rég	-1127
▁façon	-1128
▁porte	-1129
▁chac	-1130
▁langue	-1131
ied	-1132
▁croy	-1133
▁prom	-1134
▁bl	-1135
ites	-1136
▁partout	-1137
▁signif	-1138
ève	-1139
▁cent	-1140
▁maître	-1141
▁loin	-1142
▁pierre	-1143
utes	-1144
els	-1145
▁jéhovah	-1146
▁jac	-1147
▁diffic	-1148
▁contin	-1149
▁prin	-1150
▁prophète	-1151
né	-1152
encont	-1153
uire	-1154
▁déf	-1155
uses	-1156
▁dém	-1157
▁disp	-1158
ath	-1159
▁juste	-1160
▁rais	-1161
▁dès	-1162
▁util	-1163
▁étern	-1164
nem	-1165
idé	-1166
▁sc	-1167
▁pied	-1168
▁bat	-1169
▁belle	-1170
▁préc	-1171
▁rendre	-1172
▁sourire	-1173
ience	-1174
▁certains	-1175
man	-1176
▁tant	-1177
▁celle	-1178
▁tête	-1179
▁entend	-1180
▁int	-1181
▁contr	-1182
éb	-1183
▁mettre	-1184
ures	-1185
▁compte	-1186
▁emp	-1187
▁pouvez	-1188
▁haut	-1189
▁mé	-1190
▁chef	-1191
▁chang	-1192
▁z	-1193
▁face	-1194
▁réf	-1195
inter	-1196
ût	-1197
ettre	-1198
où	-1199
!!	-1200
▁reconn	-1201
▁chacun	-1202
eg	-1203
min	-1204
▁passe	-1205
▁partie	-1206
▁israël	-1207
ade	-1208
▁minutes	-1209
▁inter	-1210
essay	-1211
aff	-1212
▁nour	-1213
oseph	-1214
amp	-1215
▁rencont	-1216
▁année	-1217
ner	-1218
▁furent	-1219
rif	-1220
▁trans	-1221
▁âg	-1222
▁vois	-1223
uvres	-1224
▁situ	-1225
▁phar	-1226
▁péché	-1227
▁vingt	-1228
gne	-1229
▁près	-1230
istoire	-1231
▁id	-1232
▁quels	-1233
▁él	-1234
ément	-1235
▁joseph	-1236
▁gén	-1237
▁habit	-1238
itude	-1239
▁première	-1240
▁six	-1241
▁trouvé	-1242
uve	-1243
▁jou	-1244
▁rep	-1245
enseign	-1246
ode	-1247
▁arrivé	-1248
ras	-1249
emps	-1250
▁aimez	-1251
▁soient	-1252
▁relig	-1253
▁dirent	-1254
▁france	-1255
érieur	-1256
âge	-1257
onné	-1258
▁montagne	-1259
▁nations	-1260
▁propos	-1261
▁sam	-1262
▁mess	-1263
▁aimer	-1264
▁commence	-1265
▁ac	-1266
▁ah	-1267
▁rap	-1268
▁cinq	-1269
accompl	-1270
▁partir	-1271
▁route	-1272
cev	-1273
ours	-1274
▁éternelle	-1275
qui	-1276
▁anc	-1277
▁questions	-1278
uits	-1279
▁volonté	-1280
pér	-1281
▁côt	-1282
▁retr	-1283
▁ref	-1284
▁justice	-1285
▁mau	-1286
▁prép	-1287
▁quelle	-1288
fois	-1289
▁voie	-1290
▁vue	-1291
ication	-1292
isation	-1293
▁constr	-1294
▁mourir	-1295
ât	-1296
temps	-1297
ette	-1298
▁w	-1299
ate	-1300
▁mil	-1301
▁rester	-1302
▁sû	-1303
éric	-1304
ression	-1305
emple	-1306
▁quit	-1307
▁em	-1308
▁prière	-1309
▁souff	-1310
▁serait	-1311
▁manière	-1312
▁fond	-1313
▁vin	-1314
▁parti	-1315
▁passer	-1316
▁déclar	-1317
rang	-1318
▁malad	-1319
▁années	-1320
▁quelles	-1321
▁né	-1322
▁gar	-1323
▁ord	-1324
▁commun	-1325
az	-1326
uction	-1327
usc	-1328
ager	-1329
année	-1330
▁œ	-1331
arriv	-1332
▁souffr	-1333
ution	-1334
cin	-1335
▁sacrif	-1336
▁trouver	-1337
esse	-1338
▁demandé	-1339
▁longtemps	-1340
arrive	-1341
▁probl	-1342
▁parlé	-1343
▁import	-1344
oci	-1345
hum	-1346
▁détr	-1347
▁seule	-1348
▁boire	-1349
oiss	-1350
▁nombreuses	-1351
▁disant	-1352
▁dél	-1353
▁anges	-1354
aide	-1355
jou	-1356
▁end	-1357
▁meill	-1358
▁off	-1359
▁lais	-1360
étaient	-1361
iés	-1362
ises	-1363
inc	-1364
ivers	-1365
▁sages	-1366
iennent	-1367
ime	-1368
▁liv	-1369
▁garde	-1370
▁lib	-1371
▁mains	-1372
resse	-1373
▁rév	-1374
aie	-1375
▁sat	-1376
▁jeunes	-1377
▁ensuite	-1378
▁voix	-1379
ène	-1380
abraham	-1381
▁inc	-1382
▁imm	-1383
▁phil	-1384
▁témoins	-1385
▁sens	-1386
abl	-1387
éf	-1388
ett	-1389
embre	-1390
▁pe	-1391
ature	-1392
onte	-1393
isés	-1394
vais	-1395
ètes	-1396
▁connu	-1397
▁:	-1398
▁puissance	-1399
▁pieds	-1400
▁commencé	-1401
ayez	-1402
eff	-1403
ira	-1404
lent	-1405
▁envir	-1406
▁art	-1407
▁merci	-1408
▁pourrait	-1409
oix	-1410
été	-1411
▁pain	-1412
▁conse	-1413
allah	-1414
▁char	-1415
issement	-1416
ières	-1417
▁ceci	-1418
occup	-1419
▁aimés	-1420
eté	-1421
▁recev	-1422
▁val	-1423
▁form	-1424
▁publ	-1425
▁sole	-1426
▁mauvais	-1427
▁sép	-1428
▁dorm	-1429
▁connais	-1430
one	-1431
▁rac	-1432
▁soleil	-1433
▁continu	-1434
▁serviteur	-1435
▁gal	-1436
ilité	-1437
▁savait	-1438
rib	-1439
itié	-1440
approch	-1441
▁prêtres	-1442
▁rue	-1443
▁petits	-1444
▁ennem	-1445
èv	-1446
ave	-1447
des	-1448
oubl	-1449
port	-1450
oqu	-1451
toi	-1452
▁rè	-1453
oque	-1454
oivent	-1455
pe	-1456
▁cru	-1457
▁croire	-1458
église	-1459
▁vivre	-1460
▁faisait	-1461
▁group	-1462
▁bar	-1463
écoute	-1464
▁foule	-1465
▁ind	-1466
▁perdu	-1467
▁existe	-1468
ets	-1469
▁!"	-1470
anté	-1471
▁disc	-1472
▁réjou	-1473
mêmes	-1474
▁réal	-1475
▁raison	-1476
▁can	-1477
▁reçu	-1478
▁lit	-1479
▁mir	-1480
▁villes	-1481
▁respect	-1482
antes	-1483
▁voud	-1484
▁serez	-1485
mée	-1486
assembl	-1487
▁sauver	-1488
▁signifie	-1489
▁commandement	-1490
▁ver	-1491
ments	-1492
▁vill	-1493
ices	-1494
▁mus	-1495
▁savons	-1496
▁vêt	-1497
▁plaît	-1498
▁gard	-1499
▁dév	-1500
▁accompl	-1501
ainte	-1502
aujourd	-1503
▁aider	-1504
après	-1505
espère	-1506
▁pol	-1507
aille	-1508
▁descend	-1509
▁mariage	-1510
▁propre	-1511
ide	-1512
heur	-1513
▁mille	-1514
urs	-1515
iendra	-1516
▁luc	-1517
▁juda	-1518
▁méde	-1519
▁chev	-1520
▁dernier	-1521
ia	-1522
ident	-1523
▁plut	-1524
ctif	-1525
érit	-1526
icle	-1527
rant	-1528
▁envers	-1529
ales	-1530
aron	-1531
▁proch	-1532
▁jacob	-1533
enus	-1534
▁devez	-1535
▁trait	-1536
unis	-1537
▁cherch	-1538
onner	-1539
▁prov	-1540
▁nombreux	-1541
▁prophètes	-1542
▁mise	-1543
hab	-1544
▁devait	-1545
êtres	-1546
▁côté	-1547
égypte	-1548
▁princip	-1549
▁connaissance	-1550
▁caf	-1551
ris	-1552
▁apport	-1553
▁connaître	-1554
uss	-1555
▁fil	-1556
aimerais	-1557
▁apprendre	-1558
▁voil	-1559
▁force	-1560
▁sourit	-1561
▁el	-1562
inform	-1563
▁exemple	-1564
▁compl	-1565
▁diman	-1566
▁is	-1567
entes	-1568
▁isra	-1569
▁rapp	-1570
▁serai	-1571
▁tes	-1572
isme	-1573
▁pat	-1574
▁pouvait	-1575
be	-1576
▁mots	-1577
▁marie	-1578
▁rapid	-1579
▁consid	-1580
▁plutôt	-1581
▁san	-1582
raient	-1583
▁libre	-1584
▁chr	-1585
▁sûr	-1586
▁milieu	-1587
▁regarde	-1588
▁mit	-1589
▁troisième	-1590
ige	-1591
▁sois	-1592
▁mirac	-1593
▁appelé	-1594
ines	-1595
▁arr	-1596
▁trad	-1597
ive	-1598
▁chefs	-1599
iles	-1600
▁bouche	-1601
▁disait	-1602
aign	-1603
▁sagesse	-1604
▁prend	-1605
aissance	-1606
▁ait	-1607
▁anim	-1608
▁nourriture	-1609
espoir	-1610
▁décéd	-1611
▁rempl	-1612
▁humains	-1613
eaux	-1614
igne	-1615
oche	-1616
▁fid	-1617
▁plais	-1618
▁milliers	-1619
▁rapidement	-1620
▁moy	-1621
▁ple	-1622
▁fête	-1623
▁meur	-1624
▁péchés	-1625
▁quant	-1626
▁pi	-1627
▁café	-1628
▁combat	-1629
▁compris	-1630
▁pop	-1631
issez	-1632
▁génér	-1633
▁prêtre	-1634
▁sortir	-1635
arer	-1636
onde	-1637
▁pauvres	-1638
?"	-1639
▁demander	-1640
▁disaient	-1641
ret	-1642
élé	-1643
▁prise	-1644
èle	-1645
▁tot	-1646
ellig	-1647
▁israél	-1648
▁don	-1649
avant	-1650
▁const	-1651
▁miséric	-1652
▁esp	-1653
▁ayant	-1654
▁écout	-1655
▁recher	-1656
▁ren	-1657
écess	-1658
excuser	-1659
▁doivent	-1660
▁semaine	-1661
▁cou	-1662
▁réveill	-1663
▁créé	-1664
▁colère	-1665
▁deuxième	-1666
▁ressusc	-1667
▁douze	-1668
org	-1669
▁dom	-1670
iter	-1671
▁vont	-1672
▁pharis	-1673
aud	-1674
▁eh	-1675
▁voulu	-1676
▁environ	-1677
euv	-1678
▁popul	-1679
▁dist	-1680
▁serviteurs	-1681
▁cours	-1682
▁dimanche	-1683
▁mod	-1684
▁fi	-1685
▁syn	-1686
▁riche	-1687
▁jo	-1688
▁certaines	-1689
▁devons	-1690
▁nécess	-1691
ouse	-1692
▁gouv	-1693
avenir	-1694
▁santé	-1695
▁voilà	-1696
obs	-1697
oss	-1698
ctions	-1699
▁médecin	-1700
itre	-1701
▁aide	-1702
▁aband	-1703
▁sembl	-1704
▁donnée	-1705
lais	-1706
honn	-1707
icul	-1708
▁fera	-1709
histoire	-1710
▁difficile	-1711
ari	-1712
yst	-1713
inqui	-1714
entrer	-1715
▁langues	-1716
▁parfait	-1717
ueil	-1718
▁aurait	-1719
▁gouvern	-1720
idi	-1721
avaient	-1722
▁bonheur	-1723
action	-1724
ences	-1725
▁faim	-1726
▁souh	-1727
▁essay	-1728
▁salut	-1729
▁retourn	-1730
▁chant	-1731
▁souhait	-1732
ordre	-1733
▁sin	-1734
▁bient	-1735
▁appris	-1736
▁témoign	-1737
▁pours	-1738
▁sœurs	-1739
▁dér	-1740
ision	-1741
angile	-1742
▁filles	-1743
▁revenir	-1744
▁pharisiens	-1745
ué	-1746
mais	-1747
▁poss	-1748
issent	-1749
▁appar	-1750
▁jugement	-1751
▁i	-1752
▁sach	-1753
▁retrouv	-1754
▁pourrais	-1755
▁grands	-1756
rir	-1757
▁vivant	-1758
▁bientôt	-1759
▁ensemble	-1760
▁situation	-1761
▁rois	-1762
issait	-1763
▁pouvons	-1764
▁mét	-1765
▁groupe	-1766
la	-1767
▁cal	-1768
▁sim	-1769
▁lève	-1770
▁trib	-1771
ompagn	-1772
▁honte	-1773
par	-1774
auté	-1775
▁méd	-1776
▁sorte	-1777
▁droite	-1778
▁tellement	-1779
istes	-1780
ateurs	-1781
▁étions	-1782
▁prochain	-1783
once	-1784
çons	-1785
estin	-1786
▁prat	-1787
▁chois	-1788
ivement	-1789
ital	-1790
aider	-1791
▁aaron	-1792
gr	-1793
▁allez	-1794
▁religion	-1795
▁étant	-1796
▁réve	-1797
▁malade	-1798
con	-1799
▁lég	-1800
▁chrét	-1801
▁ennemis	-1802
▁travers	-1803
▁ferai	-1804
▁certain	-1805
▁demeure	-1806
opp	-1807
eront	-1808
▁petite	-1809
qué	-1810
nement	-1811
▁mange	-1812
▁plaisir	-1813
▁fon	-1814
▁same	-1815
oût	-1816
éro	-1817
▁bout	-1818
▁désol	-1819
importe	-1820
mé	-1821
▁poiss	-1822
▁annonc	-1823
ièrement	-1824
▁ami	-1825
▁actes	-1826
▁entendre	-1827
▁matth	-1828
▁voudrais	-1829
emb	-1830
essus	-1831
ueill	-1832
urité	-1833
adress	-1834
aise	-1835
▁inf	-1836
▁vit	-1837
ession	-1838
rection	-1839
abb	-1840
arrêt	-1841
▁samar	-1842
agog	-1843
orts	-1844
egypte	-1845
ind	-1846
▁siè	-1847
▁abraham	-1848
prim	-1849
▁lou	-1850
▁dormir	-1851
▁gre	-1852
rière	-1853
▁proc	-1854
▁condam	-1855
▁étrang	-1856
▁matthieu	-1857
▁contraire	-1858
yr	-1859
euse	-1860
▁jet	-1861
▁arrive	-1862
▁saints	-1863
éré	-1864
èmes	-1865
▁exc	-1866
édiat	-1867
▁humain	-1868
▁somme	-1869
ouss	-1870
▁autant	-1871
▁samedi	-1872
▁combien	-1873
co	-1874
▁service	-1875
elligence	-1876
▁répondre	-1877
▁mêmes	-1878
▁poser	-1879
▁lettre	-1880
ule	-1881
ulte	-1882
onnes	-1883
èbres	-1884
▁craign	-1885
▁tén	-1886
▁oubl	-1887
▁mesure	-1888
▁comprendre	-1889
▁vict	-1890
...]	-1891
épre	-1892
▁représ	-1893
▁,"	-1894
▁lé	-1895
▁escl	-1896
aph	-1897
oth	-1898
▁obt	-1899
▁sym	-1900
adore	-1901
▁naissance	-1902
▁âgé	-1903
▁prépar	-1904
enait	-1905
▁x	-1906
▁méch	-1907
▁prie	-1908
▁sauvé	-1909
▁voyez	-1910
▁autour	-1911
▁village	-1912
dire	-1913
▁sud	-1914
enue	-1915
▁assez	-1916
▁nation	-1917
uie	-1918
▁déclaré	-1919
urrection	-1920
rés	-1921
▁allah	-1922
▁gen	-1923
oient	-1924
▁bois	-1925
▁effect	-1926
▁convient	-1927
▁ténèbres	-1928
enseignement	-1929
▁particul	-1930
ost	-1931
éci	-1932
illez	-1933
▁règne	-1934
▁attention	-1935
bles	-1936
▁typ	-1937
aband	-1938
amment	-1939
▁découv	-1940
orde	-1941
▁parv	-1942
▁entier	-1943
▁savais	-1944
▁anciens	-1945
▁faisons	-1946
▁problème	-1947
▁désert	-1948
▁devenu	-1949
▁création	-1950
▁résurrection	-1951
▁mem	-1952
▁phot	-1953
érance	-1954
▁appelés	-1955
▁voulait	-1956
▁commencement	-1957
orig	-1958
cteur	-1959
▁tent	-1960
▁galil	-1961
▁synagog	-1962
eng	-1963
▁bât	-1964
▁expl	-1965
▁arrêt	-1966
vé	-1967
eus	-1968
▁viens	-1969
uel	-1970
quelle	-1971
▁pitié	-1972
▁ouvert	-1973
▁baptisés	-1974
▁pères	-1975
▁pouvais	-1976
ust	-1977
▁bord	-1978
▁image	-1979
ifest	-1980
allait	-1981
▁souvent	-1982
▁choix	-1983
▁laquelle	-1984
▁manifest	-1985
riez	-1986
▁toutefois	-1987
ud	-1988
eth	-1989
▁prier	-1990
▁demain	-1991
▁demanda	-1992
▁membres	-1993
▁habitants	-1994
▁,	-1995
usé	-1996
orer	-1997
▁dir	-1998
▁cham	-1999
▁doul	-2000
▁huit	-2001
univers	-2002
▁dess	-2003
▁[...]	-2004
▁permet	-2005
▁travailler	-2006
▁camp	-2007
ro	-2008
▁cél	-2009
▁tué	-2010
▁four	-2011
▁surv	-2012
intérieur	-2013
école	-2014
▁appart	-2015
inst	-2016
▁allé	-2017
▁chair	-2018
▁resté	-2019
épée	-2020
asser	-2021
image	-2022
▁attend	-2023
▁vêtements	-2024
ombre	-2025
▁prit	-2026
▁fonction	-2027
▁nouvelles	-2028
▁connaissent	-2029
erg	-2030
rire	-2031
▁ach	-2032
▁nord	-2033
▁dispar	-2034
▁prends	-2035
impression	-2036
▁abs	-2037
▁but	-2038
▁prix	-2039
▁péri	-2040
ifs	-2041
▁voulez	-2042
▁laissez	-2043
▁ém	-2044
▁réun	-2045
!"	-2046
ec	-2047
▁inv	-2048
aller	-2049
▁fran	-2050
▁plan	-2051
▁région	-2052
▁rencontre	-2053
mon	-2054
asion	-2055
entend	-2056
▁preuve	-2057
cle	-2058
▁tex	-2059
▁vas	-2060
issant	-2061
itions	-2062
▁résult	-2063
▁rapport	-2064
ak	-2065
yl	-2066
inf	-2067
▁num	-2068
honneur	-2069
▁produit	-2070
▁eg	-2071
quel	-2072
aurais	-2073
▁immédiat	-2074
eug	-2075
▁dég	-2076
▁soum	-2077
▁amour	-2078
▁gagn	-2079
ission	-2080
▁familles	-2081
père	-2082
▁dan	-2083
▁lim	-2084
iquer	-2085
▁grec	-2086
▁proche	-2087
auc	-2088
▁bas	-2089
▁tel	-2090
épreuve	-2091
cem	-2092
erne	-2093
années	-2094
▁moyen	-2095
▁pensez	-2096
).	-2097
af	-2098
itôt	-2099
rier	-2100
▁obs	-2101
ich	-2102
▁piè	-2103
▁cess	-2104
antage	-2105
▁verre	-2106
▁'	-2107
tres	-2108
▁ail	-2109
envoy	-2110
enfants	-2111
appelait	-2112
▁particip	-2113
▁utiliser	-2114
▁immédiatement	-2115
isse	-2116
écout	-2117
▁nature	-2118
▁pauvre	-2119
▁trente	-2120
▁viendra	-2121
▁septembre	-2122
êch	-2123
▁prév	-2124
▁assis	-2125
origine	-2126
off	-2127
▁sub	-2128
conque	-2129
▁coeur	-2130
▁rendu	-2131
▁accord	-2132
▁davantage	-2133
œil	-2134
▁ben	-2135
▁lar	-2136
▁rome	-2137
ennent	-2138
iments	-2139
▁peine	-2140
▁satan	-2141
▁recherche	-2142
uer	-2143
ôle	-2144
▁ir	-2145
aves	-2146
expl	-2147
▁inform	-2148
ame	-2149
▁occ	-2150
armée	-2151
orité	-2152
▁marc	-2153
▁disent	-2154
▁simplement	-2155
léch	-2156
▁pleure	-2157
▁croient	-2158
▁répondu	-2159
▁seconde	-2160
▁couv	-2161
▁durant	-2162
▁maladie	-2163
▁auss	-2164
▁invit	-2165
▁marche	-2166
▁riches	-2167
ôtre	-2168
▁êtres	-2169
▁profond	-2170
ub	-2171
tru	-2172
▁extr	-2173
▁signe	-2174
▁tenir	-2175
omon	-2176
▁jon	-2177
▁bonnes	-2178
▁aussitôt	-2179
ok	-2180
▁offr	-2181
▁soci	-2182
▁désir	-2183
▁animaux	-2184
▁prières	-2185
escl	-2186
▁cir	-2187
▁not	-2188
▁lire	-2189
▁suff	-2190
▁cinqu	-2191
▁entra	-2192
▁réfléch	-2193
▁mag	-2194
▁trou	-2195
▁march	-2196
dent	-2197
▁éch	-2198
▁inst	-2199
▁jard	-2200
▁trés	-2201
▁tuer	-2202
▁mangé	-2203
intelligence	-2204
éli	-2205
▁gent	-2206
▁prot	-2207
▁projet	-2208
▁compagn	-2209
dit	-2210
▁ve	-2211
▁allait	-2212
▁celles	-2213
▁crainte	-2214
▁laisser	-2215
▁chercher	-2216
aac	-2217
▁âme	-2218
▁erre	-2219
▁mett	-2220
▁sout	-2221
▁remar	-2222
exp	-2223
lex	-2224
érer	-2225
▁chap	-2226
▁repos	-2227
ume	-2228
▁message	-2229
ias	-2230
▁sé	-2231
▁frapp	-2232
▁tromp	-2233
▁laissé	-2234
▁galilée	-2235
rog	-2236
blig	-2237
▁béb	-2238
▁men	-2239
▁compt	-2240
▁plein	-2241
▁important	-2242
jout	-2243
attend	-2244
▁salomon	-2245
abs	-2246
ettes	-2247
▁terr	-2248
▁penser	-2249
▁efforts	-2250
▁romains	-2251
▁recevoir	-2252
▁étu	-2253
andis	-2254
itable	-2255
ug	-2256
irer	-2257
▁jan	-2258
▁glor	-2259
dessus	-2260
▁suivant	-2261
▁différentes	-2262
emain	-2263
ignor	-2264
▁parc	-2265
▁exact	-2266
pour	-2267
▁firent	-2268
ède	-2269
▁jos	-2270
cture	-2271
rique	-2272
▁tandis	-2273
▁endroit	-2274
quer	-2275
érie	-2276
▁vidé	-2277
▁forme	-2278
▁états	-2279
▁unique	-2280
▁conseils	-2281
▁nu	-2282
pris	-2283
▁rou	-2284
▁préf	-2285
▁meilleur	-2286
▁semaines	-2287
uns	-2288
▁pay	-2289
▁pres	-2290
nés	-2291
▁eur	-2292
ultes	-2293
▁leva	-2294
espérance	-2295
écut	-2296
étu	-2297
iner	-2298
urer	-2299
▁brû	-2300
▁stu	-2301
human	-2302
excuse	-2303
▁conséqu	-2304
▁fav	-2305
▁yah	-2306
agnes	-2307
▁spir	-2308
▁rê	-2309
ives	-2310
▁établ	-2311
▁souvenez	-2312
amen	-2313
aute	-2314
▁pur	-2315
ôtres	-2316
▁ange	-2317
▁coll	-2318
▁prenez	-2319
▁devenir	-2320
▁respons	-2321
euf	-2322
▁bi	-2323
▁déclare	-2324
▁sommeil	-2325
▁trouvait	-2326
elopp	-2327
▁succ	-2328
▁finalement	-2329
eglise	-2330
▁so	-2331
este	-2332
inth	-2333
égard	-2334
▁sein	-2335
▁dites	-2336
▁puisse	-2337
périence	-2338
ili	-2339
obé	-2340
▁lu	-2341
▁eng	-2342
esses	-2343
▁vite	-2344
▁priez	-2345
▁pourra	-2346
▁quiconque	-2347
ifié	-2348
onses	-2349
▁souri	-2350
▁suivre	-2351
évangile	-2352
▁poursui	-2353
olog	-2354
▁haï	-2355
arche	-2356
▁bons	-2357
▁faite	-2358
▁venue	-2359
endemain	-2360
aces	-2361
▁durée	-2362
▁source	-2363
▁histoire	-2364
▁ressuscité	-2365
imm	-2366
tez	-2367
▁én	-2368
état	-2369
▁syr	-2370
▁décem	-2371
▁accept	-2372
ensemble	-2373
lem	-2374
cool	-2375
▁ang	-2376
ection	-2377
▁résist	-2378
▁musique	-2379
appl	-2380
attente	-2381
ération	-2382
▁laisse	-2383
▁écoute	-2384
ome	-2385
▁décidé	-2386
▁réponses	-2387
▁nécessaire	-2388
pa	-2389
pri	-2390
▁équ	-2391
aimes	-2392
prise	-2393
▁rent	-2394
▁croit	-2395
▁dispos	-2396
▁manque	-2397
écriture	-2398
▁arriver	-2399
▁grandes	-2400
▁maisons	-2401
▁spiritu	-2402
ma	-2403
▁bal	-2404
▁pluie	-2405
▁garçon	-2406
▁jardin	-2407
accomplir	-2408
▁abandonné	-2409
pect	-2410
êcher	-2411
▁donna	-2412
▁judée	-2413
▁suppl	-2414
▁décembre	-2415
▁israélites	-2416
levé	-2417
inquiète	-2418
▁lendemain	-2419
▁ps	-2420
▁impos	-2421
▁caract	-2422
▁départ	-2423
▁véritable	-2424
isée	-2425
▁pér	-2426
▁changé	-2427
▁rappel	-2428
▁capable	-2429
▁film	-2430
▁stup	-2431
▁connaît	-2432
ote	-2433
▁montre	-2434
▁population	-2435
▁souffrance	-2436
euve	-2437
▁nul	-2438
▁adam	-2439
▁nuits	-2440
▁telle	-2441
▁pardon	-2442
▁concerne	-2443
▁témoignage	-2444
oll	-2445
idée	-2446
▁jes	-2447
▁juin	-2448
▁franç	-2449
▁spéci	-2450
▁appelle	-2451
▁devrait	-2452
▁peuples	-2453
▁prophét	-2454
attention	-2455
ext	-2456
empl	-2457
illet	-2458
étant	-2459
existe	-2460
▁sil	-2461
▁ayez	-2462
▁dépl	-2463
▁venus	-2464
▁portes	-2465
▁répand	-2466
intention	-2467
▁derniers	-2468
inté	-2469
▁!!!	-2470
▁juge	-2471
▁diable	-2472
▁philip	-2473
▁voient	-2474
humanité	-2475
inte	-2476
midi	-2477
èles	-2478
▁champ	-2479
▁meurt	-2480
▁recomm	-2481
onnés	-2482
œuvre	-2483
▁idée	-2484
▁lesqu	-2485
▁valeur	-2486
irm	-2487
opt	-2488
èse	-2489
▁simon	-2490
na	-2491
▁org	-2492
▁demi	-2493
▁page	-2494
rement	-2495
vier	-2496
▁lis	-2497
▁mur	-2498
▁réd	-2499
▁élé	-2500
▁famine	-2501
▁mourut	-2502
▁article	-2503
▁janvier	-2504
▁promesse	-2505
ane	-2506
êche	-2507
usion	-2508
▁permis	-2509
▁dernière	-2510
▁do	-2511
leur	-2512
émie	-2513
▁mult	-2514
▁état	-2515
article	-2516
▁voyage	-2517
▁voyons	-2518
▁parties	-2519
▁puisque	-2520
▁pâ	-2521
▁tiens	-2522
▁troup	-2523
instant	-2524
▁bataille	-2525
▁créateur	-2526
▁alla	-2527
▁pare	-2528
▁termin	-2529
cul	-2530
son	-2531
▁sh	-2532
▁ment	-2533
▁public	-2534
▁président	-2535
inv	-2536
▁ois	-2537
▁pal	-2538
▁atte	-2539
▁sinon	-2540
ordieux	-2541
▁livres	-2542
▁œuvres	-2543
▁sauveur	-2544
▁miracles	-2545
écl	-2546
vites	-2547
▁facil	-2548
▁phara	-2549
▁corinth	-2550
▁développ	-2551
aman	-2552
▁noé	-2553
ument	-2554
▁parlait	-2555
▁période	-2556
▁hé	-2557
atta	-2558
▁lut	-2559
▁mout	-2560
▁numéro	-2561
▁second	-2562
▁premiers	-2563
ray	-2564
▁tôt	-2565
▁télé	-2566
▁table	-2567
▁fallait	-2568
▁problèmes	-2569
oure	-2570
▁exp	-2571
▁riv	-2572
▁sex	-2573
istre	-2574
ulter	-2575
viter	-2576
▁quar	-2577
▁forte	-2578
▁fruit	-2579
▁jesus	-2580
▁prêts	-2581
hu	-2582
inj	-2583
huit	-2584
▁sar	-2585
▁grâces	-2586
▁descendu	-2587
ope	-2588
enons	-2589
▁capit	-2590
▁fourn	-2591
▁pensé	-2592
▁décédé	-2593
erai	-2594
erci	-2595
ussi	-2596
▁bab	-2597
jectif	-2598
iquement	-2599
▁concern	-2600
accompagn	-2601
▁présence	-2602
men	-2603
▁post	-2604
▁biens	-2605
▁dieux	-2606
▁racont	-2607
▁arrivés	-2608
▁rassembl	-2609
▁op	-2610
amuse	-2611
▁hors	-2612
▁titre	-2613
occasion	-2614
▁tre	-2615
ivité	-2616
établ	-2617
▁date	-2618
ran	-2619
écu	-2620
ône	-2621
ainc	-2622
amme	-2623
▁emb	-2624
▁hér	-2625
▁pré	-2626
équip	-2627
▁œuvre	-2628
▁sauvés	-2629
▁savent	-2630
▁samarie	-2631
▁attendre	-2632
▁site	-2633
▁vaut	-2634
information	-2635
ôte	-2636
anim	-2637
rons	-2638
▁inté	-2639
▁allons	-2640
▁récomp	-2641
▁égypte	-2642
▁faisant	-2643
▁miséricordieux	-2644
erve	-2645
rage	-2646
▁batt	-2647
époque	-2648
▁pharaon	-2649
▁poisson	-2650
ieur	-2651
▁tim	-2652
▁mons	-2653
▁judas	-2654
▁plait	-2655
▁donnez	-2656
▁différence	-2657
..."	-2658
rions	-2659
▁soins	-2660
ayant	-2661
▁amen	-2662
▁texte	-2663
arrivée	-2664
assemblée	-2665
▁synagogue	-2666
??	-2667
▁aimeras	-2668
apprendre	-2669
▁montagnes	-2670
oph	-2671
ifier	-2672
▁août	-2673
étrang	-2674
▁pleur	-2675
▁charge	-2676
▁considér	-2677
iée	-2678
assé	-2679
offr	-2680
▁actu	-2681
▁gros	-2682
▁guér	-2683
▁colle	-2684
▁entrer	-2685
▁lévites	-2686
▁éd	-2687
▁bre	-2688
exist	-2689
▁soin	-2690
▁satis	-2691
▁sépar	-2692
pourquoi	-2693
▁adultes	-2694
▁jacques	-2695
▁juillet	-2696
erç	-2697
arbre	-2698
▁ajout	-2699
▁bénéf	-2700
▁choisi	-2701
▁cheveux	-2702
▁solution	-2703
dé	-2704
lu	-2705
entrée	-2706
▁ligne	-2707
▁sauve	-2708
▁lequel	-2709
▁regardez	-2710
erc	-2711
▁bu	-2712
▁empl	-2713
▁vint	-2714
urance	-2715
éritage	-2716
▁croyez	-2717
▁justes	-2718
▁chrétiens	-2719
].	-2720
,...	-2721
ards	-2722
▁fai	-2723
▁écl	-2724
▁consulter	-2725
▁oh	-2726
erté	-2727
istr	-2728
▁log	-2729
▁séc	-2730
▁fasse	-2731
▁organ	-2732
obt	-2733
oux	-2734
amin	-2735
▁cult	-2736
isions	-2737
ception	-2738
▁compos	-2739
▁crains	-2740
gu	-2741
lam	-2742
▁be	-2743
orme	-2744
▁cop	-2745
▁loc	-2746
▁naz	-2747
▁viol	-2748
▁faits	-2749
▁repas	-2750
▁épouse	-2751
▁prisonn	-2752
▁pratique	-2753
▁représent	-2754
▁fév	-2755
▁bébé	-2756
inaire	-2757
▁possi	-2758
▁destin	-2759
▁semble	-2760
▁apôtres	-2761
▁effectivement	-2762
her	-2763
▁ant	-2764
accueil	-2765
iqué	-2766
reur	-2767
auche	-2768
▁coul	-2769
▁digne	-2770
▁livré	-2771
endroit	-2772
▁fleuve	-2773
▁propri	-2774
▁donnera	-2775
▁demandez	-2776
énom	-2777
ancer	-2778
▁servir	-2779
▁présente	-2780
orce	-2781
▁aie	-2782
▁rej	-2783
import	-2784
itation	-2785
▁puisqu	-2786
▁facilement	-2787
uy	-2788
eter	-2789
lera	-2790
▁ess	-2791
ennem	-2792
cience	-2793
▁pouss	-2794
▁révél	-2795
enaient	-2796
▁vendre	-2797
▁veulent	-2798
adis	-2799
leurs	-2800
▁syst	-2801
alcool	-2802
ernité	-2803
▁aveug	-2804
▁morte	-2805
▁reçoit	-2806
▁février	-2807
▁langage	-2808
▁pierres	-2809
▁esclaves	-2810
▁différents	-2811
▁souffrances	-2812
tout	-2813
érêt	-2814
olesc	-2815
▁hébre	-2816
▁occup	-2817
esclave	-2818
▁dirige	-2819
▁comprenez	-2820
erte	-2821
▁espér	-2822
usement	-2823
▁courant	-2824
▁liberté	-2825
informations	-2826
ana	-2827
▁deb	-2828
▁pron	-2829
alités	-2830
oindre	-2831
▁ventre	-2832
▁pardonner	-2833
bas	-2834
▁pil	-2835
▁grat	-2836
appart	-2837
ination	-2838
▁daniel	-2839
▁travaux	-2840
▁bét	-2841
▁bles	-2842
occupe	-2843
▁réussi	-2844
▁miséricorde	-2845
ric	-2846
▁tir	-2847
▁déch	-2848
▁mariés	-2849
▁accueill	-2850
],	-2851
▁;	-2852
▁séd	-2853
euvre	-2854
▁quitt	-2855
▁qualité	-2856
▁voulons	-2857
oine	-2858
raph	-2859
▁diz	-2860
areth	-2861
ocher	-2862
▁bais	-2863
emment	-2864
issage	-2865
▁façons	-2866
▁reconnu	-2867
extérieur	-2868
▁exactement	-2869
hn	-2870
ss	-2871
aimez	-2872
▁médic	-2873
▁certes	-2874
paravant	-2875
▁poursuiv	-2876
irai	-2877
▁lois	-2878
▁soix	-2879
aindre	-2880
ormais	-2881
ènement	-2882
▁voulais	-2883
▁commandements	-2884
▁vidéo	-2885
▁demeur	-2886
▁pouvaient	-2887
▁conscience	-2888
suis	-2889
▁eaux	-2890
▁noms	-2891
▁réalité	-2892
▁support	-2893
▁dr	-2894
iller	-2895
oncer	-2896
▁écris	-2897
aimerai	-2898
▁appela	-2899
▁commen	-2900
▁cherchez	-2901
▁croyants	-2902
▁ba	-2903
▁tél	-2904
erver	-2905
▁vert	-2906
onnement	-2907
▁sanctif	-2908
▁quarante	-2909
▁seras	-2910
attends	-2911
▁détour	-2912
▁territ	-2913
▁ressent	-2914
▁résultats	-2915
▁semblable	-2916
▁réellement	-2917
quis	-2918
enfer	-2919
▁faux	-2920
▁plac	-2921
▁touch	-2922
▁battre	-2923
▁cherche	-2924
▁parlent	-2925
approchèrent	-2926
▁gouvernement	-2927
iti	-2928
ute	-2929
crit	-2930
enne	-2931
▁marié	-2932
▁cherché	-2933
▁douleur	-2934
▁désormais	-2935
▁sacrifice	-2936
▁totalement	-2937
ots	-2938
▁thé	-2939
ayons	-2940
écart	-2941
▁bras	-2942
▁cité	-2943
▁dents	-2944
▁lieux	-2945
▁salaire	-2946
▁apporter	-2947
▁cés	-2948
▁levé	-2949
▁sold	-2950
▁type	-2951
▁évén	-2952
▁babyl	-2953
▁bless	-2954
▁sortes	-2955
▁devenus	-2956
▁continue	-2957
pir	-2958
▁obé	-2959
aimés	-2960
anche	-2961
▁orig	-2962
▁carte	-2963
abilité	-2964
▁rendit	-2965
▁signes	-2966
▁reviend	-2967
▁vivants	-2968
ha	-2969
▁we	-2970
oile	-2971
▁mém	-2972
▁sabb	-2973
érence	-2974
▁suivi	-2975
▁points	-2976
ications	-2977
▁paradis	-2978
▁souviens	-2979
▁sacrifices	-2980
agé	-2981
échapp	-2982
▁gauche	-2983
▁corinthiens	-2984
ast	-2985
ctu	-2986
gré	-2987
▁nav	-2988
faits	-2989
oiles	-2990
▁nive	-2991
▁noël	-2992
▁patr	-2993
▁césar	-2994
▁ferme	-2995
▁fidèle	-2996
entendre	-2997
car	-2998
▁rav	-2999
alent	-3000
objet	-3001
▁neuf	-3002
▁quin	-3003
arrête	-3004
ension	-3005
▁prost	-3006
occuper	-3007
▁vinrent	-3008
ize	-3009
imes	-3010
▁cach	-3011
▁cade	-3012
▁myst	-3013
▁pose	-3014
cteurs	-3015
▁maman	-3016
▁mondi	-3017
▁egypte	-3018
▁garder	-3019
▁détruit	-3020
▁philist	-3021
ow	-3022
uré	-3023
posé	-3024
▁mac	-3025
▁monté	-3026
▁bénédi	-3027
▁porter	-3028
▁actions	-3029
▁sécurité	-3030
▁donnés	-3031
▁protég	-3032
enn	-3033
ivid	-3034
obre	-3035
unité	-3036
▁croix	-3037
▁rends	-3038
▁pièces	-3039
agissait	-3040
▁changer	-3041
▁courage	-3042
▁pleurer	-3043
▁monsieur	-3044
▁communauté	-3045
èt	-3046
béc	-3047
olé	-3048
orc	-3049
aura	-3050
éens	-3051
▁gui	-3052
▁mér	-3053
▁red	-3054
upart	-3055
▁dons	-3056
▁régn	-3057
amuser	-3058
iennes	-3059
▁sorti	-3060
essayer	-3061
▁disais	-3062
▁mirent	-3063
ablement	-3064
▁moutons	-3065
▁passait	-3066
▁plupart	-3067
▁détruire	-3068
▁intéress	-3069
ves	-3070
embr	-3071
écri	-3072
▁fig	-3073
▁effic	-3074
▁offici	-3075
▁parlez	-3076
▁pensée	-3077
▁retourner	-3078
▁auparavant	-3079
▁profession	-3080
iz	-3081
cif	-3082
anch	-3083
ption	-3084
▁noir	-3085
▁super	-3086
▁sabbat	-3087
▁arrivée	-3088
▁malades	-3089
▁recommand	-3090
amb	-3091
abri	-3092
▁âge	-3093
enfui	-3094
▁agré	-3095
oration	-3096
étranger	-3097
▁comport	-3098
▁conduit	-3099
▁société	-3100
▁capitale	-3101
▁philippe	-3102
dain	-3103
▁fix	-3104
▁lam	-3105
▁tend	-3106
▁isaac	-3107
▁oblig	-3108
▁étudi	-3109
vention	-3110
▁debout	-3111
▁ordonné	-3112
▁construire	-3113
ed	-3114
ses	-3115
▁mâ	-3116
primer	-3117
▁enfin	-3118
▁entré	-3119
▁claire	-3120
▁parfois	-3121
▁discours	-3122
▁décision	-3123
▁difficult	-3124
▁construction	-3125
;)	-3126
obsc	-3127
▁dén	-3128
oires	-3129
▁fass	-3130
entret	-3131
▁polit	-3132
▁progr	-3133
agement	-3134
▁fruits	-3135
▁triste	-3136
▁venait	-3137
ypt	-3138
âme	-3139
▁laz	-3140
▁impl	-3141
▁rêve	-3142
▁allés	-3143
▁trône	-3144
▁coloss	-3145
▁impossible	-3146
anm	-3147
▁cana	-3148
auteur	-3149
▁dispon	-3150
▁passion	-3151
▁craignez	-3152
▁meilleure	-3153
▁pan	-3154
huile	-3155
▁quot	-3156
▁rass	-3157
ennemi	-3158
▁cesse	-3159
▁charg	-3160
▁crier	-3161
▁système	-3162
▁allèrent	-3163
▁français	-3164
expérience	-3165
▁continuer	-3166
da	-3167
hor	-3168
oid	-3169
èves	-3170
▁cad	-3171
▁pén	-3172
▁circ	-3173
erreur	-3174
▁tombe	-3175
anmoins	-3176
▁précéd	-3177
▁sortit	-3178
iendront	-3179
ik	-3180
hors	-3181
rice	-3182
▁ban	-3183
▁mai	-3184
▁lune	-3185
▁rejet	-3186
èrement	-3187
entissage	-3188
▁réveillez	-3189
▁philistins	-3190
its	-3191
acité	-3192
▁avis	-3193
▁john	-3194
▁tente	-3195
afrique	-3196
envoyer	-3197
▁images	-3198
▁revenu	-3199
▁siècle	-3200
éternité	-3201
iversaire	-3202
▁néanmoins	-3203
bes	-3204
lui	-3205
èce	-3206
imag	-3207
▁dur	-3208
aiment	-3209
ettent	-3210
▁chans	-3211
▁grecs	-3212
▁quotid	-3213
▁rendez	-3214
▁jérémie	-3215
▁entièrement	-3216
:)	-3217
ev	-3218
▁bo	-3219
▁cre	-3220
▁règ	-3221
▁sinc	-3222
▁test	-3223
▁nommé	-3224
▁appréc	-3225
▁voyant	-3226
▁désolée	-3227
accomplissement	-3228
eh	-3229
▁po	-3230
ince	-3231
▁ris	-3232
▁rôle	-3233
ograph	-3234
ustice	-3235
▁aurez	-3236
▁sachant	-3237
▁ru	-3238
iait	-3239
▁désolé	-3240
▁fidèles	-3241
▁profess	-3242
obscurité	-3243
▁septième	-3244
▁souhaite	-3245
▁accompagn	-3246
▁informations	-3247
aïe	-3248
ative	-3249
ibles	-3250
ifiés	-3251
▁dehors	-3252
▁babylone	-3253
▁bus	-3254
▁duré	-3255
inrent	-3256
▁cents	-3257
▁genre	-3258
▁retir	-3259
▁bateau	-3260
▁téléph	-3261
▁époque	-3262
▁baptême	-3263
▁relation	-3264
▁soixante	-3265
▁réveiller	-3266
arc	-3267
éder	-3268
▁cat	-3269
▁maj	-3270
itres	-3271
étend	-3272
▁arbre	-3273
▁prote	-3274
▁consac	-3275
▁visage	-3276
▁content	-3277
▁nazareth	-3278
▁préparer	-3279
▁commencer	-3280
▁colossiens	-3281
del	-3282
gent	-3283
▁nov	-3284
othée	-3285
puiss	-3286
▁vent	-3287
▁caché	-3288
▁parla	-3289
▁équip	-3290
▁secret	-3291
▁patient	-3292
▁pauvreté	-3293
▁souffert	-3294
▁sentiment	-3295
▁territoire	-3296
ysi	-3297
érité	-3298
▁magn	-3299
ctobre	-3300
envoie	-3301
italie	-3302
▁malgré	-3303
▁naître	-3304
▁erreurs	-3305
▁oiseaux	-3306
▁ailleurs	-3307
▁puissant	-3308
▁transport	-3309
▁voulaient	-3310
iné	-3311
erie	-3312
▁reb	-3313
riers	-3314
étude	-3315
▁symb	-3316
▁liste	-3317
▁vieux	-3318
▁marcher	-3319
▁craindre	-3320
▁devraient	-3321
vers	-3322
▁fût	-3323
▁rob	-3324
▁vécu	-3325
accept	-3326
avance	-3327
▁révol	-3328
▁lazare	-3329
▁quitté	-3330
▁éloign	-3331
ormément	-3332
▁miracle	-3333
▁retrouvé	-3334
apprentissage	-3335
reg	-3336
▁pot	-3337
▁refus	-3338
▁vraie	-3339
adresse	-3340
▁termes	-3341
▁restent	-3342
▁professionn	-3343
ars	-3344
mère	-3345
prét	-3346
▁ache	-3347
▁béni	-3348
▁méth	-3349
épouse	-3350
▁divers	-3351
▁oublié	-3352
▁culture	-3353
▁données	-3354
▁quitter	-3355
▁étoiles	-3356
▁différent	-3357
▁direction	-3358
▁difficiles	-3359
ège	-3360
▁chi	-3361
▁nég	-3362
▁évid	-3363
▁exist	-3364
▁sainte	-3365
▁comprend	-3366
▁timothée	-3367
utilisation	-3368
▁dû	-3369
assi	-3370
éloign	-3371
▁autor	-3372
▁observ	-3373
▁rapide	-3374
▁serais	-3375
irme	-3376
▁cul	-3377
▁?...	-3378
▁jeux	-3379
assion	-3380
iciens	-3381
▁aimait	-3382
▁améric	-3383
▁canaan	-3384
▁esprits	-3385
▁tradition	-3386
▁compagnons	-3387
▁retournèrent	-3388
sept	-3389
onnez	-3390
▁forc	-3391
▁rues	-3392
▁défin	-3393
▁imbéc	-3394
▁caractér	-3395
▁savaient	-3396
▁ram	-3397
ailles	-3398
▁boiss	-3399
▁juges	-3400
▁yahvé	-3401
issance	-3402
▁arbres	-3403
▁serons	-3404
▁humaine	-3405
▁lecture	-3406
injustice	-3407
▁viennent	-3408
▁compassion	-3409
ym	-3410
médi	-3411
onge	-3412
▁mou	-3413
cident	-3414
▁paris	-3415
ctement	-3416
▁arrêté	-3417
▁marque	-3418
▁rivière	-3419
▁souffrent	-3420
çait	-3421
écria	-3422
▁appl	-3423
▁priv	-3424
aurait	-3425
▁décid	-3426
exemple	-3427
▁centre	-3428
▁sortie	-3429
▁écouté	-3430
▁adolesc	-3431
▁mémoire	-3432
▁spécial	-3433
▁convainc	-3434
▁éléments	-3435
importance	-3436
▁étrangers	-3437
▁concernant	-3438
urg	-3439
appar	-3440
offre	-3441
▁juif	-3442
▁syrie	-3443
▁tient	-3444
▁aimons	-3445
▁endorm	-3446
utiliser	-3447
▁interdit	-3448
▁objectif	-3449
agir	-3450
asie	-3451
cinq	-3452
onom	-3453
▁capt	-3454
▁pous	-3455
▁bonté	-3456
▁invités	-3457
▁entendez	-3458
▁ressembl	-3459
▁travaille	-3460
▁connaissais	-3461
hh	-3462
han	-3463
▁eph	-3464
andes	-3465
▁imag	-3466
▁norm	-3467
▁matins	-3468
▁niveau	-3469
▁trésor	-3470
▁verrez	-3471
▁viande	-3472
▁visite	-3473
approche	-3474
▁devient	-3475
▁nouveaux	-3476
cep	-3477
▁..	-3478
acer	-3479
delà	-3480
iant	-3481
isant	-3482
▁aient	-3483
ucation	-3484
▁monter	-3485
▁photos	-3486
▁rentre	-3487
médiaire	-3488
assurance	-3489
▁cinquante	-3490
▁bel	-3491
▁ext	-3492
lises	-3493
▁chal	-3494
▁guer	-3495
▁rich	-3496
attach	-3497
▁aimes	-3498
▁concl	-3499
▁doute	-3500
▁pente	-3501
annonce	-3502
▁marier	-3503
▁conseil	-3504
▁méchants	-3505
▁réveille	-3506
▁trouvent	-3507
▁travaillé	-3508
▁lesquelles	-3509
har	-3510
non	-3511
illé	-3512
athan	-3513
cient	-3514
envir	-3515
▁plat	-3516
équipe	-3517
▁annoncé	-3518
▁arrivèrent	-3519
âte	-3520
▁!!	-3521
▁ill	-3522
▁lac	-3523
▁beth	-3524
▁blog	-3525
▁lion	-3526
▁posé	-3527
resser	-3528
rèrent	-3529
érique	-3530
▁allem	-3531
▁manqu	-3532
▁seuls	-3533
oubliez	-3534
▁élèves	-3535
approcha	-3536
▁obtenir	-3537
▁poissons	-3538
erm	-3539
ére	-3540
ides	-3541
roge	-3542
édit	-3543
▁gra	-3544
améli	-3545
isées	-3546
▁lien	-3547
▁stat	-3548
▁tenu	-3549
▁chine	-3550
▁procl	-3551
▁tombé	-3552
▁longue	-3553
puissant	-3554
▁terrain	-3555
▁construit	-3556
oo	-3557
▁q	-3558
▁lun	-3559
jésus	-3560
lever	-3561
▁bête	-3562
▁ferm	-3563
amitié	-3564
ifique	-3565
▁démon	-3566
▁types	-3567
ourager	-3568
▁faveur	-3569
▁litres	-3570
▁ordonn	-3571
▁possib	-3572
▁repent	-3573
▁contrib	-3574
▁souvenir	-3575
▁réjouissez	-3576
bo	-3577
cre	-3578
▁dest	-3579
▁hier	-3580
▁culte	-3581
▁prince	-3582
▁novembre	-3583
arch	-3584
▁dure	-3585
▁jugé	-3586
▁mars	-3587
ésiens	-3588
▁cœurs	-3589
▁trist	-3590
orgueil	-3591
▁détail	-3592
▁envoya	-3593
▁gagner	-3594
autorité	-3595
▁approch	-3596
▁mission	-3597
▁montrer	-3598
▁soldats	-3599
▁produits	-3600
▁représente	-3601
aus	-3602
▁cam	-3603
icité	-3604
▁fier	-3605
▁canad	-3606
▁faute	-3607
▁payer	-3608
▁dépend	-3609
▁mérite	-3610
seigneur	-3611
▁consomm	-3612
▁mondiale	-3613
▁richesse	-3614
intermédiaire	-3615
he	-3616
oré	-3617
oui	-3618
raï	-3619
aimé	-3620
alors	-3621
▁tort	-3622
endorm	-3623
▁pâque	-3624
▁intern	-3625
▁promis	-3626
▁vienne	-3627
▁écrire	-3628
▁aliment	-3629
▁croyons	-3630
▁naturel	-3631
ignorance	-3632
▁mauvaise	-3633
▁millions	-3634
▁pécheurs	-3635
cte	-3636
ril	-3637
oyer	-3638
▁cit	-3639
▁!...	-3640
▁cuis	-3641
▁gars	-3642
agneau	-3643
oublie	-3644
▁josué	-3645
▁physi	-3646
▁arriva	-3647
▁commis	-3648
▁minist	-3649
▁refusé	-3650
▁gratuit	-3651
▁mettent	-3652
▁propres	-3653
▁samarit	-3654
▁souffre	-3655
▁accompli	-3656
▁disciple	-3657
▁donnerai	-3658
▁malheure	-3659
▁propriét	-3660
▁récompense	-3661
elez	-3662
▁ore	-3663
ermin	-3664
èvres	-3665
▁lanc	-3666
▁mode	-3667
▁sauf	-3668
oeuvre	-3669
▁court	-3670
▁juger	-3671
▁scrib	-3672
▁proches	-3673
▁séparer	-3674
▁pardonne	-3675
ron	-3676
iver	-3677
ueur	-3678
▁lab	-3679
aurez	-3680
▁forêt	-3681
arrêter	-3682
▁extrém	-3683
▁posséd	-3684
▁verset	-3685
▁chapitre	-3686
▁derrière	-3687
▁position	-3688
▁ô	-3689
côte	-3690
allez	-3691
▁boir	-3692
ondance	-3693
▁fassiez	-3694
▁presque	-3695
▁sacrific	-3696
the	-3697
cles	-3698
▁lav	-3699
▁mad	-3700
aucun	-3701
▁base	-3702
▁honn	-3703
▁sage	-3704
▁front	-3705
▁série	-3706
▁cheval	-3707
▁détest	-3708
▁effray	-3709
appelles	-3710
▁anglais	-3711
▁install	-3712
ram	-3713
avec	-3714
ocal	-3715
isent	-3716
▁fini	-3717
▁peau	-3718
▁tués	-3719
apôtre	-3720
▁associ	-3721
▁moyens	-3722
▁octobre	-3723
▁pentecôte	-3724
ina	-3725
acle	-3726
▁fat	-3727
orter	-3728
▁cout	-3729
▁prob	-3730
▁bruit	-3731
▁boirai	-3732
▁palais	-3733
▁saviez	-3734
héritage	-3735
▁envoyés	-3736
▁persécut	-3737
▁bénédiction	-3738
▁parfaitement	-3739
com	-3740
rite	-3741
▁nés	-3742
▁sen	-3743
▁brûl	-3744
▁ence	-3745
▁trem	-3746
▁âgée	-3747
▁coupe	-3748
▁déliv	-3749
▁tribu	-3750
▁esclave	-3751
▁individ	-3752
▁passage	-3753
veillance	-3754
▁jourdain	-3755
▁villages	-3756
▁multitude	-3757
▁tristesse	-3758
io	-3759
eut	-3760
alon	-3761
çant	-3762
isode	-3763
▁mich	-3764
aimais	-3765
▁ennemi	-3766
▁montré	-3767
▁samuel	-3768
▁éviter	-3769
▁atteint	-3770
▁scribes	-3771
▁regarder	-3772
▁travaill	-3773
▁comprennent	-3774
esc	-3775
ian	-3776
raî	-3777
tit	-3778
usse	-3779
▁hor	-3780
▁mens	-3781
▁chame	-3782
▁prêch	-3783
▁égaux	-3784
▁essayer	-3785
▁réalisé	-3786
adressant	-3787
▁faisaient	-3788
▁manifesté	-3789
▁fum	-3790
aurai	-3791
ieuse	-3792
ancien	-3793
europe	-3794
ommage	-3795
érable	-3796
▁blanc	-3797
▁macéd	-3798
▁épous	-3799
▁démons	-3800
▁libres	-3801
▁apporté	-3802
ification	-3803
▁ancêtres	-3804
▁richesses	-3805
rou	-3806
▁lâ	-3807
ouff	-3808
uves	-3809
▁caï	-3810
▁atta	-3811
▁journ	-3812
▁vigne	-3813
▁pareil	-3814
▁vision	-3815
▁accepté	-3816
▁assembl	-3817
▁baptisé	-3818
▁raisons	-3819
▁certaine	-3820
émentaires	-3821
▁relations	-3822
ifie	-3823
onie	-3824
faire	-3825
organ	-3826
▁grav	-3827
▁annon	-3828
▁côtés	-3829
▁liban	-3830
▁poste	-3831
▁écriv	-3832
antaine	-3833
écoutez	-3834
▁eurent	-3835
▁mariée	-3836
▁sanctu	-3837
▁pensées	-3838
▁princes	-3839
▁surtout	-3840
▁capables	-3841
oli	-3842
▁éle	-3843
excus	-3844
▁créa	-3845
▁gout	-3846
guille	-3847
▁bande	-3848
▁persu	-3849
▁remis	-3850
▁feront	-3851
▁gardez	-3852
▁séjour	-3853
alliance	-3854
enseigner	-3855
▁détermin	-3856
▁certainement	-3857
dd	-3858
let	-3859
lig	-3860
île	-3861
rées	-3862
otion	-3863
▁indi	-3864
▁clair	-3865
▁divin	-3866
▁télév	-3867
▁chanson	-3868
avènement	-3869
▁allaient	-3870
▁patience	-3871
▁vendredi	-3872
▁macédoine	-3873
▁fél	-3874
agers	-3875
onnée	-3876
uelle	-3877
▁chau	-3878
▁préd	-3879
▁rach	-3880
ffront	-3881
▁jonas	-3882
▁pages	-3883
arriver	-3884
ministr	-3885
ètement	-3886
▁sauvée	-3887
▁succès	-3888
▁tribus	-3889
▁échapp	-3890
▁chambre	-3891
▁créature	-3892
▁retourne	-3893
▁centaines	-3894
▁formation	-3895
▁quotidien	-3896
▁vingtaine	-3897
hér	-3898
vis	-3899
atif	-3900
erce	-3901
raïm	-3902
ypoc	-3903
▁lat	-3904
▁née	-3905
ètres	-3906
▁bour	-3907
▁tels	-3908
ologie	-3909
▁chers	-3910
▁terme	-3911
absence	-3912
▁baiser	-3913
▁cacher	-3914
habitude	-3915
▁hébreux	-3916
▁maîtres	-3917
éducation	-3918
▁présents	-3919
▁réveillé	-3920
▁enseigner	-3921
▁respecter	-3922
▁extrémités	-3923
▁participer	-3924
▁traduction	-3925
étr	-3926
▁exh	-3927
▁hon	-3928
aumes	-3929
▁tran	-3930
▁vies	-3931
aimait	-3932
▁fuite	-3933
▁ident	-3934
▁consol	-3935
▁instru	-3936
▁restée	-3937
▁apporte	-3938
▁écouter	-3939
▁devaient	-3940
▁reconnaiss	-3941
▁prisonniers	-3942
eil	-3943
▁méc	-3944
▁etre	-3945
▁jeté	-3946
ultère	-3947
▁créer	-3948
▁destr	-3949
▁domin	-3950
▁haute	-3951
▁étais	-3952
▁adress	-3953
▁commet	-3954
▁offert	-3955
▁pilate	-3956
▁tomber	-3957
attendre	-3958
▁suivante	-3959
▁trouverez	-3960
▁conditions	-3961
xim	-3962
avis	-3963
autel	-3964
cepte	-3965
ereur	-3966
pital	-3967
▁bibl	-3968
▁cris	-3969
▁dira	-3970
▁absol	-3971
▁cessé	-3972
assurer	-3973
▁compar	-3974
▁témoin	-3975
empêcher	-3976
▁annoncer	-3977
▁douleurs	-3978
▁résultat	-3979
ek	-3980
ape	-3981
mer	-3982
ènes	-3983
▁dos	-3984
▁faud	-3985
atoire	-3986
▁emmen	-3987
▁favor	-3988
▁photo	-3989
▁venez	-3990
▁attach	-3991
▁donnent	-3992
interprét	-3993
▁prostern	-3994
çu	-3995
uge	-3996
erra	-3997
ueux	-3998
▁doc	-3999
▁sod	-4000
icule	-4001
▁onze	-4002
▁élev	-4003
essaie	-4004
▁siens	-4005
▁argent	-4006
▁erreur	-4007
▁pleine	-4008
▁réflex	-4009
▁suffit	-4010
▁chameau	-4011
▁rentrer	-4012
▁manières	-4013
▁merveill	-4014
▁partager	-4015
▁retrouve	-4016
▁sanctuaire	-4017
chn	-4018
umes	-4019
élev	-4020
.....	-4021
▁mouv	-4022
▁mâle	-4023
hommes	-4024
▁lever	-4025
▁total	-4026
▁excell	-4027
▁marché	-4028
▁taille	-4029
eusement	-4030
▁crurent	-4031
▁partage	-4032
▁aliments	-4033
▁pourront	-4034
▁synagogues	-4035
rat	-4036
▁cy	-4037
odes	-4038
resp	-4039
▁soy	-4040
▁véh	-4041
accès	-4042
saint	-4043
orient	-4044
▁avert	-4045
▁haine	-4046
▁résid	-4047
▁veuve	-4048
▁chance	-4049
▁compter	-4050
▁entière	-4051
▁voisins	-4052
▁puissances	-4053
▁événements	-4054
▁difficultés	-4055
hi	-4056
ke	-4057
oï	-4058
ît	-4059
bis	-4060
cel	-4061
▁ol	-4062
arité	-4063
aîtra	-4064
prouv	-4065
▁chaî	-4066
▁sache	-4067
▁techn	-4068
anglais	-4069
▁barque	-4070
▁crucif	-4071
▁entraî	-4072
▁transm	-4073
▁décédée	-4074
▁pensais	-4075
▁secours	-4076
▁sixième	-4077
affection	-4078
approcher	-4079
▁agréable	-4080
▁heureuse	-4081
▁répondra	-4082
▁conséquent	-4083
▁reviendrai	-4084
ax	-4085
oté	-4086
dans	-4087
anger	-4088
rième	-4089
uisit	-4090
▁hist	-4091
▁lett	-4092
▁souc	-4093
▁soup	-4094
▁corre	-4095
▁champs	-4096
▁foules	-4097
▁offrir	-4098
▁chanter	-4099
▁joindre	-4100
▁matinée	-4101
▁prenons	-4102
▁proclam	-4103
▁version	-4104
▁condamné	-4105
▁retourna	-4106
erse	-4107
itue	-4108
idité	-4109
▁benj	-4110
▁dite	-4111
▁gagné	-4112
▁rouge	-4113
▁apprit	-4114
▁défaut	-4115
▁membre	-4116
▁mettez	-4117
▁perdre	-4118
▁appelée	-4119
▁parfaite	-4120
▁décisions	-4121
▁politique	-4122
▁uniquement	-4123
adm	-4124
alt	-4125
allée	-4126
oblig	-4127
iquité	-4128
ourage	-4129
▁maris	-4130
▁offre	-4131
▁sinaï	-4132
▁tourn	-4133
▁brebis	-4134
▁compét	-4135
▁joueur	-4136
▁lèvres	-4137
▁vivent	-4138
ancienne	-4139
▁prononc	-4140
▁baptiser	-4141
▁bénéfici	-4142
▁entendit	-4143
▁pourriez	-4144
▁étranger	-4145
▁découvert	-4146
▁postérité	-4147
▁téléphone	-4148
fr	-4149
nab	-4150
uni	-4151
weh	-4152
olie	-4153
ones	-4154
ouch	-4155
▁arm	-4156
▁dam	-4157
▁inj	-4158
indre	-4159
▁cath	-4160
▁joue	-4161
associ	-4162
▁adopt	-4163
▁jeter	-4164
▁lutte	-4165
▁réuss	-4166
olution	-4167
▁divert	-4168
▁modèle	-4169
▁restés	-4170
▁soyons	-4171
▁établi	-4172
▁corresp	-4173
▁groupes	-4174
▁commandé	-4175
▁condition	-4176
dev	-4177
▁out	-4178
isaac	-4179
quête	-4180
▁prié	-4181
▁soul	-4182
onnant	-4183
uisent	-4184
▁dirig	-4185
▁jouer	-4186
▁pains	-4187
▁salle	-4188
acheter	-4189
▁cadeau	-4190
▁révélé	-4191
exprimer	-4192
▁faibles	-4193
▁réjouit	-4194
▁terminé	-4195
▁victime	-4196
▁arrivent	-4197
▁ministre	-4198
▁professeur	-4199
ott	-4200
▁ec	-4201
ules	-4202
▁éph	-4203
euses	-4204
oppos	-4205
▁répu	-4206
▁chiff	-4207
▁objet	-4208
▁vrais	-4209
▁dessus	-4210
▁messie	-4211
▁telles	-4212
▁annonce	-4213
▁constat	-4214
▁général	-4215
▁pourrez	-4216
▁services	-4217
▁référence	-4218
ctr	-4219
onf	-4220
incl	-4221
▁clé	-4222
▁sus	-4223
▁excl	-4224
itesse	-4225
▁calme	-4226
▁mises	-4227
▁barnab	-4228
▁habite	-4229
▁transf	-4230
▁vivons	-4231
▁yahweh	-4232
▁lettres	-4233
▁persuad	-4234
interroge	-4235
éma	-4236
▁mu	-4237
arie	-4238
cari	-4239
èbre	-4240
▁dat	-4241
▁gaz	-4242
ament	-4243
oquer	-4244
▁défi	-4245
▁papa	-4246
▁stru	-4247
ration	-4248
écrire	-4249
▁abord	-4250
▁buvez	-4251
▁seize	-4252
obtenir	-4253
▁compat	-4254
▁forces	-4255
▁iscari	-4256
▁sodome	-4257
▁condolé	-4258
▁dizaine	-4259
existence	-4260
▁demeures	-4261
▁protéger	-4262
▁souffrir	-4263
obéissance	-4264
anniversaire	-4265
▁possibilité	-4266
▁af	-4267
▁aî	-4268
▁aid	-4269
▁iss	-4270
▁tal	-4271
▁rout	-4272
itaire	-4273
intérêt	-4274
▁dirais	-4275
▁prénom	-4276
▁réserv	-4277
istiques	-4278
▁devenue	-4279
intéresse	-4280
▁benjamin	-4281
▁recevrez	-4282
▁victoire	-4283
▁actuellement	-4284
▁connaissances	-4285
acé	-4286
dis	-4287
ori	-4288
avan	-4289
haut	-4290
▁jap	-4291
▁mas	-4292
ensés	-4293
habit	-4294
trait	-4295
▁moab	-4296
euvres	-4297
ivités	-4298
▁quart	-4299
▁égard	-4300
oublier	-4301
▁achevé	-4302
▁devint	-4303
▁interv	-4304
▁regret	-4305
empereur	-4306
▁croyant	-4307
▁moisson	-4308
▁moments	-4309
▁propose	-4310
▁remerci	-4311
▁tombeau	-4312
uellement	-4313
▁efficace	-4314
▁victimes	-4315
▁adolescents	-4316
ensé	-4317
▁nic	-4318
ouest	-4319
trois	-4320
▁futur	-4321
érieure	-4322
▁restau	-4323
▁aveugle	-4324
▁instant	-4325
▁possède	-4326
▁siècles	-4327
▁distance	-4328
▁seraient	-4329
ts	-4330
!!!	-4331
oam	-4332
▁na	-4333
▁us	-4334
oqué	-4335
▁har	-4336
agent	-4337
aveug	-4338
vingt	-4339
entiel	-4340
ieuses	-4341
nation	-4342
offrir	-4343
▁ordre	-4344
▁scène	-4345
▁âgées	-4346
essalon	-4347
▁soumis	-4348
▁défense	-4349
▁prirent	-4350
▁commença	-4351
▁constitu	-4352
▁comprends	-4353
▁retrouver	-4354
▁changement	-4355
▁importante	-4356
yn	-4357
orr	-4358
▁ii	-4359
adam	-4360
émat	-4361
assin	-4362
autés	-4363
▁saul	-4364
▁âgés	-4365
otions	-4366
▁sarah	-4367
oreille	-4368
▁beauté	-4369
▁couple	-4370
▁nouvel	-4371
▁pleurs	-4372
▁sortis	-4373
▁souver	-4374
▁venues	-4375
▁combatt	-4376
▁discuss	-4377
▁pensent	-4378
▁enceinte	-4379
▁lesquels	-4380
▁oreilles	-4381
▁attendant	-4382
▁ministère	-4383
▁génération	-4384
ki	-4385
phe	-4386
élo	-4387
▁mi	-4388
accr	-4389
osse	-4390
▁top	-4391
▁vir	-4392
autom	-4393
gment	-4394
élève	-4395
▁aperç	-4396
▁décès	-4397
▁japon	-4398
▁régul	-4399
▁élevé	-4400
istance	-4401
▁adulte	-4402
▁limite	-4403
▁tenait	-4404
▁tribun	-4405
▁connait	-4406
▁gentils	-4407
▁mention	-4408
▁contrôle	-4409
▁glorifié	-4410
▁poursuit	-4411
▁retourné	-4412
▁veuillez	-4413
▁demandent	-4414
▁permettre	-4415
▁protection	-4416
ami	-4417
oig	-4418
enti	-4419
yrie	-4420
▁job	-4421
atifs	-4422
atives	-4423
▁grave	-4424
▁tenté	-4425
environ	-4426
▁auront	-4427
▁partis	-4428
▁revint	-4429
▁hauteur	-4430
▁raconte	-4431
▁silence	-4432
▁explique	-4433
▁reprises	-4434
▁trouvera	-4435
▁enseignait	-4436
bum	-4437
ith	-4438
atte	-4439
iées	-4440
▁kil	-4441
▁lot	-4442
▁anti	-4443
▁cool	-4444
▁pars	-4445
▁pont	-4446
▁vues	-4447
phraïm	-4448
yptiens	-4449
▁amoure	-4450
▁devoir	-4451
▁enlevé	-4452
▁refuse	-4453
▁repris	-4454
▁risque	-4455
▁soeurs	-4456
▁écrits	-4457
▁disparu	-4458
▁oeuvres	-4459
▁conduire	-4460
▁passeront	-4461
▁rencontré	-4462
▁thessalon	-4463
▁enseignera	-4464
▁importants	-4465
▁magnifique	-4466
▁télévision	-4467
▁continuellement	-4468
oû	-4469
ara	-4470
▁gé	-4471
orie	-4472
ustr	-4473
ypse	-4474
êché	-4475
porte	-4476
▁aidé	-4477
▁crit	-4478
▁dign	-4479
▁elie	-4480
▁pros	-4481
▁sert	-4482
envers	-4483
erture	-4484
▁dirai	-4485
▁ignor	-4486
▁lampe	-4487
▁liens	-4488
▁discut	-4489
▁reprit	-4490
▁passent	-4491
▁craignent	-4492
▁particulier	-4493
ock	-4494
éle	-4495
oule	-4496
▁civ	-4497
▁fui	-4498
▁mut	-4499
▁œil	-4500
aisse	-4501
erait	-4502
▁serp	-4503
▁vend	-4504
luence	-4505
unique	-4506
▁thème	-4507
▁change	-4508
▁connue	-4509
▁obtenu	-4510
▁sachez	-4511
▁venant	-4512
interrog	-4513
▁intérêt	-4514
▁régions	-4515
issements	-4516
▁allemand	-4517
▁considéré	-4518
▁quatrième	-4519
▁expérience	-4520
▁traitement	-4521
nel	-4522
intr	-4523
itez	-4524
▁adm	-4525
raord	-4526
zième	-4527
▁subs	-4528
▁vari	-4529
▁chien	-4530
entends	-4531
èvement	-4532
▁ferait	-4533
▁phénom	-4534
▁veuves	-4535
▁compréh	-4536
▁méchanc	-4537
▁serment	-4538
▁utilisé	-4539
▁présenté	-4540
▁messagers	-4541
▁religions	-4542
▁appartient	-4543
▁clairement	-4544
▁profondément	-4545
ox	-4546
yle	-4547
▁tâ	-4548
alle	-4549
èces	-4550
▁intr	-4551
▁lent	-4552
emploi	-4553
▁chaud	-4554
▁porté	-4555
▁sacré	-4556
ifiques	-4557
▁course	-4558
ocalypse	-4559
offrande	-4560
▁affaires	-4561
▁messager	-4562
▁résister	-4563
▁meilleurs	-4564
▁pardonnez	-4565
▁destruction	-4566
▁responsable	-4567
réd	-4568
▁ci	-4569
▁fus	-4570
oudre	-4571
▁rose	-4572
▁surf	-4573
engage	-4574
entraî	-4575
ueille	-4576
▁avril	-4577
▁héros	-4578
▁étiez	-4579
aliment	-4580
▁attent	-4581
▁faible	-4582
evangile	-4583
▁conserv	-4584
▁remplis	-4585
▁apprécié	-4586
▁conduite	-4587
▁jonathan	-4588
▁transform	-4589
interprétation	-4590
édé	-4591
éte	-4592
anti	-4593
icles	-4594
▁agit	-4595
▁purs	-4596
▁trah	-4597
▁amené	-4598
▁félic	-4599
écouter	-4600
▁action	-4601
▁déroul	-4602
▁saison	-4603
▁enverra	-4604
▁extrême	-4605
▁sachiez	-4606
▁églises	-4607
▁coupable	-4608
obligation	-4609
▁autrefois	-4610
▁ressemble	-4611
▁spirituel	-4612
▁préférable	-4613
▁sanctifiés	-4614
▁signifiait	-4615
▁bienveillance	-4616
.'	-4617
ka	-4618
aig	-4619
hon	-4620
uls	-4621
rase	-4622
émin	-4623
▁fur	-4624
agnol	-4625
impos	-4626
▁note	-4627
▁perf	-4628
▁prét	-4629
▁suit	-4630
enfuit	-4631
issons	-4632
▁adapt	-4633
▁dormi	-4634
▁forts	-4635
affaire	-4636
enfance	-4637
▁espoir	-4638
▁publié	-4639
▁vallée	-4640
adultère	-4641
issaient	-4642
▁célèbre	-4643
▁trésors	-4644
▁arrivera	-4645
▁palestin	-4646
▁autrement	-4647
▁présenter	-4648
▁disponible	-4649
ya	-4650
orn	-4651
alom	-4652
allem	-4653
anges	-4654
ôpital	-4655
▁dépos	-4656
acement	-4657
ocation	-4658
▁aiment	-4659
▁essayé	-4660
▁guérir	-4661
amérique	-4662
▁méthode	-4663
▁écoutez	-4664
▁autorité	-4665
▁souriait	-4666
▁correspond	-4667
▁méchanceté	-4668
▁poursuivre	-4669
▁déclaration	-4670
▁complètement	-4671
▁enseignement	-4672
▁probablement	-4673
▁--	-4674
▁cav	-4675
▁dor	-4676
asses	-4677
obile	-4678
écris	-4679
▁boit	-4680
▁prog	-4681
▁spéc	-4682
▁inqui	-4683
▁milli	-4684
▁nourr	-4685
assyrie	-4686
▁connus	-4687
▁désign	-4688
▁fautes	-4689
▁larmes	-4690
▁quinze	-4691
▁tranqu	-4692
▁visité	-4693
▁guerres	-4694
▁préparé	-4695
▁levèrent	-4696
▁province	-4697
▁rappelle	-4698
▁vêtement	-4699
abandonner	-4700
▁espérance	-4701
▁programme	-4702
▁reprendre	-4703
▁personnage	-4704
▁conséquences	-4705
ep	-4706
uch	-4707
deux	-4708
omas	-4709
quat	-4710
éter	-4711
▁cri	-4712
▁nett	-4713
▁zone	-4714
habite	-4715
▁prête	-4716
▁cinéma	-4717
▁marthe	-4718
▁police	-4719
▁suffis	-4720
endormir	-4721
▁contact	-4722
▁mystère	-4723
appellera	-4724
installer	-4725
opération	-4726
▁cherchent	-4727
▁demandait	-4728
▁étudiants	-4729
▁comportement	-4730
▁supplémentaires	-4731
cri	-4732
hés	-4733
extr	-4734
uler	-4735
▁pla	-4736
▁sér	-4737
▁tab	-4738
▁web	-4739
▁crée	-4740
▁pire	-4741
▁cadre	-4742
▁coups	-4743
▁peter	-4744
▁press	-4745
▁soign	-4746
▁attrib	-4747
▁républ	-4748
▁arrière	-4749
▁limites	-4750
▁parcour	-4751
▁rendons	-4752
▁retenir	-4753
▁symbole	-4754
abandonne	-4755
administr	-4756
▁dizaines	-4757
▁iscariote	-4758
▁processus	-4759
▁différente	-4760
▁commentaire	-4761
▁descendance	-4762
▁travaillent	-4763
ru	-4764
▁ls	-4765
alie	-4766
ître	-4767
▁???	-4768
▁nab	-4769
épous	-4770
▁boul	-4771
▁litt	-4772
humain	-4773
utions	-4774
▁ayons	-4775
▁auriez	-4776
▁royale	-4777
▁réunis	-4778
▁laissée	-4779
embrasser	-4780
▁alliance	-4781
▁auraient	-4782
▁boissons	-4783
▁véhicule	-4784
▁absolument	-4785
▁trouvaient	-4786
▁demandèrent	-4787
▁ev	-4788
▁mc	-4789
rale	-4790
èche	-4791
▁rad	-4792
▁sab	-4793
utile	-4794
▁abre	-4795
▁lead	-4796
▁nuée	-4797
▁rang	-4798
▁vier	-4799
▁envis	-4800
▁hérit	-4801
empêche	-4802
▁aspect	-4803
▁désire	-4804
▁entret	-4805
▁levain	-4806
▁métier	-4807
▁parent	-4808
▁prions	-4809
▁soirée	-4810
▁sépare	-4811
▁voyait	-4812
▁combats	-4813
▁réunion	-4814
▁suivirent	-4815
▁viendront	-4816
▁gouverneur	-4817
▁sentiments	-4818
▁malheureusement	-4819
ba	-4820
oici	-4821
rain	-4822
▁fan	-4823
aaron	-4824
▁midi	-4825
▁moit	-4826
▁unis	-4827
▁peint	-4828
▁revêt	-4829
▁soucis	-4830
échapper	-4831
▁regardé	-4832
▁commande	-4833
▁crucifié	-4834
▁physique	-4835
▁considère	-4836
▁développement	-4837
éen	-4838
ades	-4839
anou	-4840
book	-4841
ench	-4842
▁emm	-4843
avage	-4844
islam	-4845
oigne	-4846
prime	-4847
▁chât	-4848
▁hait	-4849
▁somm	-4850
enfuir	-4851
▁accus	-4852
▁incap	-4853
▁outre	-4854
▁ramen	-4855
▁servi	-4856
hôpital	-4857
install	-4858
▁abreuv	-4859
▁devais	-4860
▁disons	-4861
▁hérode	-4862
accueill	-4863
▁affaire	-4864
▁commune	-4865
▁méchant	-4866
▁passera	-4867
▁quantité	-4868
▁sûrement	-4869
▁compagnie	-4870
▁puissants	-4871
▁écritures	-4872
accompagner	-4873
▁impression	-4874
aj	-4875
œu	-4876
aid	-4877
ani	-4878
ger	-4879
ôme	-4880
▁ge	-4881
agré	-4882
iche	-4883
isez	-4884
obil	-4885
▁cur	-4886
▁pap	-4887
▁rat	-4888
aperç	-4889
oboam	-4890
voici	-4891
▁code	-4892
arrêta	-4893
manuel	-4894
▁ouvre	-4895
▁réput	-4896
▁situé	-4897
▁siège	-4898
▁classe	-4899
▁collab	-4900
▁apparut	-4901
▁héritage	-4902
▁ouvriers	-4903
▁émotions	-4904
▁prophétie	-4905
application	-4906
explication	-4907
▁répondirent	-4908
▁réfléchissez	-4909
aul	-4910
yth	-4911
alph	-4912
▁idi	-4913
▁berg	-4914
▁fest	-4915
▁irré	-4916
▁scol	-4917
▁corée	-4918
▁musul	-4919
▁pièce	-4920
▁apôtre	-4921
▁guéris	-4922
▁persév	-4923
▁thomas	-4924
▁veille	-4925
▁couleur	-4926
▁planète	-4927
▁jeunesse	-4928
▁tendance	-4929
▁caractère	-4930
▁semblables	-4931
▁extrêmement	-4932
▁condoléances	-4933
▁responsables	-4934
cs	-4935
▁km	-4936
ceur	-4937
▁blé	-4938
▁buv	-4939
▁vag	-4940
ignes	-4941
▁dent	-4942
▁doll	-4943
ulaire	-4944
▁fatig	-4945
▁gardé	-4946
▁juive	-4947
▁meure	-4948
▁bétail	-4949
▁cartes	-4950
▁ordres	-4951
▁priant	-4952
▁recons	-4953
▁rentré	-4954
▁sentir	-4955
▁située	-4956
▁tienne	-4957
▁tombée	-4958
▁accordé	-4959
▁matière	-4960
▁revanche	-4961
expression	-4962
▁chapitres	-4963
▁promesses	-4964
▁souverain	-4965
▁pourraient	-4966
▁résistance	-4967
▁directement	-4968
▁sacrificateurs	-4969
inn	-4970
uil	-4971
anci	-4972
aube	-4973
▁adv	-4974
▁ath	-4975
▁déd	-4976
▁mél	-4977
ageux	-4978
envie	-4979
élité	-4980
▁prud	-4981
▁réel	-4982
▁autom	-4983
▁catég	-4984
▁etats	-4985
aissent	-4986
aveugle	-4987
▁craint	-4988
▁entrée	-4989
▁hébreu	-4990
▁acheter	-4991
▁apprend	-4992
▁prépare	-4993
▁devrions	-4994
▁diverses	-4995
▁interrog	-4996
▁prochaine	-4997
▁rejoindre	-4998
▁satisfait	-4999
▁israéliens	-5000
▁principaux	-5001
▁révélation	-5002
▁samaritains	-5003
dix	-5004
oun	-5005
▁az	-5006
actu	-5007
imin	-5008
irmé	-5009
tras	-5010
érés	-5011
▁and	-5012
▁lév	-5013
▁sén	-5014
emmen	-5015
oisse	-5016
osité	-5017
oyens	-5018
▁gest	-5019
effect	-5020
▁aidez	-5021
▁armée	-5022
▁confl	-5023
▁céléb	-5024
▁hypoc	-5025
▁instr	-5026
▁monte	-5027
▁posit	-5028
▁prévu	-5029
▁tenez	-5030
▁caphar	-5031
▁chasse	-5032
▁flamme	-5033
▁moitié	-5034
▁appeler	-5035
▁dispose	-5036
▁pécheur	-5037
▁ressour	-5038
▁stupide	-5039
▁empêcher	-5040
▁résoudre	-5041
▁cinquième	-5042
▁personnel	-5043
▁république	-5044
▁constamment	-5045
yd	-5046
omn	-5047
▁fe	-5048
▁jn	-5049
amis	-5050
uise	-5051
▁lsg	-5052
▁mén	-5053
▁bure	-5054
▁fant	-5055
▁mène	-5056
▁opér	-5057
aucune	-5058
ilités	-5059
▁avais	-5060
▁jette	-5061
▁récit	-5062
▁style	-5063
▁employ	-5064
▁pousse	-5065
annoncer	-5066
▁distrib	-5067
▁espèces	-5068
▁revient	-5069
▁verront	-5070
▁étonnés	-5071
▁abreuvés	-5072
▁croyance	-5073
▁parcours	-5074
▁prennent	-5075
entreprise	-5076
▁croyances	-5077
▁entendant	-5078
▁mauvaises	-5079
▁mouvement	-5080
▁principal	-5081
▁rendirent	-5082
▁prisonnier	-5083
▁différences	-5084
▁palestiniens	-5085
▁propriétaire	-5086
▁véritablement	-5087
pes	-5088
▁er	-5089
▁os	-5090
ache	-5091
oloc	-5092
uent	-5093
athie	-5094
impôt	-5095
intég	-5096
▁doux	-5097
▁médi	-5098
▁week	-5099
observ	-5100
▁fréqu	-5101
▁fémin	-5102
▁levée	-5103
▁merve	-5104
▁simil	-5105
édition	-5106
▁banque	-5107
▁divine	-5108
▁former	-5109
▁garant	-5110
▁marqué	-5111
▁origin	-5112
▁routes	-5113
▁sujets	-5114
applique	-5115
humilité	-5116
▁raconté	-5117
▁surface	-5118
améliorer	-5119
▁consiste	-5120
▁enseigne	-5121
▁imbécile	-5122
▁invitons	-5123
▁notamment	-5124
▁pardonnés	-5125
▁chrétienne	-5126
▁évidemment	-5127
fe	-5128
rie	-5129
▁he	-5130
▁pun	-5131
▁tor	-5132
areil	-5133
celui	-5134
▁symp	-5135
▁vain	-5136
appréc	-5137
autant	-5138
introd	-5139
▁lundi	-5140
▁match	-5141
▁mérit	-5142
▁noces	-5143
▁resta	-5144
▁soeur	-5145
▁souci	-5146
▁éclat	-5147
olocaus	-5148
▁acheté	-5149
▁droits	-5150
▁mangez	-5151
▁pleuré	-5152
▁suivit	-5153
▁voleur	-5154
ecriture	-5155
▁aillent	-5156
▁docteur	-5157
▁entrepr	-5158
▁jéroboam	-5159
▁maladies	-5160
▁remettre	-5161
▁milliards	-5162
▁réveillée	-5163
▁troupeaux	-5164
▁accompagné	-5165
▁connaissez	-5166
adel	-5167
cipl	-5168
rité	-5169
âtre	-5170
▁mor	-5171
▁rig	-5172
▁agir	-5173
▁bleu	-5174
▁dort	-5175
▁remb	-5176
▁sexe	-5177
atures	-5178
excell	-5179
ouvrir	-5180
▁auxqu	-5181
▁délai	-5182
▁franc	-5183
▁maîtr	-5184
▁écoul	-5185
blement	-5186
▁bethlé	-5187
▁client	-5188
▁fleurs	-5189
▁idoles	-5190
position	-5191
▁chevaux	-5192
▁confort	-5193
▁devriez	-5194
▁domaine	-5195
▁faisais	-5196
▁louange	-5197
▁regards	-5198
▁environs	-5199
▁demeurent	-5200
▁descendre	-5201
▁ephésiens	-5202
▁supérieur	-5203
▁énormément	-5204
▁reconnaître	-5205
▁conformément	-5206
▁reconnaissance	-5207
uée	-5208
agés	-5209
▁blas	-5210
▁pert	-5211
▁renf	-5212
▁sûre	-5213
▁évol	-5214
▁jugés	-5215
▁marqu	-5216
▁surpr	-5217
▁vainc	-5218
▁dessin	-5219
▁distin	-5220
▁parles	-5221
▁quitte	-5222
▁remont	-5223
▁rendra	-5224
▁règles	-5225
accepter	-5226
registre	-5227
▁dispers	-5228
▁malheur	-5229
▁versets	-5230
▁capharna	-5231
▁dépasser	-5232
▁qualités	-5233
▁soumises	-5234
▁descendit	-5235
▁premières	-5236
▁supporter	-5237
▁dirigeants	-5238
urb	-5239
oids	-5240
assés	-5241
auras	-5242
▁lond	-5243
▁mien	-5244
▁moqu	-5245
avança	-5246
▁aimée	-5247
▁améli	-5248
▁bienv	-5249
▁bêtes	-5250
▁guéri	-5251
▁médec	-5252
▁stupé	-5253
ulation	-5254
▁ancien	-5255
▁crédit	-5256
▁entour	-5257
▁envoie	-5258
▁livrer	-5259
▁éprouv	-5260
abandonn	-5261
illement	-5262
objectif	-5263
▁déclara	-5264
▁meurent	-5265
▁petites	-5266
▁ressens	-5267
▁restait	-5268
▁réjouir	-5269
▁vivante	-5270
▁actuelle	-5271
▁persuadé	-5272
▁réaliser	-5273
▁accomplie	-5274
▁demandons	-5275
▁forcément	-5276
accomplisse	-5277
▁apocalypse	-5278
anie	-5279
ctes	-5280
etat	-5281
ires	-5282
oeil	-5283
quér	-5284
▁jeû	-5285
▁kar	-5286
enses	-5287
itant	-5288
âteau	-5289
▁bann	-5290
▁conj	-5291
▁mach	-5292
▁pure	-5293
▁séch	-5294
étique	-5295
éviter	-5296
▁lions	-5297
▁placé	-5298
▁reine	-5299
▁sépul	-5300
▁acquis	-5301
▁avions	-5302
▁empêch	-5303
▁textes	-5304
▁affirme	-5305
▁couvrir	-5306
▁devrais	-5307
▁discipl	-5308
▁divorce	-5309
▁magistr	-5310
ouchement	-5311
▁baptiste	-5312
▁conduits	-5313
▁pardonné	-5314
▁voitures	-5315
▁combattre	-5316
▁connaissait	-5317
▁merveilleux	-5318
▁personnages	-5319
sh	-5320
ti	-5321
xi	-5322
don	-5323
fum	-5324
umé	-5325
ver	-5326
acte	-5327
ensi	-5328
égal	-5329
▁cér	-5330
estre	-5331
ouill	-5332
affirm	-5333
▁sympa	-5334
▁affect	-5335
▁emport	-5336
▁empris	-5337
▁madame	-5338
▁manqué	-5339
▁romain	-5340
▁vieill	-5341
▁convert	-5342
▁londres	-5343
▁reviens	-5344
▁facebook	-5345
▁sentiers	-5346
appartient	-5347
▁autorités	-5348
▁justement	-5349
▁populaire	-5350
▁perfection	-5351
▁rappellera	-5352
▁disponibles	-5353
▁importantes	-5354
▁mt	-5355
▁sm	-5356
onnu	-5357
ôtel	-5358
▁bêt	-5359
▁arch	-5360
▁race	-5361
essaye	-5362
▁bébés	-5363
▁feras	-5364
▁jugez	-5365
▁morce	-5366
▁parab	-5367
▁vertu	-5368
▁voile	-5369
▁fausse	-5370
▁jambes	-5371
▁leçons	-5372
▁perman	-5373
▁réconc	-5374
▁sentez	-5375
iniquité	-5376
piration	-5377
▁composé	-5378
▁douceur	-5379
▁exhorte	-5380
▁prenant	-5381
▁précisé	-5382
▁troupes	-5383
abondance	-5384
▁extraord	-5385
▁principe	-5386
▁servante	-5387
▁apprennent	-5388
▁trouvèrent	-5389
aa	-5390
ulé	-5391
anne	-5392
argn	-5393
ecte	-5394
hent	-5395
otte	-5396
ésie	-5397
▁mel	-5398
▁sév	-5399
▁tit	-5400
effet	-5401
ister	-5402
▁gaza	-5403
▁hont	-5404
▁payé	-5405
▁fleur	-5406
▁spect	-5407
engager	-5408
ephraïm	-5409
istique	-5410
▁animal	-5411
▁confié	-5412
▁grosse	-5413
▁invite	-5414
▁plaire	-5415
▁économ	-5416
▁cadeaux	-5417
▁circons	-5418
▁dollars	-5419
▁pensons	-5420
▁science	-5421
▁serpent	-5422
▁soutien	-5423
▁défendre	-5424
▁implique	-5425
▁tribunal	-5426
▁fonctionn	-5427
▁justifiés	-5428
▁religieux	-5429
▁discussion	-5430
▁décourager	-5431
▁descendants	-5432
▁généralement	-5433
▁éternellement	-5434
▁thessaloniciens	-5435
of	-5436
abe	-5437
ané	-5438
alog	-5439
dieu	-5440
lant	-5441
ouvr	-5442
trap	-5443
▁gom	-5444
▁lié	-5445
ressi	-5446
▁etes	-5447
▁mépr	-5448
▁qual	-5449
olique	-5450
▁bénit	-5451
▁exauc	-5452
▁froid	-5453
▁gross	-5454
▁kilom	-5455
▁poids	-5456
▁prouv	-5457
▁réfug	-5458
ouvrage	-5459
▁canada	-5460
▁genèse	-5461
▁oiseau	-5462
▁touche	-5463
▁vierge	-5464
▁oublier	-5465
▁plantes	-5466
▁remarqu	-5467
▁sortent	-5468
▁amoureux	-5469
▁attendez	-5470
▁barnabas	-5471
▁campagne	-5472
▁chrétien	-5473
▁tiennent	-5474
▁enseignant	-5475
▁pleinement	-5476
▁rencontrer	-5477
▁condamnation	-5478
ash	-5479
ial	-5480
rel	-5481
rin	-5482
ocat	-5483
▁eve	-5484
▁jur	-5485
▁str	-5486
ormes	-5487
èdent	-5488
éclat	-5489
▁haïs	-5490
▁joab	-5491
▁lour	-5492
▁séle	-5493
▁vive	-5494
▁épre	-5495
▁épée	-5496
entour	-5497
iences	-5498
▁armes	-5499
▁douce	-5500
▁final	-5501
▁plong	-5502
▁récol	-5503
▁régna	-5504
▁veill	-5505
accepte	-5506
asseoir	-5507
▁bureau	-5508
▁emploi	-5509
▁espèce	-5510
▁mépris	-5511
▁parfum	-5512
▁penses	-5513
▁priait	-5514
▁rendus	-5515
▁sermon	-5516
▁vidéos	-5517
▁volont	-5518
▁études	-5519
arrivait	-5520
entrerez	-5521
intéress	-5522
▁chemins	-5523
▁rendait	-5524
▁vouloir	-5525
expliquer	-5526
▁espérons	-5527
▁entrèrent	-5528
▁réflexion	-5529
▁événement	-5530
▁ressources	-5531
▁principales	-5532
▁accomplissez	-5533
oh	-5534
aly	-5535
▁go	-5536
▁ja	-5537
apes	-5538
ates	-5539
brer	-5540
ranl	-5541
roch	-5542
▁jeh	-5543
▁ray	-5544
▁vég	-5545
▁coût	-5546
▁perp	-5547
▁romp	-5548
cevoir	-5549
ignore	-5550
prouve	-5551
étions	-5552
▁accès	-5553
▁album	-5554
▁avanc	-5555
▁monta	-5556
▁assure	-5557
▁boulev	-5558
▁cancer	-5559
▁désobé	-5560
▁mourra	-5561
▁portug	-5562
▁quator	-5563
▁sommet	-5564
identité	-5565
ographie	-5566
versaire	-5567
▁disting	-5568
▁mangent	-5569
▁articles	-5570
▁aveugles	-5571
▁confront	-5572
▁provient	-5573
▁américain	-5574
▁possibles	-5575
▁arriveront	-5576
▁découverte	-5577
▁entreprise	-5578
▁réalisation	-5579
▁sincèrement	-5580
▁intelligence	-5581
ura	-5582
▁??	-5583
ende	-5584
indi	-5585
reux	-5586
▁cer	-5587
▁opt	-5588
▁the	-5589
▁vig	-5590
etait	-5591
illon	-5592
orent	-5593
ulité	-5594
▁goût	-5595
▁oliv	-5596
▁tais	-5597
animal	-5598
effond	-5599
espace	-5600
éclair	-5601
▁chute	-5602
▁doctr	-5603
▁latin	-5604
▁tiers	-5605
▁tuent	-5606
▁caïphe	-5607
▁circul	-5608
▁irrépr	-5609
▁littér	-5610
▁objets	-5611
▁restez	-5612
▁sombre	-5613
▁terres	-5614
▁voisin	-5615
▁artiste	-5616
▁complex	-5617
▁compose	-5618
▁coucher	-5619
▁essayez	-5620
▁manassé	-5621
▁vieille	-5622
quisition	-5623
▁aiguille	-5624
▁centaine	-5625
▁chambres	-5626
▁détruits	-5627
▁reconstr	-5628
▁tenaient	-5629
▁imbéciles	-5630
▁politesse	-5631
▁sortirent	-5632
.:	-5633
fais	-5634
hous	-5635
▁tri	-5636
ajout	-5637
ouvre	-5638
▁bref	-5639
▁culp	-5640
▁fall	-5641
▁murs	-5642
▁russ	-5643
atique	-5644
ricult	-5645
termin	-5646
▁allée	-5647
▁films	-5648
▁guide	-5649
▁large	-5650
▁panne	-5651
affront	-5652
inaires	-5653
▁diront	-5654
▁figure	-5655
▁partit	-5656
▁régime	-5657
▁réveil	-5658
▁chacune	-5659
▁chaleur	-5660
▁convers	-5661
▁césarée	-5662
▁ordonna	-5663
▁rendant	-5664
▁univers	-5665
▁quartier	-5666
▁remarqué	-5667
▁réfléchir	-5668
organisation	-5669
▁personnellement	-5670
ds	-5671
had	-5672
oué	-5673
roy	-5674
rui	-5675
▁ly	-5676
dite	-5677
enci	-5678
icie	-5679
rach	-5680
▁hél	-5681
▁mos	-5682
▁tur	-5683
ettez	-5684
▁ital	-5685
▁relâ	-5686
▁sing	-5687
▁zach	-5688
ercice	-5689
uation	-5690
ucteur	-5691
▁crise	-5692
▁pêche	-5693
▁tirer	-5694
adressa	-5695
▁famili	-5696
▁introd	-5697
▁mienne	-5698
▁phrase	-5699
▁procéd	-5700
▁relève	-5701
▁rempli	-5702
▁signal	-5703
▁touché	-5704
▁tourné	-5705
▁cuisine	-5706
▁définit	-5707
▁journal	-5708
▁nourrir	-5709
▁permett	-5710
▁périsse	-5711
▁reposer	-5712
esclavage	-5713
▁faudrait	-5714
intéresser	-5715
▁bienheure	-5716
▁découvrir	-5717
▁gravement	-5718
▁propriété	-5719
▁permettent	-5720
▁reviennent	-5721
accouchement	-5722
▁préparation	-5723
▁témoignages	-5724
▁communication	-5725
isl	-5726
onu	-5727
ués	-5728
▁éb	-5729
évén	-5730
▁new	-5731
▁tyr	-5732
andre	-5733
mment	-5734
▁cria	-5735
▁nath	-5736
▁damas	-5737
▁grèce	-5738
▁haïss	-5739
▁laban	-5740
▁levez	-5741
▁perte	-5742
▁végét	-5743
épisode	-5744
▁blasph	-5745
▁histor	-5746
▁passés	-5747
▁prêché	-5748
▁considé	-5749
▁donnant	-5750
▁femelle	-5751
▁hommage	-5752
▁hauteurs	-5753
▁internet	-5754
▁rappelez	-5755
▁rembours	-5756
▁souriant	-5757
▁soutenir	-5758
▁suivants	-5759
▁violence	-5760
▁bienfaits	-5761
▁directeur	-5762
▁entendent	-5763
gé	-5764
erl	-5765
isc	-5766
ita	-5767
abel	-5768
adap	-5769
ands	-5770
uels	-5771
unes	-5772
écran	-5773
▁perc	-5774
▁sien	-5775
▁desse	-5776
▁énerv	-5777
▁ajouta	-5778
▁chante	-5779
▁démont	-5780
▁parten	-5781
▁réseau	-5782
▁saisit	-5783
▁équipe	-5784
activité	-5785
ignation	-5786
écoutent	-5787
▁aspects	-5788
▁donnait	-5789
▁empêche	-5790
▁mesures	-5791
▁regarda	-5792
▁remport	-5793
▁évident	-5794
▁capacité	-5795
▁divinité	-5796
▁longueur	-5797
▁parvenus	-5798
▁secondes	-5799
▁offrandes	-5800
▁égyptiens	-5801
▁habitaient	-5802
▁merveilles	-5803
▁spirituels	-5804
▁changements	-5805
▁connaissons	-5806
lo	-5807
uts	-5808
▁iv	-5809
dess	-5810
neuf	-5811
▁eau	-5812
▁joy	-5813
envol	-5814
herbe	-5815
invit	-5816
osoph	-5817
quand	-5818
rites	-5819
▁dame	-5820
▁fich	-5821
▁mets	-5822
▁vide	-5823
images	-5824
▁james	-5825
▁lancé	-5826
▁tuées	-5827
▁élect	-5828
animaux	-5829
emparer	-5830
▁affirm	-5831
▁apparu	-5832
▁chiens	-5833
▁encour	-5834
▁exclus	-5835
▁habitu	-5836
▁imagin	-5837
▁lutter	-5838
▁normal	-5839
appareil	-5840
apporter	-5841
▁ajouter	-5842
▁garçons	-5843
▁psaumes	-5844
influence	-5845
▁enseigné	-5846
▁prescrit	-5847
▁compliqué	-5848
▁phénomène	-5849
▁kilomètres	-5850
▁possession	-5851
établissement	-5852
do	-5853
st	-5854
ulg	-5855
▁mg	-5856
orge	-5857
▁agi	-5858
▁fab	-5859
▁inn	-5860
comme	-5861
hanie	-5862
itent	-5863
quent	-5864
sière	-5865
ustes	-5866
zaine	-5867
▁amus	-5868
▁larg	-5869
▁soif	-5870
aspect	-5871
ombres	-5872
quérir	-5873
▁acces	-5874
▁danse	-5875
▁deuil	-5876
▁domic	-5877
▁démar	-5878
▁modes	-5879
▁modif	-5880
▁utile	-5881
▁époux	-5882
housias	-5883
parents	-5884
urgence	-5885
écution	-5886
▁frappé	-5887
▁gomorr	-5888
▁passée	-5889
▁portée	-5890
▁racine	-5891
▁remise	-5892
▁virent	-5893
explique	-5894
ressions	-5895
éloigner	-5896
▁décider	-5897
▁renonce	-5898
▁secrets	-5899
▁tableau	-5900
ouverture	-5901
▁béthanie	-5902
▁carrière	-5903
▁gentille	-5904
▁habitent	-5905
▁insensés	-5906
▁intellig	-5907
▁totalité	-5908
▁accueilli	-5909
▁rendaient	-5910
▁production	-5911
▁internation	-5912
gg	-5913
opr	-5914
oupe	-5915
▁cle	-5916
▁nat	-5917
▁tut	-5918
▁vih	-5919
aison	-5920
primé	-5921
▁amie	-5922
▁anne	-5923
▁dise	-5924
▁poin	-5925
anches	-5926
envoya	-5927
prêtre	-5928
quatre	-5929
épaiss	-5930
▁créée	-5931
▁redev	-5932
▁situe	-5933
▁voyag	-5934
appeler	-5935
itaires	-5936
▁adorer	-5937
▁armées	-5938
▁croiss	-5939
▁embarr	-5940
▁misère	-5941
▁oeuvre	-5942
▁posent	-5943
▁totale	-5944
▁transg	-5945
rédulité	-5946
▁attendu	-5947
▁augment	-5948
▁concept	-5949
▁délivre	-5950
▁honteux	-5951
▁renvoie	-5952
accomplit	-5953
▁contient	-5954
▁couronne	-5955
▁huitième	-5956
▁surprise	-5957
▁venaient	-5958
enregistre	-5959
▁efficaces	-5960
▁irréproch	-5961
▁philosoph	-5962
▁légèrement	-5963
▁magistrats	-5964
▁conséquence	-5965
accompagnement	-5966
aér	-5967
eul	-5968
exh	-5969
fils	-5970
▁nus	-5971
▁put	-5972
▁vac	-5973
oncis	-5974
▁cant	-5975
allais	-5976
emples	-5977
ilibre	-5978
▁abond	-5979
▁congr	-5980
▁dress	-5981
▁isaïe	-5982
▁messi	-5983
▁neige	-5984
▁prest	-5985
▁roman	-5986
▁sable	-5987
▁sport	-5988
▁tâche	-5989
dessous	-5990
▁invité	-5991
▁places	-5992
▁proxim	-5993
▁remerc	-5994
▁bonsoir	-5995
▁choisir	-5996
▁couvert	-5997
▁dorment	-5998
▁fournir	-5999
▁projets	-6000
▁retrait	-6001
▁simples	-6002
▁souffle	-6003
▁suivent	-6004
▁trouvez	-6005
▁activité	-6006
▁gomorrhe	-6007
▁laissant	-6008
▁mensonge	-6009
▁profiter	-6010
▁préparés	-6011
▁écoutent	-6012
▁courageux	-6013
▁fondation	-6014
▁individus	-6015
▁objectifs	-6016
▁présentes	-6017
acquisition	-6018
alimentation	-6019
▁dominations	-6020
▁commentaires	-6021
--	-6022
ix	-6023
arm	-6024
iph	-6025
uth	-6026
vel	-6027
éan	-6028
éra	-6029
agée	-6030
eras	-6031
excl	-6032
insp	-6033
irez	-6034
itée	-6035
oise	-6036
▁air	-6037
▁jal	-6038
▁tue	-6039
initi	-6040
ismes	-6041
tront	-6042
▁alex	-6043
▁brig	-6044
▁mass	-6045
▁maux	-6046
▁neuv	-6047
▁sadd	-6048
▁tire	-6049
assant	-6050
avions	-6051
▁brill	-6052
▁europ	-6053
▁plant	-6054
▁récup	-6055
▁suici	-6056
▁vendu	-6057
▁étape	-6058
actions	-6059
illesse	-6060
ompagne	-6061
écoutes	-6062
▁courir	-6063
▁dirait	-6064
▁formes	-6065
▁gentil	-6066
▁navire	-6067
▁révèle	-6068
▁arrêter	-6069
▁château	-6070
▁ouvrage	-6071
▁propiti	-6072
▁rejoint	-6073
▁tourner	-6074
▁sexuelle	-6075
▁bibliques	-6076
▁condamnés	-6077
▁demandant	-6078
▁dernières	-6079
▁partirent	-6080
▁fonctionne	-6081
▁enseignants	-6082
▁nécessaires	-6083
▁suffisamment	-6084
administration	-6085
▁enseignements	-6086
igé	-6087
amus	-6088
ionn	-6089
▁amb	-6090
inion	-6091
rible	-6092
▁chat	-6093
▁côte	-6094
▁incl	-6095
▁joué	-6096
▁math	-6097
▁vêtu	-6098
ucéens	-6099
▁abatt	-6100
▁expos	-6101
▁initi	-6102
▁leçon	-6103
empress	-6104
▁précip	-6105
▁scient	-6106
itations	-6107
▁boisson	-6108
▁céleste	-6109
▁pourras	-6110
▁bethléem	-6111
▁consacré	-6112
▁démarche	-6113
▁fidélité	-6114
▁messages	-6115
▁national	-6116
▁rappeler	-6117
▁française	-6118
▁incapable	-6119
▁possédait	-6120
▁structure	-6121
▁tentation	-6122
▁éphésiens	-6123
▁étrangère	-6124
▁commettras	-6125
▁considérés	-6126
▁réputation	-6127
▁sadducéens	-6128
intervention	-6129
▁anniversaire	-6130
'.	-6131
),	-6132
ry	-6133
ada	-6134
aré	-6135
hom	-6136
ick	-6137
îme	-6138
▁coû	-6139
amine	-6140
oches	-6141
▁susc	-6142
▁traî	-6143
aminer	-6144
appela	-6145
uments	-6146
▁créés	-6147
▁diras	-6148
▁débat	-6149
▁frais	-6150
▁mères	-6151
▁règle	-6152
▁tomba	-6153
▁viend	-6154
ffranch	-6155
iration	-6156
itution	-6157
▁débuts	-6158
▁graves	-6159
▁nuages	-6160
▁traité	-6161
observer	-6162
▁absalom	-6163
▁gouttes	-6164
▁moindre	-6165
▁attitude	-6166
▁marchent	-6167
▁médicaux	-6168
▁remarque	-6169
▁versions	-6170
▁contraint	-6171
▁maintenir	-6172
▁proximité	-6173
▁sélection	-6174
▁compréhension	-6175
.,	-6176
âh	-6177
oot	-6178
▁ep	-6179
▁gê	-6180
auff	-6181
enri	-6182
iges	-6183
zéch	-6184
▁tar	-6185
▁tom	-6186
alpha	-6187
ammes	-6188
hiver	-6189
idéal	-6190
isait	-6191
ousse	-6192
êteté	-6193
▁acte	-6194
▁choc	-6195
▁coin	-6196
▁fuir	-6197
▁mart	-6198
▁obéi	-6199
▁prol	-6200
▁sugg	-6201
altern	-6202
auront	-6203
▁crime	-6204
▁idées	-6205
▁melch	-6206
▁obéir	-6207
▁saine	-6208
▁sites	-6209
utilise	-6210
égation	-6211
élément	-6212
▁alcool	-6213
▁chauff	-6214
▁chaîne	-6215
▁courte	-6216
▁décide	-6217
▁désirs	-6218
▁franch	-6219
▁inspir	-6220
▁prises	-6221
▁rachel	-6222
▁refuge	-6223
▁repose	-6224
▁retira	-6225
▁répète	-6226
▁écrite	-6227
▁énorme	-6228
▁besoins	-6229
▁moyenne	-6230
▁pratiqu	-6231
▁veillez	-6232
▁visible	-6233
attachera	-6234
enfuirent	-6235
oublierai	-6236
▁bâtiment	-6237
▁document	-6238
▁domicile	-6239
▁lumières	-6240
▁mépriser	-6241
▁christian	-6242
▁portugais	-6243
▁entendirent	-6244
▁tremblement	-6245
aw	-6246
emm	-6247
abbi	-6248
chec	-6249
quit	-6250
sier	-6251
▁bri	-6252
▁héb	-6253
▁pes	-6254
▁sch	-6255
▁tap	-6256
océan	-6257
tures	-6258
éreux	-6259
étonn	-6260
▁doig	-6261
▁fact	-6262
▁plén	-6263
▁tiré	-6264
▁tres	-6265
atrice	-6266
ctures	-6267
excusa	-6268
oquent	-6269
▁auras	-6270
▁copie	-6271
▁ecrit	-6272
▁lance	-6273
▁ouais	-6274
▁versé	-6275
archite	-6276
attache	-6277
horreur	-6278
▁afflig	-6279
▁chants	-6280
▁chargé	-6281
▁humble	-6282
▁terrif	-6283
▁tourne	-6284
▁église	-6285
arrivais	-6286
érieures	-6287
▁détails	-6288
▁meurtre	-6289
▁raisonn	-6290
▁sympath	-6291
▁éternel	-6292
appellent	-6293
▁devienne	-6294
▁espagnol	-6295
▁activités	-6296
▁comprirent	-6297
▁difficulté	-6298
▁permettant	-6299
▁ressemblent	-6300
▁cinquantaine	-6301
▁signification	-6302
▁responsabilité	-6303
oz	-6304
ama	-6305
aum	-6306
enl	-6307
per	-6308
▁ér	-6309
▁ôt	-6310
ball	-6311
gard	-6312
phie	-6313
romp	-6314
▁bis	-6315
▁den	-6316
▁enj	-6317
▁far	-6318
▁sor	-6319
euner	-6320
instr	-6321
ommée	-6322
empire	-6323
▁chron	-6324
▁conçu	-6325
▁dange	-6326
▁durer	-6327
▁foyer	-6328
▁lumin	-6329
▁pacif	-6330
▁écart	-6331
▁double	-6332
▁fortif	-6333
▁guérie	-6334
▁interc	-6335
▁obligé	-6336
▁russie	-6337
▁voulut	-6338
aiguille	-6339
▁charité	-6340
▁désagré	-6341
▁miracul	-6342
allemagne	-6343
entretien	-6344
▁précieux	-6345
▁respecte	-6346
▁royaumes	-6347
▁solitude	-6348
▁reviendra	-6349
▁répandait	-6350
inspiration	-6351
▁excellente	-6352
▁consolateur	-6353
▁professionnel	-6354
li	-6355
èg	-6356
▁ç	-6357
mine	-6358
ores	-6359
umer	-6360
éval	-6361
▁ard	-6362
▁det	-6363
▁ham	-6364
▁lan	-6365
▁lic	-6366
▁paï	-6367
▁rét	-6368
▁tam	-6369
▁vus	-6370
adopt	-6371
anaël	-6372
oport	-6373
écriv	-6374
▁club	-6375
▁pape	-6376
▁prim	-6377
▁saut	-6378
▁secr	-6379
▁finir	-6380
▁jolie	-6381
▁mécré	-6382
▁périr	-6383
▁sidon	-6384
▁vivez	-6385
ernelle	-6386
▁classi	-6387
▁danger	-6388
▁détrui	-6389
▁examin	-6390
▁nommée	-6391
▁orient	-6392
▁ouvrit	-6393
▁patrim	-6394
▁reprod	-6395
▁saurez	-6396
▁souris	-6397
▁talent	-6398
▁venons	-6399
exercice	-6400
isations	-6401
▁affront	-6402
▁chasser	-6403
▁chaînes	-6404
▁contemp	-6405
▁dessein	-6406
▁destiné	-6407
▁décédés	-6408
▁morceau	-6409
▁retirer	-6410
▁réponds	-6411
▁antioche	-6412
▁apparaît	-6413
▁continué	-6414
▁couleurs	-6415
▁oliviers	-6416
▁quittera	-6417
▁raconter	-6418
▁renseign	-6419
▁réaction	-6420
▁zacharie	-6421
▁divisions	-6422
▁pratiques	-6423
▁remercier	-6424
▁souhaitez	-6425
▁hypocrites	-6426
▁profondeur	-6427
▁religieuse	-6428
▁culpabilité	-6429
▁personnelle	-6430
▁travaillons	-6431
ja	-6432
aug	-6433
ung	-6434
▁my	-6435
amie	-6436
ival	-6437
mont	-6438
tous	-6439
▁jul	-6440
▁nie	-6441
▁rub	-6442
enser	-6443
idiot	-6444
udier	-6445
▁aîné	-6446
▁clin	-6447
▁lait	-6448
▁âmes	-6449
acités	-6450
estime	-6451
exhort	-6452
geance	-6453
infirm	-6454
onomie	-6455
▁aille	-6456
▁convi	-6457
▁enter	-6458
▁fêtes	-6459
▁jetés	-6460
▁motiv	-6461
▁multi	-6462
▁noire	-6463
▁outil	-6464
▁reçue	-6465
attaque	-6466
▁couché	-6467
▁détach	-6468
▁emmené	-6469
▁matéri	-6470
▁moteur	-6471
▁renouv	-6472
▁étapes	-6473
angoisse	-6474
attitude	-6475
iliation	-6476
▁bonjour	-6477
▁endormi	-6478
▁indique	-6479
▁pensait	-6480
alisation	-6481
▁mangerai	-6482
▁reproche	-6483
▁éloignés	-6484
accueillir	-6485
université	-6486
▁boulevers	-6487
▁certitude	-6488
▁convaincu	-6489
▁frontière	-6490
▁plénitude	-6491
▁américains	-6492
▁demandaient	-6493
▁u	-6494
asa	-6495
asc	-6496
cha	-6497
ipr	-6498
obe	-6499
ola	-6500
ota	-6501
rop	-6502
ych	-6503
éga	-6504
▁ed	-6505
alex	-6506
dici	-6507
eden	-6508
iger	-6509
lieu	-6510
nant	-6511
oirs	-6512
oive	-6513
pers	-6514
quet	-6515
îmes	-6516
▁bac	-6517
▁mic	-6518
▁nid	-6519
▁tan	-6520
achat	-6521
assit	-6522
ergie	-6523
eries	-6524
iséde	-6525
▁ador	-6526
▁cand	-6527
▁caïn	-6528
▁célé	-6529
▁diss	-6530
▁mand	-6531
▁surn	-6532
empris	-6533
▁attir	-6534
▁fabri	-6535
▁grain	-6536
▁jeudi	-6537
▁louis	-6538
▁quête	-6539
▁saisi	-6540
abonner	-6541
adolesc	-6542
entoure	-6543
énergie	-6544
établir	-6545
▁europe	-6546
▁manges	-6547
▁profit	-6548
▁recouv	-6549
▁titres	-6550
adresser	-6551
▁afrique	-6552
▁attrist	-6553
▁croyiez	-6554
▁preuves	-6555
▁refaire	-6556
▁restera	-6557
▁syriens	-6558
▁complexe	-6559
▁demandes	-6560
▁dénombre	-6561
▁déplacer	-6562
▁détruite	-6563
▁méthodes	-6564
▁pleurait	-6565
▁prostitu	-6566
▁assemblée	-6567
▁communion	-6568
▁fonctions	-6569
▁commandant	-6570
▁comprenait	-6571
▁melchiséde	-6572
▁prophéties	-6573
▁repentance	-6574
▁stupéfaits	-6575
▁disparaître	-6576
▁rencontrent	-6577
▁consommation	-6578
▁spécialistes	-6579
ala	-6580
ish	-6581
mar	-6582
uez	-6583
yme	-6584
▁dj	-6585
▁ib	-6586
ares	-6587
auto	-6588
tent	-6589
urie	-6590
uste	-6591
▁eli	-6592
▁mec	-6593
▁ste	-6594
aises	-6595
autor	-6596
avert	-6597
avion	-6598
enais	-6599
euble	-6600
intes	-6601
oméga	-6602
▁miel	-6603
▁rire	-6604
▁sida	-6605
▁bénis	-6606
▁coran	-6607
▁cycle	-6608
▁cérém	-6609
▁enfer	-6610
▁estim	-6611
▁musée	-6612
▁pénét	-6613
▁contrô	-6614
▁dignes	-6615
▁divisé	-6616
▁déluge	-6617
▁mercre	-6618
▁répart	-6619
▁saisis	-6620
▁sauvet	-6621
▁secour	-6622
▁suisse	-6623
▁surviv	-6624
▁treize	-6625
▁verser	-6626
▁affirmé	-6627
▁arrêtés	-6628
▁conform	-6629
▁contenu	-6630
▁mettait	-6631
▁progrès	-6632
▁précise	-6633
▁réjouis	-6634
honnêteté	-6635
épaisseur	-6636
évolution	-6637
▁corinthe	-6638
▁portrait	-6639
▁publique	-6640
▁supporte	-6641
▁vacances	-6642
approchant	-6643
enseignant	-6644
inquiétude	-6645
▁accomplis	-6646
▁capacités	-6647
▁fondament	-6648
▁racontera	-6649
▁rassemble	-6650
▁convaincre	-6651
▁domination	-6652
▁disposition	-6653
▁instructions	-6654
.-	-6655
br	-6656
ena	-6657
osh	-6658
éph	-6659
▁xd	-6660
aule	-6661
eule	-6662
part	-6663
étés	-6664
êtez	-6665
▁?."	-6666
▁bag	-6667
▁las	-6668
envoi	-6669
inces	-6670
usage	-6671
èvent	-6672
▁loup	-6673
▁pêch	-6674
▁rare	-6675
▁supr	-6676
▁tome	-6677
affich	-6678
▁aviez	-6679
▁verra	-6680
▁éparg	-6681
faction	-6682
issants	-6683
▁blessé	-6684
▁calcul	-6685
▁déposé	-6686
▁faudra	-6687
▁levais	-6688
▁occupé	-6689
▁perdus	-6690
▁presse	-6691
▁prient	-6692
▁restes	-6693
▁trouva	-6694
▁vivait	-6695
▁bateaux	-6696
▁confess	-6697
▁servent	-6698
▁superbe	-6699
▁surpris	-6700
événement	-6701
▁commerce	-6702
▁demeurez	-6703
▁docteurs	-6704
▁endormis	-6705
▁générale	-6706
▁médicale	-6707
▁accueille	-6708
▁croyaient	-6709
▁devinrent	-6710
▁pourrions	-6711
▁poussière	-6712
▁conception	-6713
▁patrimoine	-6714
▁principale	-6715
▁divertissant	-6716
gi	-6717
gl	-6718
vi	-6719
ase	-6720
ber	-6721
isa	-6722
▁bé	-6723
exte	-6724
odon	-6725
érée	-6726
▁pét	-6727
▁tra	-6728
abeth	-6729
nelle	-6730
▁cord	-6731
▁dipl	-6732
▁drog	-6733
▁fixé	-6734
▁mard	-6735
▁porn	-6736
▁star	-6737
▁zéro	-6738
......	-6739
▁doués	-6740
affiche	-6741
endance	-6742
uration	-6743
éprouve	-6744
▁belles	-6745
▁boulot	-6746
▁chanté	-6747
▁esther	-6748
▁fermes	-6749
▁ferons	-6750
▁grince	-6751
▁guérit	-6752
▁leader	-6753
▁lâcher	-6754
▁plante	-6755
▁posées	-6756
▁trompé	-6757
▁accorde	-6758
▁attaché	-6759
▁déroule	-6760
▁gestion	-6761
▁logique	-6762
▁multipl	-6763
▁passant	-6764
▁prendra	-6765
▁renforc	-6766
▁revenus	-6767
▁toucher	-6768
actualité	-6769
exception	-6770
▁effectué	-6771
▁endroits	-6772
▁entendue	-6773
▁glorieux	-6774
▁mystères	-6775
▁puissent	-6776
▁sauvages	-6777
approchent	-6778
▁conserver	-6779
▁jugements	-6780
▁nathanaël	-6781
▁bénéficier	-6782
▁collection	-6783
▁originaire	-6784
▁rencontres	-6785
▁satisfaire	-6786
▁situations	-6787
▁deviendront	-6788
▁générations	-6789
▁israélienne	-6790
▁mutuellement	-6791
▁présentation	-6792
▁appartiennent	-6793
,.	-6794
kh	-6795
ân	-6796
ium	-6797
oncé	-6798
pens	-6799
élie	-6800
▁ira	-6801
▁tag	-6802
endie	-6803
illée	-6804
incar	-6805
ocrat	-6806
ories	-6807
ènent	-6808
▁chou	-6809
▁chér	-6810
▁ench	-6811
▁mary	-6812
▁ouvr	-6813
▁queu	-6814
épanou	-6815
▁abram	-6816
▁mener	-6817
▁royal	-6818
▁zones	-6819
▁école	-6820
essence	-6821
individ	-6822
leterre	-6823
▁décède	-6824
▁exécut	-6825
▁honore	-6826
▁malédi	-6827
▁outils	-6828
▁patron	-6829
▁privil	-6830
▁précis	-6831
▁tombés	-6832
▁éclair	-6833
▁épargn	-6834
▁étouff	-6835
encontre	-6836
▁auteurs	-6837
▁enfance	-6838
▁inscrit	-6839
▁philipp	-6840
▁théâtre	-6841
▁tombent	-6842
essentiel	-6843
périences	-6844
▁atteinte	-6845
▁chiffres	-6846
▁imaginez	-6847
▁pouvoirs	-6848
▁puissiez	-6849
▁répandit	-6850
▁échapper	-6851
▁accomplir	-6852
▁châtiment	-6853
▁commettre	-6854
▁documents	-6855
▁fondement	-6856
▁pensaient	-6857
▁résidence	-6858
▁tranquill	-6859
association	-6860
▁respectueux	-6861
▁spirituelle	-6862
▁alimentation	-6863
▁bénédictions	-6864
▁correctement	-6865
▁fonctionnent	-6866
▁régulièrement	-6867
ko	-6868
aïs	-6869
oue	-6870
▁aj	-6871
▁ts	-6872
▁çà	-6873
cent	-6874
▁cra	-6875
▁fen	-6876
▁uni	-6877
aitre	-6878
amert	-6879
hôtel	-6880
icier	-6881
issue	-6882
lande	-6883
▁clef	-6884
▁euss	-6885
▁mine	-6886
▁rive	-6887
▁ruth	-6888
▁séri	-6889
▁toit	-6890
▁truc	-6891
enance	-6892
uelles	-6893
▁indép	-6894
▁jetez	-6895
▁nôtre	-6896
▁passa	-6897
▁voies	-6898
apprend	-6899
enlever	-6900
▁accusé	-6901
▁assise	-6902
▁chauss	-6903
▁décrit	-6904
▁expert	-6905
▁gardes	-6906
▁judici	-6907
▁mentir	-6908
▁nôtres	-6909
▁relevé	-6910
▁résumé	-6911
▁traite	-6912
auraient	-6913
▁absence	-6914
▁chargés	-6915
▁coutume	-6916
▁donnons	-6917
▁envoyer	-6918
▁financi	-6919
▁millier	-6920
▁nombres	-6921
▁ouverte	-6922
▁perform	-6923
▁prêcher	-6924
▁repouss	-6925
▁tempête	-6926
▁traiter	-6927
adoration	-6928
animation	-6929
attendais	-6930
▁accordée	-6931
▁ancienne	-6932
▁comporte	-6933
▁demeurer	-6934
▁occasion	-6935
▁paiement	-6936
▁produire	-6937
▁recevant	-6938
▁sépulcre	-6939
▁terrible	-6940
▁vivaient	-6941
accompagne	-6942
alternance	-6943
olocaustes	-6944
▁campagnes	-6945
▁puissions	-6946
▁considérer	-6947
▁développer	-6948
▁ressuscite	-6949
▁entreprises	-6950
▁information	-6951
▁sacrificateur	-6952
by	-6953
sa	-6954
▁î	-6955
aad	-6956
six	-6957
uff	-6958
éth	-6959
▁hy	-6960
ayer	-6961
bell	-6962
impl	-6963
orée	-6964
otes	-6965
▁bœu	-6966
▁fun	-6967
▁péd	-6968
▁res	-6969
abatt	-6970
abîme	-6971
accus	-6972
effic	-6973
isera	-6974
istan	-6975
ureur	-6976
éloge	-6977
▁brit	-6978
▁muet	-6979
intern	-6980
▁battu	-6981
▁bière	-6982
▁coupé	-6983
▁exerc	-6984
▁glace	-6985
▁masse	-6986
▁maxim	-6987
▁perse	-6988
▁salar	-6989
▁saraï	-6990
▁strat	-6991
▁tunis	-6992
▁étend	-6993
exprime	-6994
▁ajouté	-6995
▁assist	-6996
▁engend	-6997
▁ferais	-6998
▁genoux	-6999
▁glorif	-7000
▁mètres	-7001
▁portez	-7002
▁pâques	-7003
▁rejeté	-7004
▁troupe	-7005
amertume	-7006
cription	-7007
installe	-7008
▁devenez	-7009
▁discern	-7010
▁jehovah	-7011
▁longues	-7012
▁proposé	-7013
▁survint	-7014
▁écrites	-7015
▁approche	-7016
▁généreux	-7017
▁maîtrise	-7018
▁offrande	-7019
▁paraîtra	-7020
▁philadel	-7021
▁surement	-7022
▁épargnée	-7023
▁ecritures	-7024
▁excellent	-7025
▁héritiers	-7026
▁participé	-7027
imagination	-7028
▁catholique	-7029
▁discipline	-7030
▁malheureux	-7031
▁participants	-7032
emprisonnement	-7033
▁professionnels	-7034
va	-7035
xe	-7036
cid	-7037
unt	-7038
éve	-7039
îte	-7040
aver	-7041
èvre	-7042
▁ais	-7043
▁euh	-7044
▁her	-7045
▁hur	-7046
▁lux	-7047
▁tob	-7048
crire	-7049
ochée	-7050
phère	-7051
plend	-7052
risie	-7053
rivez	-7054
écrit	-7055
édier	-7056
étudi	-7057
▁assi	-7058
▁assu	-7059
▁dédi	-7060
▁déçu	-7061
▁jeph	-7062
▁moul	-7063
▁pomp	-7064
▁sara	-7065
▁supp	-7066
▁évit	-7067
impose	-7068
équité	-7069
▁ferez	-7070
▁folie	-7071
▁formé	-7072
▁intég	-7073
▁légit	-7074
▁maria	-7075
▁navig	-7076
▁sorci	-7077
▁suive	-7078
▁vente	-7079
authent	-7080
inverse	-7081
issante	-7082
épouser	-7083
▁copain	-7084
▁déclin	-7085
▁meurtr	-7086
▁millén	-7087
▁patrie	-7088
▁retenu	-7089
▁reçues	-7090
▁rébell	-7091
▁troubl	-7092
▁étoile	-7093
▁clients	-7094
▁collect	-7095
▁dormait	-7096
▁délivré	-7097
▁feuille	-7098
▁mettant	-7099
▁plateau	-7100
▁séparés	-7101
entendent	-7102
inquiéter	-7103
équilibre	-7104
▁accident	-7105
▁arrivées	-7106
▁citoyens	-7107
▁festival	-7108
▁instants	-7109
▁journées	-7110
▁mangeait	-7111
▁neuvième	-7112
▁parvenir	-7113
▁renommée	-7114
▁ressenti	-7115
▁épreuves	-7116
adversaire	-7117
assistance	-7118
▁baptisant	-7119
▁créatures	-7120
▁détruites	-7121
▁descendant	-7122
▁définition	-7123
▁politiques	-7124
▁philadelphie	-7125
▁modifications	-7126
alg	-7127
ano	-7128
▁of	-7129
▁és	-7130
arez	-7131
etre	-7132
héro	-7133
icho	-7134
opri	-7135
osor	-7136
ourg	-7137
rine	-7138
seau	-7139
ysée	-7140
▁cot	-7141
▁cro	-7142
▁lap	-7143
▁ras	-7144
▁var	-7145
abram	-7146
infin	-7147
▁coqu	-7148
▁cous	-7149
▁embr	-7150
▁prém	-7151
apport	-7152
sibles	-7153
étoile	-7154
étonne	-7155
▁admin	-7156
▁démén	-7157
▁infid	-7158
▁pourv	-7159
▁radio	-7160
adapter	-7161
erreurs	-7162
ruption	-7163
uchodon	-7164
uctions	-7165
émotion	-7166
▁cachés	-7167
▁galaad	-7168
▁michel	-7169
▁ménage	-7170
▁option	-7171
▁poussé	-7172
▁psaume	-7173
▁redout	-7174
▁soldat	-7175
▁tables	-7176
▁tendre	-7177
▁tourna	-7178
attaquer	-7179
aéroport	-7180
excusait	-7181
▁blanche	-7182
▁convoit	-7183
▁entrent	-7184
▁formule	-7185
▁joueurs	-7186
▁menteur	-7187
▁portant	-7188
▁discuter	-7189
▁disposit	-7190
▁logement	-7191
▁parabole	-7192
▁prononcé	-7193
▁préoccup	-7194
▁constitue	-7195
▁suivantes	-7196
uchodonosor	-7197
▁fondements	-7198
▁identiques	-7199
▁recherches	-7200
entraînement	-7201
▁gentillesse	-7202
▁tranquillité	-7203
▁nabuchodonosor	-7204
dr	-7205
ta	-7206
arb	-7207
ecc	-7208
ral	-7209
ton	-7210
▁ha	-7211
▁sk	-7212
abst	-7213
arab	-7214
hier	-7215
iale	-7216
èque	-7217
ètre	-7218
érus	-7219
▁cui	-7220
▁del	-7221
▁fuy	-7222
▁noy	-7223
▁van	-7224
...."	-7225
igner	-7226
▁conç	-7227
▁hâte	-7228
▁joli	-7229
▁lame	-7230
▁mers	-7231
▁ninj	-7232
▁seni	-7233
autrui	-7234
encens	-7235
encour	-7236
oppose	-7237
ordonn	-7238
▁caval	-7239
▁chass	-7240
▁class	-7241
▁enfui	-7242
▁litre	-7243
▁loint	-7244
▁oppos	-7245
▁patri	-7246
▁proie	-7247
▁queue	-7248
▁silas	-7249
automne	-7250
▁adopté	-7251
▁aimera	-7252
▁auteur	-7253
▁enfuis	-7254
▁législ	-7255
▁procès	-7256
▁revoir	-7257
▁réconf	-7258
▁survie	-7259
▁utiles	-7260
appeller	-7261
apprends	-7262
endement	-7263
immédiat	-7264
▁accepte	-7265
▁bergers	-7266
▁extrait	-7267
▁jéricho	-7268
▁ouverts	-7269
▁parlons	-7270
▁royauté	-7271
▁talents	-7272
▁verrons	-7273
▁élément	-7274
▁arrivait	-7275
▁célébrer	-7276
▁doctrine	-7277
▁détresse	-7278
▁mourrait	-7279
▁médecins	-7280
▁appliquer	-7281
▁catégorie	-7282
▁dimanches	-7283
▁manifeste	-7284
▁mardochée	-7285
▁parlaient	-7286
▁puissante	-7287
▁accessible	-7288
▁commençait	-7289
▁particulière	-7290
▁persévérance	-7291
enregistrement	-7292
ôn	-7293
bon	-7294
hel	-7295
▁it	-7296
▁lo	-7297
aure	-7298
chée	-7299
omin	-7300
ouer	-7301
phel	-7302
édée	-7303
▁plu	-7304
appuy	-7305
armes	-7306
ifice	-7307
xiété	-7308
éenne	-7309
▁drag	-7310
▁eloï	-7311
▁flor	-7312
▁jess	-7313
▁outr	-7314
▁regr	-7315
oignée	-7316
▁bâtit	-7317
▁fumée	-7318
▁hélas	-7319
▁mardi	-7320
▁meurs	-7321
▁récem	-7322
▁référ	-7323
▁scand	-7324
▁stade	-7325
▁éléph	-7326
affirme	-7327
comment	-7328
ivalent	-7329
ériment	-7330
▁assass	-7331
▁donnes	-7332
▁défend	-7333
▁entrés	-7334
▁mouton	-7335
▁multip	-7336
▁occupe	-7337
▁ouvrir	-7338
▁retard	-7339
▁retiré	-7340
▁statut	-7341
▁symbol	-7342
arrivera	-7343
attacher	-7344
▁déteste	-7345
▁eglises	-7346
▁enterré	-7347
▁modèles	-7348
▁offrent	-7349
▁passées	-7350
▁protège	-7351
▁préfère	-7352
▁rendent	-7353
▁soudain	-7354
▁taisent	-7355
▁visiter	-7356
▁écrivit	-7357
▁circonst	-7358
▁emmanuel	-7359
▁entendus	-7360
▁musulman	-7361
▁paraître	-7362
▁patients	-7363
▁remédier	-7364
▁réunions	-7365
▁stupides	-7366
▁surveill	-7367
▁abondance	-7368
▁provinces	-7369
▁récemment	-7370
▁spectacle	-7371
▁trompette	-7372
▁deviennent	-7373
▁manifestée	-7374
▁compétences	-7375
▁grincements	-7376
▁précisément	-7377
▁transmettre	-7378
agr	-7379
amm	-7380
cal	-7381
lés	-7382
olu	-7383
urc	-7384
abil	-7385
empt	-7386
mans	-7387
uira	-7388
▁aér	-7389
▁bob	-7390
▁cos	-7391
▁jas	-7392
▁lee	-7393
▁nin	-7394
avent	-7395
empar	-7396
quant	-7397
uites	-7398
ultez	-7399
▁auto	-7400
▁féri	-7401
▁meme	-7402
▁obst	-7403
▁québ	-7404
▁scén	-7405
▁tiss	-7406
accent	-7407
empêch	-7408
iquent	-7409
▁assur	-7410
▁civil	-7411
▁enreg	-7412
▁fière	-7413
▁fonds	-7414
▁magie	-7415
apporte	-7416
astique	-7417
imagine	-7418
zéchias	-7419
▁afferm	-7420
▁déchir	-7421
▁exposé	-7422
▁foudre	-7423
▁locaux	-7424
▁mettra	-7425
▁prouve	-7426
▁régner	-7427
▁saisir	-7428
▁britann	-7429
▁chiffre	-7430
▁comptes	-7431
▁concent	-7432
▁conflit	-7433
▁dépasse	-7434
▁montant	-7435
▁saurait	-7436
▁sentais	-7437
▁sources	-7438
▁collabor	-7439
▁mercredi	-7440
▁recueill	-7441
▁réconcil	-7442
▁évidence	-7443
▁bénéfices	-7444
▁condamner	-7445
▁contribué	-7446
▁distances	-7447
▁histoires	-7448
▁meurtrier	-7449
▁officiers	-7450
exhortation	-7451
▁continuent	-7452
▁libération	-7453
▁meilleures	-7454
▁signifient	-7455
accompliront	-7456
▁holocaustes	-7457
▁descendaient	-7458
▁premièrement	-7459
▁christianisme	-7460
zz	-7461
.."	-7462
err	-7463
ics	-7464
irs	-7465
rut	-7466
amén	-7467
elop	-7468
uiss	-7469
▁bah	-7470
▁cab	-7471
▁loy	-7472
▁pen	-7473
oints	-7474
▁drap	-7475
▁foot	-7476
▁frag	-7477
▁frat	-7478
▁jeta	-7479
auprès	-7480
eloppe	-7481
envoyé	-7482
graver	-7483
heures	-7484
inclin	-7485
oiseau	-7486
▁adoré	-7487
▁brûlé	-7488
▁creus	-7489
▁croie	-7490
▁music	-7491
▁notes	-7492
▁soirs	-7493
▁tamar	-7494
▁tarde	-7495
▁vents	-7496
▁évent	-7497
oiseaux	-7498
▁fierté	-7499
▁fortes	-7500
▁mascul	-7501
▁montés	-7502
▁papier	-7503
▁plaine	-7504
▁toucha	-7505
▁traces	-7506
▁utilis	-7507
empathie	-7508
▁féminin	-7509
▁prétend	-7510
▁remplie	-7511
▁utilise	-7512
adressent	-7513
ativement	-7514
▁assassin	-7515
▁communes	-7516
▁cultures	-7517
▁extermin	-7518
▁installé	-7519
▁ouvertes	-7520
▁perspect	-7521
▁rebelles	-7522
▁remercie	-7523
▁sainteté	-7524
▁sourires	-7525
▁troubles	-7526
▁troupeau	-7527
▁voudrait	-7528
▁vérifier	-7529
▁étonnant	-7530
apparition	-7531
excellence	-7532
équitation	-7533
▁canadiens	-7534
▁captivité	-7535
▁détestent	-7536
▁exception	-7537
▁passèrent	-7538
▁possèdent	-7539
▁principes	-7540
▁prononcer	-7541
▁quinzaine	-7542
▁regardent	-7543
▁remarquer	-7544
▁retournée	-7545
▁reçoivent	-7546
▁sauvetage	-7547
▁sensation	-7548
▁solutions	-7549
▁souffrait	-7550
▁fondations	-7551
▁laissèrent	-7552
▁persécutés	-7553
▁craignaient	-7554
▁disparition	-7555
▁malédiction	-7556
▁proposition	-7557
▁compatissant	-7558
▁réfléchissait	-7559
iew	-7560
âne	-7561
▁fâ	-7562
▁mm	-7563
azar	-7564
hiop	-7565
inés	-7566
ombe	-7567
èler	-7568
▁dim	-7569
▁dot	-7570
▁hom	-7571
▁net	-7572
▁ros	-7573
▁ève	-7574
alyse	-7575
exerc	-7576
uisez	-7577
▁dura	-7578
▁hand	-7579
▁perç	-7580
▁soll	-7581
▁îles	-7582
eresse	-7583
expuls	-7584
hérode	-7585
usions	-7586
vement	-7587
▁aides	-7588
▁boucl	-7589
▁fauss	-7590
▁fumer	-7591
▁piste	-7592
▁songe	-7593
▁trent	-7594
accorde	-7595
anxiété	-7596
emporte	-7597
éloigne	-7598
▁avenue	-7599
▁débarr	-7600
▁examen	-7601
▁exhort	-7602
▁finale	-7603
▁format	-7604
▁fureur	-7605
▁fériés	-7606
▁lisons	-7607
▁mortes	-7608
▁païens	-7609
▁rocher	-7610
▁tabern	-7611
▁tarder	-7612
▁vivres	-7613
enseigne	-7614
▁annonça	-7615
▁avancer	-7616
▁dignité	-7617
▁essenti	-7618
▁gardien	-7619
▁indiqué	-7620
▁informé	-7621
▁italien	-7622
▁prêchée	-7623
▁réserve	-7624
▁saintes	-7625
▁termine	-7626
▁tunisie	-7627
▁valeurs	-7628
▁voulant	-7629
appliquer	-7630
▁feuilles	-7631
▁peinture	-7632
▁quatorze	-7633
▁semblait	-7634
▁souhaité	-7635
▁terminée	-7636
▁touchant	-7637
approchera	-7638
▁attendait	-7639
▁avantages	-7640
▁classique	-7641
▁connaisse	-7642
▁consommer	-7643
▁encourage	-7644
▁expliquer	-7645
▁fortement	-7646
▁intéresse	-7647
▁médiateur	-7648
▁reconnaît	-7649
▁élections	-7650
▁accueillir	-7651
▁rassembler	-7652
▁travaillez	-7653
authenticité	-7654
▁cherchaient	-7655
▁intéressant	-7656
▁populations	-7657
▁religieuses	-7658
▁commencèrent	-7659
▁conversation	-7660
▁dénombrement	-7661
▁principalement	-7662
hy	-7663
ji	-7664
èn	-7665
ael	-7666
ali	-7667
aur	-7668
hes	-7669
sib	-7670
août	-7671
igné	-7672
quée	-7673
éant	-7674
▁hyp	-7675
▁suc	-7676
▁yog	-7677
acles	-7678
assad	-7679
dront	-7680
envis	-7681
horiz	-7682
hypoc	-7683
terne	-7684
▁ball	-7685
▁brav	-7686
▁glob	-7687
▁lévi	-7688
▁robe	-7689
▁sand	-7690
▁surp	-7691
▁toil	-7692
interv	-7693
israel	-7694
éteint	-7695
▁combl	-7696
▁etait	-7697
▁fermé	-7698
▁jaune	-7699
▁jeûne	-7700
▁lavés	-7701
▁miens	-7702
▁numér	-7703
▁pleuv	-7704
▁relev	-7705
▁tours	-7706
▁visit	-7707
aurions	-7708
inconnu	-7709
obilier	-7710
ucteurs	-7711
èlement	-7712
▁candid	-7713
▁effets	-7714
▁exaucé	-7715
▁frappa	-7716
▁libéré	-7717
▁maudit	-7718
▁perdue	-7719
▁ramass	-7720
▁rendue	-7721
▁retent	-7722
▁samson	-7723
emmanuel	-7724
existent	-7725
humidité	-7726
▁excuses	-7727
▁faciles	-7728
▁fermera	-7729
▁honneur	-7730
▁pouvant	-7731
▁remonte	-7732
▁saurais	-7733
amusement	-7734
exécution	-7735
▁annoncée	-7736
▁artistes	-7737
▁coutumes	-7738
▁démocrat	-7739
▁louanges	-7740
▁marchons	-7741
▁parfaits	-7742
▁pouvions	-7743
▁pression	-7744
interroger	-7745
▁capitaine	-7746
▁dangereux	-7747
▁demandais	-7748
▁montèrent	-7749
▁musulmans	-7750
▁nationale	-7751
emplacement	-7752
instruction	-7753
▁prophétise	-7754
▁supérieure	-7755
▁séparation	-7756
▁profondeurs	-7757
▁prédication	-7758
éz	-7759
aam	-7760
aye	-7761
aël	-7762
uct	-7763
▁""	-7764
▁hu	-7765
▁lc	-7766
▁tw	-7767
?...	-7768
abus	-7769
acée	-7770
aler	-7771
chem	-7772
igue	-7773
odic	-7774
ords	-7775
pier	-7776
émer	-7777
▁fre	-7778
▁mex	-7779
▁méf	-7780
▁rém	-7781
▁zéb	-7782
iqués	-7783
oquée	-7784
outez	-7785
ètent	-7786
écras	-7787
▁coté	-7788
▁goli	-7789
▁miss	-7790
▁rand	-7791
▁veau	-7792
aimons	-7793
emport	-7794
ensité	-7795
illons	-7796
infini	-7797
invite	-7798
resses	-7799
çaient	-7800
▁bâton	-7801
▁hauts	-7802
▁innoc	-7803
▁motif	-7804
▁mâles	-7805
▁plaça	-7806
▁psych	-7807
▁puits	-7808
▁pèler	-7809
▁verbe	-7810
▁vivra	-7811
ensions	-7812
éclaire	-7813
▁arrach	-7814
▁baisse	-7815
▁circon	-7816
▁dedans	-7817
▁estime	-7818
▁handic	-7819
▁italie	-7820
▁jusque	-7821
▁laodic	-7822
▁pattes	-7823
▁prenne	-7824
▁rassur	-7825
▁réunit	-7826
▁sauvez	-7827
▁verras	-7828
▁verres	-7829
▁énervé	-7830
apprécie	-7831
▁assurer	-7832
▁chances	-7833
▁honnête	-7834
▁nourrit	-7835
▁passons	-7836
▁portent	-7837
▁remplir	-7838
▁seniors	-7839
▁sentier	-7840
▁sincère	-7841
▁suprême	-7842
▁valable	-7843
accueille	-7844
▁auxquels	-7845
▁division	-7846
▁désordre	-7847
▁effrayés	-7848
▁exemples	-7849
▁injustes	-7850
▁montrent	-7851
▁repentir	-7852
▁trouvant	-7853
▁éloigner	-7854
automobile	-7855
efficacité	-7856
encourager	-7857
interrogea	-7858
▁annonçant	-7859
▁cérémonie	-7860
▁messieurs	-7861
▁nombreuse	-7862
▁parlèrent	-7863
▁appartenez	-7864
▁commencent	-7865
▁complément	-7866
▁engagement	-7867
▁précieuses	-7868
▁prévention	-7869
▁similaires	-7870
▁communiquer	-7871
▁destination	-7872
▁professeurs	-7873
▁recommandons	-7874
.)	-7875
gs	-7876
ack	-7877
agi	-7878
ald	-7879
hyp	-7880
ini	-7881
itt	-7882
nez	-7883
pre	-7884
sur	-7885
▁?.	-7886
▁oc	-7887
icat	-7888
inée	-7889
ogne	-7890
orés	-7891
qués	-7892
uies	-7893
▁alt	-7894
▁gam	-7895
▁léa	-7896
▁nez	-7897
errer	-7898
essai	-7899
notre	-7900
orage	-7901
ville	-7902
éleva	-7903
énité	-7904
▁astu	-7905
▁caus	-7906
▁cong	-7907
▁gare	-7908
▁geth	-7909
▁murm	-7910
▁réch	-7911
▁tonn	-7912
▁will	-7913
▁élus	-7914
▁évac	-7915
ataire	-7916
ignent	-7917
itudes	-7918
ualité	-7919
▁achet	-7920
▁chars	-7921
▁gamme	-7922
▁henri	-7923
▁piège	-7924
▁répar	-7925
▁répét	-7926
▁tirée	-7927
▁vécut	-7928
▁écras	-7929
▁étude	-7930
accuser	-7931
artiste	-7932
honnête	-7933
ouvrira	-7934
quement	-7935
▁appare	-7936
▁brûler	-7937
▁chassé	-7938
▁confin	-7939
▁consci	-7940
▁fondée	-7941
▁insist	-7942
▁josias	-7943
▁laissa	-7944
▁perdra	-7945
▁ramené	-7946
▁récipr	-7947
▁réduit	-7948
▁étroit	-7949
ventions	-7950
établira	-7951
▁colline	-7952
▁dessous	-7953
▁flammes	-7954
▁fortune	-7955
▁fournit	-7956
▁légumes	-7957
▁navires	-7958
▁précaut	-7959
▁purifié	-7960
▁revêtus	-7961
▁succomb	-7962
▁sénégal	-7963
▁trouble	-7964
▁zébédée	-7965
▁éloigné	-7966
accordent	-7967
▁chansons	-7968
▁crieront	-7969
▁expliqué	-7970
▁intérêts	-7971
▁manquent	-7972
▁recettes	-7973
▁recherch	-7974
▁souvient	-7975
appartiens	-7976
exposition	-7977
évaluation	-7978
▁affection	-7979
▁conduisit	-7980
▁multiples	-7981
▁princesse	-7982
▁précédent	-7983
▁revinrent	-7984
allaitement	-7985
▁abandonnée	-7986
▁automobile	-7987
▁auxquelles	-7988
▁connaîtrez	-7989
▁permanence	-7990
▁satisfaction	-7991
▁gouvernements	-7992
cou	-7993
mos	-7994
old	-7995
phr	-7996
urr	-7997
âtr	-7998
▁!.	-7999
▁cm	-8000
▁dî	-8001
▁ke	-8002
▁om	-8003
agez	-8004
aies	-8005
effr	-8006
esté	-8007
ider	-8008
impr	-8009
inde	-8010
nels	-8011
élab	-8012
▁déç	-8013
▁neu	-8014
▁éte	-8015
ammon	-8016
aphat	-8017
ardes	-8018
estes	-8019
èvera	-8020
époux	-8021
▁belg	-8022
▁bret	-8023
▁brut	-8024
▁renv	-8025
▁scul	-8026
▁sion	-8027
▁séqu	-8028
auriez	-8029
devant	-8030
idence	-8031
impact	-8032
impôts	-8033
▁avent	-8034
▁boîte	-8035
▁bâtir	-8036
▁coins	-8037
▁coute	-8038
▁indis	-8039
▁influ	-8040
▁peurs	-8041
▁plans	-8042
▁poche	-8043
▁russe	-8044
▁réuni	-8045
augment	-8046
entrepr	-8047
priment	-8048
égalité	-8049
▁aidera	-8050
▁allant	-8051
▁balaam	-8052
▁blanch	-8053
▁chaude	-8054
▁couper	-8055
▁impecc	-8056
▁lancer	-8057
▁lignes	-8058
▁paraît	-8059
▁retire	-8060
▁sienne	-8061
▁statue	-8062
▁suivez	-8063
▁vagues	-8064
▁étudié	-8065
estation	-8066
internet	-8067
▁accroch	-8068
▁finance	-8069
▁illustr	-8070
▁immense	-8071
▁machine	-8072
▁montagn	-8073
▁médical	-8074
▁méditer	-8075
▁observé	-8076
▁révolte	-8077
▁sauvage	-8078
▁secteur	-8079
▁sentait	-8080
▁serions	-8081
▁stature	-8082
▁stratég	-8083
▁sérieux	-8084
▁vitesse	-8085
▁vivrons	-8086
▁édition	-8087
attendait	-8088
▁accepter	-8089
▁agissent	-8090
▁conclure	-8091
▁conflits	-8092
▁habitait	-8093
▁handicap	-8094
▁muraille	-8095
▁officier	-8096
▁présenta	-8097
▁révélées	-8098
hypocrisie	-8099
▁consultez	-8100
▁découvrez	-8101
▁interdite	-8102
▁interprét	-8103
▁méprisera	-8104
▁provoquer	-8105
▁regardait	-8106
▁rébellion	-8107
entendaient	-8108
▁photograph	-8109
▁prostituée	-8110
▁quelconque	-8111
▁restaurant	-8112
▁réflexions	-8113
architecture	-8114
▁incrédulité	-8115
▁exclusivement	-8116
-)	-8117
dia	-8118
hyd	-8119
jui	-8120
éon	-8121
▁kh	-8122
▁sl	-8123
▁sn	-8124
atie	-8125
attr	-8126
bert	-8127
esqu	-8128
ings	-8129
obst	-8130
oooo	-8131
rich	-8132
sida	-8133
▁dyn	-8134
▁hés	-8135
▁pic	-8136
▁âne	-8137
acent	-8138
allen	-8139
angél	-8140
cript	-8141
estim	-8142
iaque	-8143
ollos	-8144
reurs	-8145
▁bond	-8146
▁crié	-8147
▁dari	-8148
▁dout	-8149
▁elfe	-8150
▁heur	-8151
▁hong	-8152
▁liés	-8153
▁oeil	-8154
▁paru	-8155
▁épis	-8156
aliser	-8157
arabie	-8158
extrém	-8159
exécut	-8160
pierre	-8161
ébranl	-8162
▁adore	-8163
▁aînés	-8164
▁boute	-8165
▁canan	-8166
▁cerve	-8167
▁geste	-8168
▁geths	-8169
▁gliss	-8170
▁magas	-8171
▁minim	-8172
▁mécan	-8173
▁ninja	-8174
▁perde	-8175
▁presc	-8176
▁signé	-8177
▁tronc	-8178
abandon	-8179
diction	-8180
espagne	-8181
ibilité	-8182
▁adapté	-8183
▁advers	-8184
▁aperçu	-8185
▁battus	-8186
▁brûlés	-8187
▁confie	-8188
▁crimin	-8189
▁disput	-8190
▁domest	-8191
▁espace	-8192
▁frappe	-8193
▁goutte	-8194
▁immédi	-8195
▁permit	-8196
▁restri	-8197
▁saluez	-8198
▁tenter	-8199
▁terror	-8200
allemand	-8201
espagnol	-8202
occident	-8203
ologique	-8204
équipage	-8205
▁approuv	-8206
▁appréci	-8207
▁attente	-8208
▁captifs	-8209
▁colonne	-8210
▁dossier	-8211
▁déplace	-8212
▁goliath	-8213
▁grandir	-8214
▁niveaux	-8215
▁parlais	-8216
▁parvenu	-8217
▁rédempt	-8218
▁répandu	-8219
▁théorie	-8220
▁trouvée	-8221
▁échange	-8222
affichage	-8223
▁complète	-8224
▁laodicée	-8225
▁pleuvoir	-8226
▁rapports	-8227
▁retraite	-8228
▁réfléchi	-8229
▁syrienne	-8230
angleterre	-8231
engagement	-8232
équivalent	-8233
▁conscient	-8234
▁existence	-8235
▁grossesse	-8236
▁nécessité	-8237
▁technique	-8238
abandonnera	-8239
▁frontières	-8240
▁rassemblés	-8241
▁spécialiste	-8242
▁personnalité	-8243
▁spécialement	-8244
▁extraordinaire	-8245
▁irréprochables	-8246
▁représentation	-8247
▁extraordinaires	-8248
:"	-8249
fa	-8250
nu	-8251
fem	-8252
jon	-8253
rip	-8254
êle	-8255
▁cu	-8256
▁mp	-8257
▁od	-8258
▁pé	-8259
▁rh	-8260
agen	-8261
cire	-8262
itut	-8263
olis	-8264
orth	-8265
oyen	-8266
êque	-8267
▁bur	-8268
▁cub	-8269
▁dig	-8270
▁lin	-8271
▁sap	-8272
onome	-8273
oubli	-8274
union	-8275
ériel	-8276
▁agne	-8277
▁banc	-8278
▁bron	-8279
▁gren	-8280
▁lama	-8281
▁past	-8282
▁porc	-8283
▁vélo	-8284
amener	-8285
arbres	-8286
effroi	-8287
estine	-8288
istrer	-8289
ricité	-8290
▁cache	-8291
▁dissi	-8292
▁dépôt	-8293
▁gabri	-8294
▁guère	-8295
▁lucas	-8296
▁nuage	-8297
▁pieux	-8298
▁subir	-8299
▁tueur	-8300
▁virus	-8301
▁élève	-8302
entrain	-8303
lements	-8304
observe	-8305
élevage	-8306
érables	-8307
▁chérub	-8308
▁couche	-8309
▁direct	-8310
▁déchaî	-8311
▁dément	-8312
▁elisée	-8313
▁grandi	-8314
▁livrés	-8315
▁légère	-8316
▁pluies	-8317
▁promen	-8318
▁promet	-8319
▁prover	-8320
▁québec	-8321
▁sculpt	-8322
▁téléch	-8323
affaires	-8324
affirmer	-8325
imaginer	-8326
▁aimerai	-8327
▁appelez	-8328
▁consent	-8329
▁croyait	-8330
▁défauts	-8331
▁emporté	-8332
▁interpr	-8333
▁ordonne	-8334
▁protégé	-8335
▁prouver	-8336
▁relever	-8337
▁ressort	-8338
▁réalise	-8339
▁réduire	-8340
▁souvint	-8341
▁suivait	-8342
▁suscept	-8343
atteindre	-8344
encourage	-8345
▁affranch	-8346
▁agricult	-8347
▁belgique	-8348
▁guérison	-8349
▁manquait	-8350
▁proposer	-8351
▁purifier	-8352
▁vivement	-8353
▁assurance	-8354
▁avènement	-8355
▁cherchant	-8356
▁entendues	-8357
▁installés	-8358
▁prendront	-8359
▁remarques	-8360
▁sacrifier	-8361
▁tombèrent	-8362
▁trentaine	-8363
assignation	-8364
▁circoncire	-8365
▁communiqué	-8366
▁construite	-8367
▁croissance	-8368
▁mangeaient	-8369
▁adversaires	-8370
▁distinction	-8371
▁expressions	-8372
▁expériences	-8373
▁millénaires	-8374
▁spécifiques	-8375
▁heureusement	-8376
▁principautés	-8377
▁professionnelle	-8378
ii	-8379
fre	-8380
iff	-8381
jac	-8382
▁mû	-8383
astr	-8384
astu	-8385
edom	-8386
hhhh	-8387
lors	-8388
orel	-8389
èdes	-8390
▁arb	-8391
▁bil	-8392
▁cil	-8393
▁coc	-8394
▁enl	-8395
▁kou	-8396
▁léo	-8397
aimée	-8398
ernes	-8399
illés	-8400
thani	-8401
tique	-8402
épuis	-8403
▁arab	-8404
▁arme	-8405
▁cass	-8406
▁cell	-8407
▁lass	-8408
▁monn	-8409
▁nomm	-8410
▁poit	-8411
▁poul	-8412
▁sons	-8413
alogue	-8414
argile	-8415
avocat	-8416
eliers	-8417
icules	-8418
yptien	-8419
▁about	-8420
▁alent	-8421
▁andré	-8422
▁assyr	-8423
▁balle	-8424
▁chand	-8425
▁galax	-8426
▁idiot	-8427
▁maroc	-8428
▁nomme	-8429
▁ravie	-8430
▁sangu	-8431
▁taire	-8432
ajouter	-8433
appropr	-8434
encieux	-8435
ivresse	-8436
érieurs	-8437
étendue	-8438
▁assuré	-8439
▁darius	-8440
▁devrez	-8441
▁divorc	-8442
▁désiré	-8443
▁dévoil	-8444
▁formid	-8445
▁offrit	-8446
▁prompt	-8447
▁prêter	-8448
▁réelle	-8449
▁seules	-8450
▁stress	-8451
▁trompe	-8452
individu	-8453
personne	-8454
▁acteurs	-8455
▁challen	-8456
▁desséch	-8457
▁gethsém	-8458
▁graines	-8459
▁habiter	-8460
▁importe	-8461
▁leaders	-8462
▁libérer	-8463
▁magique	-8464
▁pousser	-8465
▁rejoign	-8466
▁réponde	-8467
▁suicide	-8468
▁supplie	-8469
▁tristes	-8470
accomplît	-8471
▁commerci	-8472
▁contexte	-8473
▁détourne	-8474
▁observer	-8475
▁plaisirs	-8476
▁rapporte	-8477
▁sérénité	-8478
▁tonnerre	-8479
▁téléphon	-8480
▁utilisés	-8481
habitation	-8482
▁alentours	-8483
▁cherchait	-8484
▁circoncis	-8485
▁donnerait	-8486
▁egyptiens	-8487
▁militaire	-8488
▁moquaient	-8489
▁ouverture	-8490
▁promotion	-8491
▁prosterne	-8492
▁prédestin	-8493
aménagement	-8494
▁conseiller	-8495
▁couverture	-8496
▁expression	-8497
▁rapprocher	-8498
▁ordonnances	-8499
▁philippiens	-8500
▁quarantaine	-8501
▁congrégation	-8502
▁melchisédech	-8503
▁persécutions	-8504
▁contrairement	-8505
▁scientifiques	-8506
▁complémentaires	-8507
ca	-8508
cor	-8509
dio	-8510
esh	-8511
hem	-8512
irc	-8513
rac	-8514
vée	-8515
▁?!	-8516
▁?)	-8517
▁aï	-8518
▁da	-8519
abbé	-8520
icon	-8521
inet	-8522
oral	-8523
osex	-8524
uées	-8525
énée	-8526
▁bul	-8527
▁cov	-8528
▁fau	-8529
▁nob	-8530
blige	-8531
elier	-8532
garde	-8533
illum	-8534
inage	-8535
iquée	-8536
itera	-8537
ottes	-8538
▁....	-8539
▁bill	-8540
▁crie	-8541
▁issu	-8542
▁juré	-8543
▁pâte	-8544
▁ryth	-8545
embarr	-8546
empare	-8547
honore	-8548
instru	-8549
isible	-8550
oquant	-8551
rocher	-8552
uscule	-8553
ustens	-8554
épaule	-8555
▁ailes	-8556
▁amuse	-8557
▁beaux	-8558
▁bénin	-8559
▁corne	-8560
▁discr	-8561
▁dégât	-8562
▁exige	-8563
▁finit	-8564
▁fouet	-8565
▁gérer	-8566
▁jaill	-8567
▁laver	-8568
▁reçus	-8569
▁sympt	-8570
▁vôtre	-8571
appelez	-8572
apprête	-8573
enquête	-8574
iendras	-8575
oralité	-8576
urrence	-8577
éloigna	-8578
▁bouill	-8579
▁cesser	-8580
▁couvre	-8581
▁durent	-8582
▁débuté	-8583
▁ephèse	-8584
▁jephté	-8585
▁miroir	-8586
▁montée	-8587
▁néglig	-8588
▁purent	-8589
▁ralent	-8590
▁repart	-8591
▁sabach	-8592
▁sacrés	-8593
▁sollic	-8594
▁trahis	-8595
▁trajet	-8596
accroche	-8597
▁assurez	-8598
▁barnabé	-8599
▁classes	-8600
▁contrat	-8601
▁dommage	-8602
▁désigne	-8603
▁eussiez	-8604
▁mortels	-8605
▁parlant	-8606
▁refuser	-8607
▁survécu	-8608
adressait	-8609
extrémité	-8610
habitants	-8611
housiasme	-8612
obtention	-8613
portunité	-8614
▁fréquent	-8615
▁garantie	-8616
▁inébranl	-8617
▁justifié	-8618
▁mangeras	-8619
▁purifiés	-8620
▁reconnus	-8621
▁remporte	-8622
▁resterai	-8623
abandonnez	-8624
achèvement	-8625
emmenèrent	-8626
▁atteindre	-8627
▁attendent	-8628
▁compagnon	-8629
▁dispersés	-8630
▁essentiel	-8631
▁interroge	-8632
▁librement	-8633
▁moururent	-8634
▁passionné	-8635
▁proclamer	-8636
▁progressi	-8637
▁suffisant	-8638
▁télécharg	-8639
▁accueillis	-8640
▁corruption	-8641
▁couramment	-8642
▁envoyèrent	-8643
▁faiblesses	-8644
▁historique	-8645
▁maternelle	-8646
▁révolution	-8647
▁transforme	-8648
▁bienheureux	-8649
▁circulation	-8650
▁instruments	-8651
▁reconnaisse	-8652
▁sabachthani	-8653
▁associations	-8654
▁dispositions	-8655
▁possibilités	-8656
▁connaissaient	-8657
ck	-8658
du	-8659
atr	-8660
eve	-8661
iam	-8662
mat	-8663
own	-8664
uln	-8665
vre	-8666
▁gh	-8667
▁hi	-8668
▁ro	-8669
!!!!	-8670
ombr	-8671
quie	-8672
rict	-8673
ulée	-8674
édom	-8675
élim	-8676
ômes	-8677
▁!."	-8678
▁dil	-8679
▁eût	-8680
▁mig	-8681
▁pyr	-8682
▁sir	-8683
▁ski	-8684
ançon	-8685
naire	-8686
orant	-8687
rants	-8688
élect	-8689
▁barb	-8690
▁bâti	-8691
▁chin	-8692
▁impr	-8693
▁roch	-8694
▁sott	-8695
▁stim	-8696
aignée	-8697
attrib	-8698
effort	-8699
empara	-8700
employ	-8701
ervent	-8702
instar	-8703
interc	-8704
traper	-8705
éponge	-8706
▁admis	-8707
▁affam	-8708
▁boule	-8709
▁casse	-8710
▁célib	-8711
▁doigt	-8712
▁dégoû	-8713
▁enlev	-8714
▁fallu	-8715
▁fosse	-8716
▁louer	-8717
▁rabbi	-8718
▁sacer	-8719
▁sucre	-8720
▁tests	-8721
entions	-8722
▁bruits	-8723
▁cachée	-8724
▁dérang	-8725
▁essaie	-8726
▁exacte	-8727
▁festin	-8728
▁ignore	-8729
▁lampes	-8730
▁limité	-8731
▁lisant	-8732
▁lévite	-8733
▁menace	-8734
▁rentra	-8735
▁solide	-8736
▁thèmes	-8737
▁tranch	-8738
▁volant	-8739
▁ébranl	-8740
▁étonné	-8741
abilités	-8742
arrivent	-8743
▁adressé	-8744
▁confier	-8745
▁correct	-8746
▁démunis	-8747
▁empress	-8748
▁frappés	-8749
▁oubliée	-8750
▁partant	-8751
▁porteur	-8752
▁préserv	-8753
▁renards	-8754
▁reprend	-8755
▁retirés	-8756
▁section	-8757
▁station	-8758
▁tournée	-8759
▁veiller	-8760
▁épisode	-8761
▁établit	-8762
attendons	-8763
▁arrivons	-8764
▁consomme	-8765
▁critique	-8766
▁domaines	-8767
▁enregist	-8768
▁haïssent	-8769
▁humaines	-8770
▁individu	-8771
▁marchand	-8772
▁matériel	-8773
▁mourront	-8774
▁réussite	-8775
▁scolaire	-8776
▁surpasse	-8777
admiration	-8778
entretenir	-8779
▁administr	-8780
▁approchez	-8781
▁appréciés	-8782
▁cessaient	-8783
▁connaitre	-8784
▁constitué	-8785
▁détruirai	-8786
▁faiblesse	-8787
▁persécuté	-8788
▁procédure	-8789
▁souvienne	-8790
▁survenant	-8791
▁demanderez	-8792
▁emprisonné	-8793
▁permettait	-8794
▁protecteur	-8795
▁traditions	-8796
▁volontaire	-8797
▁soixantaine	-8798
▁supportable	-8799
▁sympathique	-8800
▁bienheureuse	-8801
▁observations	-8802
adj	-8803
lin	-8804
upt	-8805
▁pt	-8806
ilib	-8807
prés	-8808
édie	-8809
évac	-8810
évol	-8811
▁lés	-8812
▁urb	-8813
▁vén	-8814
...;)	-8815
achar	-8816
affil	-8817
avanc	-8818
icher	-8819
imité	-8820
olâtr	-8821
ouler	-8822
épouv	-8823
▁fout	-8824
▁jack	-8825
▁loue	-8826
▁mant	-8827
▁mena	-8828
▁muni	-8829
▁stér	-8830
▁susp	-8831
achaïe	-8832
acquit	-8833
allume	-8834
andais	-8835
astuce	-8836
enions	-8837
iation	-8838
iquant	-8839
phrate	-8840
tralie	-8841
éprouv	-8842
étaire	-8843
études	-8844
▁actif	-8845
▁amène	-8846
▁angel	-8847
▁appuy	-8848
▁basse	-8849
▁ceint	-8850
▁idole	-8851
▁idéal	-8852
▁jessé	-8853
▁print	-8854
▁revue	-8855
▁tache	-8856
▁unies	-8857
▁usage	-8858
ataires	-8859
embrass	-8860
espérer	-8861
itoyens	-8862
▁avancé	-8863
▁bêtise	-8864
▁centur	-8865
▁commém	-8866
▁duquel	-8867
▁décida	-8868
▁défait	-8869
▁idiots	-8870
▁massac	-8871
▁minute	-8872
▁nettoy	-8873
▁notion	-8874
▁pointe	-8875
▁quitta	-8876
▁sardes	-8877
▁séparé	-8878
▁volume	-8879
▁écrive	-8880
accorder	-8881
agricult	-8882
alentour	-8883
effectue	-8884
illusion	-8885
écrivain	-8886
▁cerveau	-8887
▁concert	-8888
▁ensevel	-8889
▁gabriel	-8890
▁normale	-8891
▁prenait	-8892
▁recours	-8893
▁remplit	-8894
▁réussir	-8895
▁saisons	-8896
▁traduit	-8897
▁visages	-8898
affronter	-8899
▁attachés	-8900
▁attentif	-8901
▁biblique	-8902
▁branches	-8903
▁descends	-8904
▁déjeuner	-8905
▁empêchez	-8906
▁grandeur	-8907
▁mariages	-8908
▁origines	-8909
▁relâcher	-8910
▁remplacé	-8911
▁remporté	-8912
▁réfugiés	-8913
▁témoigne	-8914
immoralité	-8915
▁accomplit	-8916
▁bienvenue	-8917
▁chérubins	-8918
▁démission	-8919
▁détourner	-8920
▁familiale	-8921
▁infidèles	-8922
▁ressentir	-8923
▁sauvegard	-8924
▁commission	-8925
▁conducteur	-8926
▁formidable	-8927
▁intentions	-8928
▁nouveautés	-8929
▁rechercher	-8930
▁silencieux	-8931
▁structures	-8932
▁tabernacle	-8933
▁administrer	-8934
▁appartement	-8935
▁disparaîtra	-8936
▁département	-8937
▁littérature	-8938
▁nourrissent	-8939
▁transporter	-8940
▁avertissement	-8941
▁félicitations	-8942
▁soigneusement	-8943
▁renseignements	-8944
fl	-8945
za	-8946
?."	-8947
dou	-8948
kin	-8949
onv	-8950
ork	-8951
tou	-8952
▁dh	-8953
ampl	-8954
ario	-8955
arry	-8956
ceau	-8957
chés	-8958
mise	-8959
neur	-8960
quin	-8961
éden	-8962
érap	-8963
▁etc	-8964
▁féd	-8965
▁hal	-8966
▁hos	-8967
▁sun	-8968
achab	-8969
annon	-8970
ariat	-8971
bourg	-8972
effor	-8973
eniez	-8974
escal	-8975
hérit	-8976
inent	-8977
maint	-8978
èches	-8979
▁crép	-8980
▁décr	-8981
▁exig	-8982
▁fous	-8983
▁gour	-8984
▁musc	-8985
▁pétr	-8986
▁roul	-8987
▁sors	-8988
▁vant	-8989
idique	-8990
lation	-8991
onnent	-8992
▁afric	-8993
▁colon	-8994
▁coûte	-8995
▁desqu	-8996
▁euros	-8997
▁forum	-8998
▁graph	-8999
▁levés	-9000
▁lourd	-9001
▁léger	-9002
▁nulle	-9003
▁pause	-9004
▁peste	-9005
▁phase	-9006
▁ravis	-9007
▁remet	-9008
▁riait	-9009
▁vigil	-9010
appréci	-9011
avancer	-9012
ergence	-9013
exercer	-9014
inateur	-9015
opinion	-9016
échelle	-9017
▁aident	-9018
▁avance	-9019
▁charme	-9020
▁couler	-9021
▁criait	-9022
▁danser	-9023
▁filets	-9024
▁grotte	-9025
▁lament	-9026
▁opposé	-9027
▁oublie	-9028
▁polici	-9029
▁réalis	-9030
▁éphèse	-9031
associer	-9032
euphrate	-9033
existait	-9034
utilisez	-9035
▁accéder	-9036
▁arrêtez	-9037
▁attirer	-9038
▁cilicie	-9039
▁deviens	-9040
▁emmenés	-9041
▁intense	-9042
▁maximum	-9043
▁minimum	-9044
▁nourris	-9045
▁portait	-9046
▁préféré	-9047
▁rejette	-9048
▁reprise	-9049
▁séduire	-9050
▁traités	-9051
▁viandes	-9052
▁écoulés	-9053
apparence	-9054
effectuer	-9055
endurance	-9056
▁aimerait	-9057
▁condamne	-9058
▁ezéchias	-9059
▁josaphat	-9060
▁médecine	-9061
▁pressait	-9062
▁prodiges	-9063
▁prêchant	-9064
▁évangile	-9065
▁améliorer	-9066
▁bâtiments	-9067
▁cananéens	-9068
▁challenge	-9069
▁constater	-9070
▁déterminé	-9071
▁fermement	-9072
▁influence	-9073
▁laisserai	-9074
▁palestine	-9075
▁relatives	-9076
▁similaire	-9077
▁tendresse	-9078
▁toilettes	-9079
▁vengeance	-9080
▁voudrions	-9081
▁abandonner	-9082
▁apparaître	-9083
▁commettent	-9084
▁militaires	-9085
▁miraculeux	-9086
▁présentent	-9087
▁recommanda	-9088
▁recommandé	-9089
▁rencontrés	-9090
▁retournent	-9091
▁concitoyens	-9092
▁regardaient	-9093
appartiennent	-9094
▁discernement	-9095
▁intelligents	-9096
▁représentant	-9097
▁représentent	-9098
can	-9099
ete	-9100
ffe	-9101
gie	-9102
hua	-9103
héb	-9104
ley	-9105
lée	-9106
mad	-9107
ora	-9108
sal	-9109
ault	-9110
eler	-9111
esti	-9112
etés	-9113
isan	-9114
lige	-9115
nées	-9116
omac	-9117
ophe	-9118
urez	-9119
ésil	-9120
▁ade	-9121
▁ber	-9122
▁esa	-9123
▁eue	-9124
▁faç	-9125
▁mik	-9126
▁pin	-9127
▁ésa	-9128
angle	-9129
ifiez	-9130
juifs	-9131
▁abel	-9132
▁acqu	-9133
▁dict	-9134
▁from	-9135
▁lave	-9136
▁lavé	-9137
▁liée	-9138
▁mené	-9139
▁nids	-9140
▁quas	-9141
▁répl	-9142
agisse	-9143
aleine	-9144
allons	-9145
audace	-9146
emmène	-9147
endort	-9148
entrai	-9149
esseur	-9150
irable	-9151
étouff	-9152
▁barre	-9153
▁concr	-9154
▁conne	-9155
▁devra	-9156
▁dépou	-9157
▁ecris	-9158
▁envah	-9159
▁moise	-9160
▁optim	-9161
▁ruine	-9162
▁stock	-9163
▁vaine	-9164
▁vases	-9165
▁verse	-9166
amusent	-9167
analyse	-9168
arrière	-9169
exploit	-9170
imposer	-9171
isseurs	-9172
itables	-9173
olâtrie	-9174
onction	-9175
établit	-9176
▁absent	-9177
▁amener	-9178
▁appels	-9179
▁bassin	-9180
▁blancs	-9181
▁brésil	-9182
▁causes	-9183
▁disque	-9184
▁dégâts	-9185
▁forcés	-9186
▁guider	-9187
▁locale	-9188
▁mandat	-9189
▁nathan	-9190
▁négoci	-9191
▁poésie	-9192
▁revend	-9193
▁rédigé	-9194
▁sacrée	-9195
▁voyais	-9196
▁écoles	-9197
aggraver	-9198
embrasse	-9199
émission	-9200
▁catastr	-9201
▁choisis	-9202
▁devoirs	-9203
▁décroch	-9204
▁défendu	-9205
▁déroulé	-9206
▁exploit	-9207
▁fatigué	-9208
▁francis	-9209
▁frapper	-9210
▁furieux	-9211
▁imaginé	-9212
▁jardins	-9213
▁mettrai	-9214
▁michael	-9215
▁observe	-9216
▁positif	-9217
▁regroup	-9218
▁rempart	-9219
▁rentrée	-9220
▁rigueur	-9221
▁sortant	-9222
▁voleurs	-9223
▁épouses	-9224
important	-9225
intendant	-9226
olocauste	-9227
ématiques	-9228
▁approché	-9229
▁changent	-9230
▁conquête	-9231
▁conseill	-9232
▁destinés	-9233
▁laissent	-9234
▁maltrait	-9235
▁organisé	-9236
▁procéder	-9237
▁prémices	-9238
▁renoncer	-9239
▁répandue	-9240
▁tombeaux	-9241
infirmière	-9242
ustensiles	-9243
▁centurion	-9244
▁descendra	-9245
▁développé	-9246
▁entendait	-9247
▁invoquent	-9248
▁largement	-9249
▁lentement	-9250
▁mentionné	-9251
▁permettez	-9252
▁permettra	-9253
▁prononcée	-9254
▁proposent	-9255
▁reconnais	-9256
▁regardant	-9257
▁réactions	-9258
▁utilisées	-9259
enfantement	-9260
▁catégories	-9261
▁européenne	-9262
▁impeccable	-9263
▁maladresse	-9264
▁motivation	-9265
▁respectent	-9266
▁techniques	-9267
installation	-9268
▁britannique	-9269
▁communautés	-9270
▁considèrent	-9271
▁emprisonnés	-9272
▁ressusciter	-9273
▁samaritaine	-9274
▁considérable	-9275
▁gratuitement	-9276
▁merveilleuse	-9277
▁propitiation	-9278
▁travailleurs	-9279
▁propitiatoire	-9280
▁collaborateurs	-9281
▁quotidiennement	-9282
"?	-9283
bi	-9284
wa	-9285
ata	-9286
déj	-9287
esa	-9288
hos	-9289
ymp	-9290
écr	-9291
éda	-9292
▁js	-9293
▁ok	-9294
alys	-9295
arte	-9296
aîné	-9297
inal	-9298
inér	-9299
jean	-9300
nait	-9301
urée	-9302
âmes	-9303
▁bra	-9304
▁cig	-9305
▁fal	-9306
▁flé	-9307
▁gér	-9308
▁ouï	-9309
▁vif	-9310
album	-9311
anias	-9312
appui	-9313
arque	-9314
derne	-9315
irait	-9316
irrit	-9317
iture	-9318
obéir	-9319
oqués	-9320
urant	-9321
échec	-9322
▁buis	-9323
▁clan	-9324
▁feux	-9325
▁laid	-9326
▁mend	-9327
▁noah	-9328
▁noix	-9329
▁pria	-9330
▁rock	-9331
▁siff	-9332
▁vole	-9333
▁égar	-9334
▁élie	-9335
acteur	-9336
aisons	-9337
antéch	-9338
arrage	-9339
examen	-9340
ièrent	-9341
opposé	-9342
orique	-9343
primés	-9344
relles	-9345
uement	-9346
uisant	-9347
ussent	-9348
énerve	-9349
▁ammon	-9350
▁amusé	-9351
▁brûle	-9352
▁décor	-9353
▁fondé	-9354
▁gagne	-9355
▁hiver	-9356
▁irons	-9357
▁local	-9358
▁manip	-9359
▁plage	-9360
▁plate	-9361
▁posté	-9362
▁rêves	-9363
▁tasse	-9364
▁tress	-9365
▁vaill	-9366
accroch	-9367
ennemis	-9368
iendrez	-9369
▁calend	-9370
▁créées	-9371
▁exerce	-9372
▁existé	-9373
▁fourni	-9374
▁gamins	-9375
▁infect	-9376
▁invent	-9377
▁jeanne	-9378
▁joyeux	-9379
▁mondes	-9380
▁orphel	-9381
▁plaign	-9382
▁planté	-9383
▁record	-9384
▁report	-9385
▁réagir	-9386
▁récits	-9387
▁tempér	-9388
▁tester	-9389
▁vaincu	-9390
▁élimin	-9391
▁éveill	-9392
agements	-9393
assadeur	-9394
avantage	-9395
expulser	-9396
immeuble	-9397
installa	-9398
occupent	-9399
officier	-9400
oquement	-9401
économie	-9402
éhension	-9403
élection	-9404
épanouir	-9405
▁athènes	-9406
▁couteau	-9407
▁diriger	-9408
▁exprime	-9409
▁loyauté	-9410
▁légende	-9411
▁manquer	-9412
▁mexique	-9413
▁monnaie	-9414
▁prisons	-9415
▁ravages	-9416
▁retenus	-9417
▁retient	-9418
▁récolte	-9419
▁semence	-9420
▁servira	-9421
▁soigner	-9422
▁solaire	-9423
▁tuteurs	-9424
▁tuèrent	-9425
▁variété	-9426
▁équipes	-9427
apprécier	-9428
▁appelait	-9429
▁champion	-9430
▁chouette	-9431
▁contente	-9432
▁culturel	-9433
▁destinée	-9434
▁délivrés	-9435
▁détester	-9436
▁examiner	-9437
▁football	-9438
▁glorifie	-9439
▁majorité	-9440
▁masculin	-9441
▁méritent	-9442
▁plaindre	-9443
▁poitrine	-9444
▁proclamé	-9445
▁quittent	-9446
▁reconnue	-9447
▁remonter	-9448
▁terminer	-9449
▁épisodes	-9450
antichrist	-9451
initiative	-9452
maintenant	-9453
▁assyriens	-9454
▁collectif	-9455
▁confusion	-9456
▁distingue	-9457
▁favoriser	-9458
▁galiléens	-9459
▁ignorants	-9460
▁indispens	-9461
▁offrirent	-9462
▁poursuite	-9463
▁printemps	-9464
▁quinzième	-9465
▁rassemblé	-9466
▁redevenir	-9467
▁remplacer	-9468
▁restèrent	-9469
▁réalisées	-9470
▁rédaction	-9471
▁réglement	-9472
▁réunirent	-9473
▁soumettre	-9474
▁terrestre	-9475
intéressent	-9476
orientation	-9477
▁confrontés	-9478
▁encourager	-9479
▁importance	-9480
▁méditation	-9481
▁personnels	-9482
▁phénomènes	-9483
▁propriétés	-9484
▁sanctifier	-9485
enthousiasme	-9486
introduction	-9487
▁annoncèrent	-9488
▁considérons	-9489
▁racontèrent	-9490
▁travaillait	-9491
encouragement	-9492
entretenaient	-9493
▁distribution	-9494
▁surveillance	-9495
▁réconciliation	-9496
?!	-9497
]:	-9498
adn	-9499
ati	-9500
cca	-9501
dam	-9502
den	-9503
hip	-9504
qua	-9505
▁cd	-9506
anth	-9507
aret	-9508
arra	-9509
eric	-9510
igme	-9511
ocht	-9512
oilà	-9513
olée	-9514
oqua	-9515
oust	-9516
raie	-9517
tête	-9518
udie	-9519
ulté	-9520
vain	-9521
èter	-9522
▁amp	-9523
▁faî	-9524
▁féc	-9525
▁gad	-9526
▁jer	-9527
▁omn	-9528
▁she	-9529
▁tib	-9530
abond	-9531
aigle	-9532
arist	-9533
aussi	-9534
avère	-9535
champ	-9536
ifiée	-9537
ignée	-9538
isson	-9539
lules	-9540
ofond	-9541
onyme	-9542
phone	-9543
uffis	-9544
▁amor	-9545
▁berl	-9546
▁corr	-9547
▁fraî	-9548
▁inse	-9549
▁iota	-9550
▁ling	-9551
▁vuln	-9552
▁ânes	-9553
▁éduc	-9554
▁élim	-9555
airain	-9556
aisser	-9557
ardeur	-9558
assaut	-9559
ennuie	-9560
esther	-9561
icieux	-9562
idémie	-9563
illage	-9564
irment	-9565
nelles	-9566
ouvant	-9567
rières	-9568
▁alain	-9569
▁cadav	-9570
▁causé	-9571
▁crème	-9572
▁dimin	-9573
▁massi	-9574
▁piété	-9575
▁poign	-9576
▁poule	-9577
▁reçut	-9578
▁tenue	-9579
▁triom	-9580
▁voire	-9581
absalom	-9582
endants	-9583
horizon	-9584
isabeth	-9585
▁ajoute	-9586
▁amitié	-9587
▁auquel	-9588
▁avenir	-9589
▁calmer	-9590
▁copine	-9591
▁cultiv	-9592
▁dépass	-9593
▁hautes	-9594
▁incroy	-9595
▁israel	-9596
▁lancée	-9597
▁pleuve	-9598
▁réclam	-9599
▁seriez	-9600
▁splend	-9601
▁élevés	-9602
attendez	-9603
audience	-9604
endormit	-9605
mosphère	-9606
▁adresse	-9607
▁buisson	-9608
▁centres	-9609
▁charges	-9610
▁citoyen	-9611
▁collège	-9612
▁confiée	-9613
▁devront	-9614
▁entends	-9615
▁fassent	-9616
▁inconnu	-9617
▁laissés	-9618
▁mondial	-9619
▁opinion	-9620
▁pareils	-9621
▁perturb	-9622
▁portera	-9623
▁promets	-9624
▁publics	-9625
▁sociale	-9626
▁suppose	-9627
▁temples	-9628
▁william	-9629
▁échappé	-9630
antiquité	-9631
entremise	-9632
▁cellules	-9633
▁comptait	-9634
▁confirmé	-9635
▁constaté	-9636
▁contenir	-9637
▁célestes	-9638
▁détourna	-9639
▁endormie	-9640
▁justesse	-9641
▁laissera	-9642
▁pareille	-9643
▁parvient	-9644
▁retirant	-9645
▁sortiras	-9646
▁utilisez	-9647
▁utilisée	-9648
antéchrist	-9649
appellerai	-9650
expériment	-9651
invitation	-9652
étonnement	-9653
▁affronter	-9654
▁bouteille	-9655
▁entraîner	-9656
▁intéressé	-9657
▁murailles	-9658
▁musiciens	-9659
▁naturelle	-9660
▁nécessite	-9661
▁physiques	-9662
▁précision	-9663
▁préfèrent	-9664
▁rassembla	-9665
▁recevront	-9666
▁regardons	-9667
▁retrouvée	-9668
▁réunissez	-9669
▁testament	-9670
▁visiteurs	-9671
▁voyageurs	-9672
électricité	-9673
▁comparable	-9674
▁convention	-9675
▁conviction	-9676
▁intérieure	-9677
▁retrouvent	-9678
▁succession	-9679
▁ustensiles	-9680
empressement	-9681
▁accusations	-9682
▁association	-9683
▁indépendant	-9684
▁intéressent	-9685
▁législation	-9686
▁ouvertement	-9687
▁partenaires	-9688
▁quatorzième	-9689
▁quotidienne	-9690
▁rassemblent	-9691
avertissement	-9692
▁comprenaient	-9693
▁explications	-9694
▁rassemblèrent	-9695
▁reconnaissent	-9696
▁nécessairement	-9697
▁réciproquement	-9698
cr	-9699
mm	-9700
adv	-9701
aya	-9702
elé	-9703
héd	-9704
ila	-9705
ilé	-9706
ino	-9707
iot	-9708
oms	-9709
oud	-9710
yon	-9711
anas	-9712
arth	-9713
auce	-9714
cont	-9715
ical	-9716
ific	-9717
ipse	-9718
maël	-9719
ptes	-9720
uant	-9721
unir	-9722
▁age	-9723
▁fée	-9724
▁goû	-9725
▁hym	-9726
▁mak	-9727
▁mol	-9728
▁sté	-9729
▁urg	-9730
abbas	-9731
ervez	-9732
iquez	-9733
monie	-9734
ustre	-9735
utrit	-9736
écrou	-9737
étire	-9738
▁bonn	-9739
▁chag	-9740
▁clim	-9741
▁créd	-9742
▁diam	-9743
▁guil	-9744
▁refl	-9745
▁repl	-9746
▁sers	-9747
▁tint	-9748
▁vaud	-9749
▁yoga	-9750
▁épau	-9751
angers	-9752
assure	-9753
dedans	-9754
issais	-9755
isseur	-9756
orable	-9757
ouvrit	-9758
épreux	-9759
éveill	-9760
▁arros	-9761
▁camar	-9762
▁censé	-9763
▁crist	-9764
▁dette	-9765
▁flamb	-9766
▁génie	-9767
▁joign	-9768
▁louez	-9769
▁nicol	-9770
▁pacte	-9771
▁parac	-9772
▁pench	-9773
▁posée	-9774
▁remit	-9775
▁stand	-9776
▁trous	-9777
▁têtes	-9778
emmener	-9779
ensible	-9780
estomac	-9781
hésitez	-9782
inspire	-9783
octobre	-9784
opposer	-9785
éphraïm	-9786
▁attest	-9787
▁casque	-9788
▁causer	-9789
▁collèg	-9790
▁comité	-9791
▁délais	-9792
▁excusé	-9793
▁forêts	-9794
▁gueule	-9795
▁imposé	-9796
▁jaloux	-9797
▁majeur	-9798
▁naaman	-9799
▁ninive	-9800
▁pleins	-9801
▁privée	-9802
▁pureté	-9803
▁refait	-9804
▁remets	-9805
▁situés	-9806
▁soulev	-9807
▁stupéf	-9808
▁valoir	-9809
accident	-9810
arrêtera	-9811
assassin	-9812
entendez	-9813
faiteurs	-9814
incendie	-9815
inscrire	-9816
▁accueil	-9817
▁astuces	-9818
▁cessait	-9819
▁chaises	-9820
▁couples	-9821
▁entende	-9822
▁forment	-9823
▁lépreux	-9824
▁moderne	-9825
▁monstre	-9826
▁numéros	-9827
▁occupés	-9828
▁parvint	-9829
▁racines	-9830
▁réservé	-9831
▁subsist	-9832
▁turquie	-9833
ascension	-9834
ouvrirent	-9835
épouvante	-9836
étrangers	-9837
▁apprenez	-9838
▁chaleure	-9839
▁composée	-9840
▁devenues	-9841
▁droiture	-9842
▁effrayer	-9843
▁employés	-9844
▁existent	-9845
▁fichiers	-9846
▁lumineux	-9847
▁parlerez	-9848
▁préparez	-9849
▁rivières	-9850
▁réalisés	-9851
▁tournent	-9852
▁affermira	-9853
▁alexandre	-9854
▁apprirent	-9855
▁bienvenus	-9856
▁blessures	-9857
▁concevoir	-9858
▁conseillé	-9859
▁dirigeait	-9860
▁dirigeant	-9861
▁donnèrent	-9862
▁féliciter	-9863
▁interview	-9864
▁parcourir	-9865
▁poursuivi	-9866
▁reproches	-9867
▁réfléchit	-9868
observation	-9869
▁décidément	-9870
▁enthousias	-9871
▁mouvements	-9872
▁pacifiques	-9873
▁recommande	-9874
▁récompensé	-9875
▁satisfaits	-9876
▁surprenant	-9877
▁accompagnés	-9878
▁caractérise	-9879
▁compétition	-9880
▁poursuivent	-9881
▁précautions	-9882
▁territoires	-9883
▁constitution	-9884
▁désobéissance	-9885
▁manifestation	-9886
▁thessalonique	-9887
▁responsabilités	-9888
ks	-9889
pé	-9890
ye	-9891
;-)	-9892
aka	-9893
arp	-9894
cro	-9895
eli	-9896
ima	-9897
mel	-9898
ney	-9899
ogn	-9900
osc	-9901
rad	-9902
tés	-9903
ude	-9904
voy	-9905
éna	-9906
▁ax	-9907
ague	-9908
ancé	-9909
gles	-9910
lamm	-9911
rets	-9912
sais	-9913
urés	-9914
usqu	-9915
èner	-9916
éral	-9917
▁cim	-9918
▁enn	-9919
▁gab	-9920
▁has	-9921
▁nad	-9922
▁nah	-9923
▁pel	-9924
▁pât	-9925
▁rug	-9926
▁rum	-9927
▁tol	-9928
▁yeh	-9929
[...]	-9930
acter	-9931
allég	-9932
encer	-9933
frère	-9934
ignon	-9935
orges	-9936
osses	-9937
ureté	-9938
voilà	-9939
▁ahhh	-9940
▁baal	-9941
▁bain	-9942
▁bang	-9943
▁brun	-9944
▁bruy	-9945
▁crut	-9946
▁fixe	-9947
▁loth	-9948
▁lâch	-9949
▁pati	-9950
▁rage	-9951
▁rupt	-9952
▁soph	-9953
▁virg	-9954
▁éval	-9955
agnost	-9956
appuie	-9957
asions	-9958
attard	-9959
elysée	-9960
ouvoir	-9961
▁accum	-9962
▁allâh	-9963
▁broch	-9964
▁butin	-9965
▁camps	-9966
▁coule	-9967
▁défis	-9968
▁dîner	-9969
▁filet	-9970
▁haïra	-9971
▁infin	-9972
▁liées	-9973
▁peupl	-9974
▁remém	-9975
▁résol	-9976
▁sains	-9977
▁salon	-9978
▁simpl	-9979
▁stéph	-9980
▁torah	-9981
▁échec	-9982
alexand	-9983
hesitez	-9984
honorer	-9985
jection	-9986
obtient	-9987
échappe	-9988
échauff	-9989
étiques	-9990
▁amenés	-9991
▁attiré	-9992
▁bourse	-9993
▁datant	-9994
▁dégoût	-9995
▁habité	-9996
▁incarc	-9997
▁incend	-9998
▁incirc	-9999
▁nobles	-10000
▁passez	-10001
▁pistes	-10002
▁trembl	-10003
▁vaches	-10004
▁épousé	-10005
agissant	-10006
opposent	-10007
oulement	-10008
ématique	-10009
éremment	-10010
▁assujet	-10011
▁autocht	-10012
▁circonc	-10013
▁confond	-10014
▁courent	-10015
▁demeura	-10016
▁envoyée	-10017
▁experts	-10018
▁fichier	-10019
▁inspiré	-10020
▁loisirs	-10021
▁offerts	-10022
▁parlera	-10023
▁procédé	-10024
▁publiée	-10025
▁pédagog	-10026
▁retirez	-10027
▁résisté	-10028
▁soumise	-10029
▁vaincre	-10030
▁violent	-10031
▁voyages	-10032
▁vérités	-10033
▁étudier	-10034
entourent	-10035
▁abandonn	-10036
▁adultère	-10037
▁aimaient	-10038
▁archives	-10039
▁blessure	-10040
▁centrale	-10041
▁courtois	-10042
▁diagnost	-10043
▁détourné	-10044
▁envisagé	-10045
▁essayant	-10046
▁légitime	-10047
▁modifier	-10048
▁paraclet	-10049
▁reconnut	-10050
▁réalisée	-10051
▁secourir	-10052
expédition	-10053
ographique	-10054
opposition	-10055
▁allemands	-10056
▁cavaliers	-10057
▁concernés	-10058
▁contrôler	-10059
▁craignait	-10060
▁effectuer	-10061
▁examinons	-10062
▁instantan	-10063
▁interdits	-10064
▁matériaux	-10065
▁ministres	-10066
▁paraboles	-10067
▁passaient	-10068
▁pharisien	-10069
▁proverbes	-10070
▁resteront	-10071
▁réconfort	-10072
▁résidents	-10073
▁servantes	-10074
▁sincérité	-10075
▁témoigner	-10076
attachement	-10077
élaboration	-10078
▁abandonnés	-10079
▁apparition	-10080
▁brièvement	-10081
▁descendait	-10082
▁dispositif	-10083
▁patiemment	-10084
▁réunissent	-10085
amélioration	-10086
▁alcoolisées	-10087
▁collecteurs	-10088
▁discussions	-10089
▁désagrément	-10090
▁financement	-10091
▁normalement	-10092
▁philosophie	-10093
▁préparatifs	-10094
▁souviennent	-10095
▁transportés	-10096
▁alimentaires	-10097
▁contribution	-10098
▁descendirent	-10099
▁personnelles	-10100
▁attentivement	-10101
▁participation	-10102
▁propriétaires	-10103
▁définitivement	-10104
▁sanctification	-10105
▁éventuellement	-10106
ua	-10107
yo	-10108
ark	-10109
feu	-10110
get	-10111
gén	-10112
hém	-10113
iki	-10114
omi	-10115
pas	-10116
pet	-10117
pit	-10118
uté	-10119
▁pn	-10120
▁sw	-10121
▁tv	-10122
ject	-10123
oger	-10124
oges	-10125
unit	-10126
élég	-10127
▁?).	-10128
▁ari	-10129
▁did	-10130
▁fas	-10131
▁guy	-10132
▁ibn	-10133
▁jés	-10134
▁lyr	-10135
▁nik	-10136
▁pon	-10137
▁syl	-10138
▁tas	-10139
▁ôté	-10140
adapt	-10141
amène	-10142
avril	-10143
ceaux	-10144
ensui	-10145
icace	-10146
imbéc	-10147
indép	-10148
ingue	-10149
innoc	-10150
iseur	-10151
édéon	-10152
érées	-10153
▁band	-10154
▁bloc	-10155
▁boss	-10156
▁cest	-10157
▁coff	-10158
▁cuba	-10159
▁céré	-10160
▁entr	-10161
▁foin	-10162
▁guit	-10163
▁harc	-10164
▁host	-10165
▁joël	-10166
▁menu	-10167
▁pige	-10168
▁posa	-10169
▁taux	-10170
▁vice	-10171
achète	-10172
adulte	-10173
exprim	-10174
hédrin	-10175
maître	-10176
organe	-10177
uiront	-10178
uisait	-10179
▁animé	-10180
▁apais	-10181
▁autel	-10182
▁bords	-10183
▁bœufs	-10184
▁citer	-10185
▁direz	-10186
▁guise	-10187
▁génés	-10188
▁inond	-10189
▁ivrog	-10190
▁nabal	-10191
▁plaie	-10192
▁pyram	-10193
▁rémun	-10194
▁salue	-10195
▁solid	-10196
▁taure	-10197
▁vache	-10198
▁voler	-10199
adopter	-10200
ommages	-10201
étoiles	-10202
▁[...].	-10203
▁abîmes	-10204
▁affich	-10205
▁avocat	-10206
▁berger	-10207
▁béthel	-10208
▁contra	-10209
▁deviez	-10210
▁déesse	-10211
▁défens	-10212
▁explos	-10213
▁feriez	-10214
▁gédéon	-10215
▁lyrics	-10216
▁michée	-10217
▁moulin	-10218
▁pilote	-10219
▁placer	-10220
▁ramène	-10221
▁refusa	-10222
▁rythme	-10223
▁saluer	-10224
▁singap	-10225
▁soufre	-10226
▁suppos	-10227
▁volupt	-10228
▁écoulé	-10229
▁évoque	-10230
abstenir	-10231
aliments	-10232
enceinte	-10233
examiner	-10234
impureté	-10235
orgueill	-10236
sibilité	-10237
▁affamés	-10238
▁associé	-10239
▁attaque	-10240
▁authent	-10241
▁chagrin	-10242
▁confirm	-10243
▁divisés	-10244
▁débuter	-10245
▁délaiss	-10246
▁dérange	-10247
▁engagés	-10248
▁exprimé	-10249
▁fenêtre	-10250
▁manques	-10251
▁mineurs	-10252
▁municip	-10253
▁permets	-10254
▁potable	-10255
▁prolong	-10256
▁prospér	-10257
▁protest	-10258
▁ramener	-10259
▁rappelé	-10260
▁remords	-10261
▁sottise	-10262
▁soutenu	-10263
▁suggest	-10264
amenèrent	-10265
▁annuelle	-10266
▁barabbas	-10267
▁brigands	-10268
▁conforme	-10269
▁contents	-10270
▁district	-10271
▁délivrer	-10272
▁dépenses	-10273
▁lunettes	-10274
▁moudront	-10275
▁provoque	-10276
▁prévenir	-10277
▁refusent	-10278
▁respecté	-10279
▁soutiens	-10280
▁tourment	-10281
▁traitées	-10282
▁transmis	-10283
▁épouvant	-10284
▁étudiant	-10285
alexandrie	-10286
appliquent	-10287
holocauste	-10288
▁agréables	-10289
▁bienveill	-10290
▁coupables	-10291
▁deviendra	-10292
▁diffusion	-10293
▁favorable	-10294
▁intention	-10295
▁introduit	-10296
▁précarité	-10297
▁préparent	-10298
▁préparées	-10299
▁publiques	-10300
▁randonnée	-10301
▁sanhédrin	-10302
▁solitaire	-10303
▁souhaiter	-10304
▁touristes	-10305
▁traverser	-10306
▁tromperie	-10307
inscription	-10308
▁conscients	-10309
▁continuait	-10310
▁dépression	-10311
▁partenaire	-10312
▁populaires	-10313
▁popularité	-10314
▁produisent	-10315
▁prosterner	-10316
▁souhaitent	-10317
▁sévèrement	-10318
autorisation	-10319
▁appartenait	-10320
▁convictions	-10321
▁incirconcis	-10322
▁magnifiques	-10323
▁obligatoire	-10324
▁promptement	-10325
▁ressemblait	-10326
▁organisation	-10327
▁souveraineté	-10328
administrateur	-10329
▁irréprochable	-10330
▁reconnaissant	-10331
▁recommandation	-10332
▁établissements	-10333
];	-10334
oa	-10335
uk	-10336
aïl	-10337
dan	-10338
ico	-10339
ius	-10340
jeu	-10341
oua	-10342
pin	-10343
ull	-10344
zer	-10345
éde	-10346
▁['	-10347
▁ak	-10348
▁gâ	-10349
▁ml	-10350
▁ur	-10351
▁ya	-10352
...?	-10353
ader	-10354
alté	-10355
arre	-10356
cres	-10357
elie	-10358
empr	-10359
neté	-10360
odie	-10361
oter	-10362
pell	-10363
umée	-10364
çade	-10365
▁aud	-10366
▁cla	-10367
▁cyr	-10368
▁had	-10369
▁néh	-10370
▁pis	-10371
▁seg	-10372
▁tox	-10373
accum	-10374
aides	-10375
ensif	-10376
giène	-10377
icien	-10378
jusqu	-10379
ochus	-10380
quées	-10381
▁..."	-10382
▁argu	-10383
▁cast	-10384
▁cray	-10385
▁crét	-10386
▁cuir	-10387
▁déco	-10388
▁fume	-10389
▁joas	-10390
▁mali	-10391
▁maît	-10392
▁palm	-10393
▁préj	-10394
▁resc	-10395
▁sain	-10396
▁tite	-10397
▁unes	-10398
▁émer	-10399
adorer	-10400
aments	-10401
apprêt	-10402
enants	-10403
endurc	-10404
eubles	-10405
incons	-10406
invest	-10407
iosité	-10408
izième	-10409
ouille	-10410
ralité	-10411
▁agent	-10412
▁agrip	-10413
▁arabe	-10414
▁beths	-10415
▁bibli	-10416
▁boudd	-10417
▁bourg	-10418
▁bravo	-10419
▁chuch	-10420
▁cimet	-10421
▁croir	-10422
▁dédié	-10423
▁embar	-10424
▁fiers	-10425
▁harry	-10426
▁hôtel	-10427
▁issus	-10428
▁lâche	-10429
▁nuire	-10430
▁parag	-10431
▁pomme	-10432
▁porcs	-10433
▁posés	-10434
▁prêté	-10435
▁subit	-10436
▁vague	-10437
▁vieil	-10438
iendrai	-10439
issaire	-10440
obation	-10441
▁acteur	-10442
▁altern	-10443
▁anéant	-10444
▁arabes	-10445
▁asserv	-10446
▁averti	-10447
▁boucle	-10448
▁brille	-10449
▁brûlée	-10450
▁confus	-10451
▁courut	-10452
▁dégout	-10453
▁déploy	-10454
▁engagé	-10455
▁fameux	-10456
▁fermée	-10457
▁listes	-10458
▁martin	-10459
▁normes	-10460
▁ombres	-10461
▁plonge	-10462
▁plumes	-10463
▁rebond	-10464
▁réside	-10465
▁séries	-10466
▁tombes	-10467
▁vignes	-10468
▁évoqué	-10469
adoption	-10470
améliore	-10471
argument	-10472
articles	-10473
entendis	-10474
ercevoir	-10475
inspirer	-10476
ustement	-10477
éléments	-10478
▁adeptes	-10479
▁adressa	-10480
▁brûlant	-10481
▁bêtises	-10482
▁caverne	-10483
▁clément	-10484
▁complet	-10485
▁consult	-10486
▁dixième	-10487
▁détendu	-10488
▁employé	-10489
▁figures	-10490
▁intelle	-10491
▁libérés	-10492
▁magasin	-10493
▁manteau	-10494
▁néhémie	-10495
▁oreille	-10496
▁perpétu	-10497
▁quittée	-10498
▁recevra	-10499
▁renvers	-10500
▁reçoive	-10501
▁salarié	-10502
▁sorties	-10503
▁établie	-10504
accrocher	-10505
idolâtrie	-10506
ustration	-10507
▁adressée	-10508
▁amérique	-10509
▁chantent	-10510
▁compatri	-10511
▁conjoint	-10512
▁déroulée	-10513
▁désirons	-10514
▁essaient	-10515
▁mangerez	-10516
▁passions	-10517
▁proclame	-10518
▁produite	-10519
▁profonde	-10520
▁prudents	-10521
▁périodes	-10522
▁reçurent	-10523
▁semblent	-10524
▁traduire	-10525
▁vocation	-10526
▁éloignée	-10527
▁ammonites	-10528
▁amoureuse	-10529
▁apparence	-10530
▁consacrer	-10531
▁opération	-10532
▁ordinaire	-10533
▁orphelins	-10534
▁parlement	-10535
▁policiers	-10536
▁pratiquer	-10537
▁terrifiés	-10538
▁éléphants	-10539
acceptation	-10540
incarnation	-10541
incrédulité	-10542
▁calendrier	-10543
▁classement	-10544
▁combattant	-10545
▁démocratie	-10546
▁fidèlement	-10547
▁glorifiant	-10548
▁génésareth	-10549
▁méditerran	-10550
▁permission	-10551
▁retirèrent	-10552
▁trompettes	-10553
▁économique	-10554
▁alimentaire	-10555
▁apparemment	-10556
▁contraintes	-10557
▁perspective	-10558
▁différemment	-10559
▁empressement	-10560
▁précédemment	-10561
▁présentèrent	-10562
▁divertissement	-10563
▁internationale	-10564
▁officiellement	-10565
dy	-10566
fi	-10567
ht	-10568
oj	-10569
so	-10570
wh	-10571
dée	-10572
dés	-10573
ips	-10574
ket	-10575
med	-10576
ood	-10577
pha	-10578
rah	-10579
rég	-10580
uki	-10581
▁"?	-10582
▁gn	-10583
ainé	-10584
anna	-10585
cons	-10586
dium	-10587
doce	-10588
entr	-10589
eute	-10590
hist	-10591
itha	-10592
lait	-10593
ogée	-10594
olém	-10595
omes	-10596
orch	-10597
ourd	-10598
plus	-10599
uait	-10600
vité	-10601
èdre	-10602
évit	-10603
▁arg	-10604
▁bad	-10605
▁gel	-10606
▁gém	-10607
▁let	-10608
▁lyc	-10609
▁ner	-10610
▁sev	-10611
▁tog	-10612
▁vil	-10613
▁véc	-10614
▁yan	-10615
▁you	-10616
▁élu	-10617
aigne	-10618
ancée	-10619
becca	-10620
endue	-10621
eneur	-10622
excès	-10623
isans	-10624
iteur	-10625
quait	-10626
rabbi	-10627
rance	-10628
seaux	-10629
ulent	-10630
écias	-10631
▁airs	-10632
▁boue	-10633
▁carn	-10634
▁corp	-10635
▁deut	-10636
▁doté	-10637
▁laps	-10638
▁lier	-10639
▁luxe	-10640
▁noté	-10641
▁park	-10642
▁pein	-10643
▁pere	-10644
▁rabb	-10645
▁rétr	-10646
▁sûrs	-10647
▁volé	-10648
abbaye	-10649
agence	-10650
alerte	-10651
embles	-10652
imitié	-10653
inions	-10654
éniens	-10655
éthiop	-10656
▁banni	-10657
▁boite	-10658
▁bénév	-10659
▁cités	-10660
▁corde	-10661
▁dires	-10662
▁décap	-10663
▁délit	-10664
▁etant	-10665
▁immol	-10666
▁menti	-10667
▁messe	-10668
▁naiss	-10669
▁niger	-10670
▁noble	-10671
▁néant	-10672
▁parts	-10673
▁pleut	-10674
▁poète	-10675
▁rares	-10676
▁rebât	-10677
▁seign	-10678
▁sécur	-10679
▁tenus	-10680
▁voila	-10681
▁égorg	-10682
assiéra	-10683
emprise	-10684
entente	-10685
icieuse	-10686
regarde	-10687
▁accour	-10688
▁cathéd	-10689
▁chérie	-10690
▁dettes	-10691
▁diffus	-10692
▁dirigé	-10693
▁doigts	-10694
▁débute	-10695
▁façade	-10696
▁guadel	-10697
▁génial	-10698
▁habita	-10699
▁horrif	-10700
▁humeur	-10701
▁incons	-10702
▁incont	-10703
▁jouait	-10704
▁logici	-10705
▁louant	-10706
▁maitre	-10707
▁mortel	-10708
▁pascal	-10709
▁peines	-10710
▁ptolém	-10711
▁rayons	-10712
▁remett	-10713
▁soucie	-10714
▁souill	-10715
▁suivie	-10716
▁tentes	-10717
▁égards	-10718
▁étendu	-10719
agissent	-10720
antillon	-10721
déjeuner	-10722
embarras	-10723
ergement	-10724
extraord	-10725
iendrait	-10726
imbécile	-10727
septième	-10728
étudiant	-10729
▁agneaux	-10730
▁allumer	-10731
▁aperçut	-10732
▁blessés	-10733
▁choisit	-10734
▁cliquez	-10735
▁croître	-10736
▁drapeau	-10737
▁drogues	-10738
▁endurer	-10739
▁enquête	-10740
▁famines	-10741
▁fiction	-10742
▁malaise	-10743
▁mélange	-10744
▁origine	-10745
▁partagé	-10746
▁paysage	-10747
▁restant	-10748
▁sortait	-10749
▁sortira	-10750
▁souvenu	-10751
▁tiendra	-10752
▁torrent	-10753
▁trouvés	-10754
▁vigueur	-10755
▁voisine	-10756
▁voyager	-10757
▁épreuve	-10758
expriment	-10759
intégrité	-10760
ologiques	-10761
▁bienfais	-10762
▁chapelle	-10763
▁correcte	-10764
▁craintes	-10765
▁datation	-10766
▁exprimer	-10767
▁hospital	-10768
▁laissons	-10769
▁location	-10770
▁naturels	-10771
▁profitez	-10772
▁prêchait	-10773
▁punition	-10774
▁rapporté	-10775
▁rapproch	-10776
▁remarqua	-10777
▁récoltes	-10778
▁sensible	-10779
▁spéciale	-10780
▁survivre	-10781
▁tanières	-10782
▁terrasse	-10783
▁tourisme	-10784
▁vaudrait	-10785
identifier	-10786
occurrence	-10787
▁apportera	-10788
▁attristés	-10789
▁bénéfique	-10790
▁consacrés	-10791
▁conseille	-10792
▁démarches	-10793
▁enceintes	-10794
▁francisco	-10795
▁interrogé	-10796
▁maladroit	-10797
▁occasions	-10798
▁prétendre	-10799
▁répondait	-10800
▁sacerdoce	-10801
▁sexuelles	-10802
▁singapour	-10803
▁surprenne	-10804
▁sépulcres	-10805
▁tribunaux	-10806
affirmation	-10807
opportunité	-10808
édification	-10809
▁adolescent	-10810
▁amendement	-10811
▁approchons	-10812
▁concentrer	-10813
▁conclusion	-10814
▁contribuer	-10815
▁embarrassé	-10816
▁guadeloupe	-10817
▁précisions	-10818
▁pèlerinage	-10819
▁reviendras	-10820
▁références	-10821
▁samaritain	-10822
▁survivants	-10823
▁tranquille	-10824
▁témoignent	-10825
▁étrangères	-10826
▁montagneuse	-10827
▁médicaments	-10828
▁remarquable	-10829
▁reviendrons	-10830
▁réconciliés	-10831
▁compatriotes	-10832
▁déclarations	-10833
▁photographie	-10834
▁reconstruire	-10835
extraordinaire	-10836
▁circonstances	-10837
▁considération	-10838
▁naturellement	-10839
▁reconnaissants	-10840
▁fonctionnalités	-10841
ae	-10842
mo	-10843
ms	-10844
po	-10845
tt	-10846
aga	-10847
alé	-10848
asp	-10849
cet	-10850
orb	-10851
▁":	-10852
▁dd	-10853
▁zo	-10854
▁œu	-10855
acés	-10856
amer	-10857
anda	-10858
apit	-10859
arme	-10860
aude	-10861
encl	-10862
encé	-10863
erna	-10864
eufs	-10865
exil	-10866
info	-10867
oiff	-10868
ommé	-10869
ueul	-10870
umin	-10871
étri	-10872
ônes	-10873
▁bav	-10874
▁bol	-10875
▁bud	-10876
▁din	-10877
▁fol	-10878
▁gai	-10879
▁god	-10880
▁kur	-10881
▁nar	-10882
▁our	-10883
▁pav	-10884
▁pit	-10885
▁sas	-10886
▁vap	-10887
▁vel	-10888
▁vom	-10889
▁vét	-10890
▁île	-10891
déens	-10892
erger	-10893
euros	-10894
femme	-10895
héroï	-10896
isses	-10897
ouvez	-10898
quide	-10899
siers	-10900
uster	-10901
éries	-10902
étape	-10903
éveil	-10904
▁buff	-10905
▁curé	-10906
▁cycl	-10907
▁flux	-10908
▁fray	-10909
▁gris	-10910
▁jude	-10911
▁lisa	-10912
▁lyon	-10913
▁léon	-10914
▁matt	-10915
▁pais	-10916
▁rond	-10917
achève	-10918
aimiez	-10919
anéant	-10920
assied	-10921
efface	-10922
hammad	-10923
nèrent	-10924
orment	-10925
écorce	-10926
épargn	-10927
▁céder	-10928
▁degré	-10929
▁endur	-10930
▁faune	-10931
▁fixés	-10932
▁incar	-10933
▁jouet	-10934
▁lisez	-10935
▁livra	-10936
▁maire	-10937
▁manne	-10938
▁noter	-10939
▁paire	-10940
▁plume	-10941
▁pouce	-10942
▁privé	-10943
▁robes	-10944
▁roche	-10945
▁roule	-10946
▁serré	-10947
▁teint	-10948
▁union	-10949
▁égypt	-10950
empirer	-10951
envoler	-10952
habiter	-10953
heureux	-10954
lorsque	-10955
ouement	-10956
ounours	-10957
écraser	-10958
étudier	-10959
évangél	-10960
▁cercle	-10961
▁copies	-10962
▁drogue	-10963
▁débord	-10964
▁défunt	-10965
▁dépann	-10966
▁enferm	-10967
▁essaye	-10968
▁habits	-10969
▁inconn	-10970
▁jetant	-10971
▁marine	-10972
▁montra	-10973
▁méfiez	-10974
▁pertin	-10975
▁placée	-10976
▁placés	-10977
▁pouces	-10978
▁prévue	-10979
▁ruines	-10980
▁régler	-10981
▁siméon	-10982
▁tempor	-10983
▁verrai	-10984
▁victor	-10985
affranch	-10986
agrément	-10987
extermin	-10988
informer	-10989
élégance	-10990
▁accusés	-10991
▁actrice	-10992
▁athalie	-10993
▁aveuglé	-10994
▁camping	-10995
▁caperna	-10996
▁cellule	-10997
▁consist	-10998
▁corromp	-10999
▁décrire	-11000
▁effrayé	-11001
▁entrera	-11002
▁fatigue	-11003
▁gardent	-11004
▁liquide	-11005
▁montrez	-11006
▁obligés	-11007
▁offerte	-11008
▁prudent	-11009
▁publiés	-11010
▁quittés	-11011
▁rejetée	-11012
▁restées	-11013
▁revenue	-11014
▁réparer	-11015
▁répéter	-11016
▁révéler	-11017
▁sauvera	-11018
▁tromper	-11019
▁élevées	-11020
▁épaules	-11021
arriverai	-11022
criptions	-11023
emplaires	-11024
entendait	-11025
organiser	-11026
éclairage	-11027
émergence	-11028
▁acquérir	-11029
▁collines	-11030
▁consoler	-11031
▁contrées	-11032
▁critères	-11033
▁céréales	-11034
▁engendré	-11035
▁existait	-11036
▁facteurs	-11037
▁ivrognes	-11038
▁jetèrent	-11039
▁matières	-11040
▁officiel	-11041
▁original	-11042
▁posèrent	-11043
▁probable	-11044
▁rentrent	-11045
▁réchauff	-11046
▁répandre	-11047
▁salariés	-11048
▁sanction	-11049
▁scénario	-11050
▁serpents	-11051
▁sédécias	-11052
▁séparent	-11053
allégresse	-11054
approprier	-11055
atmosphère	-11056
imaginaire	-11057
ordonnance	-11058
▁allemagne	-11059
▁appellent	-11060
▁apportent	-11061
▁apprenant	-11062
▁arguments	-11063
▁baptisera	-11064
▁contacter	-11065
▁descendus	-11066
▁détention	-11067
▁gratitude	-11068
▁intercède	-11069
▁mariaient	-11070
▁mécréants	-11071
▁médailles	-11072
▁nettement	-11073
▁partisans	-11074
▁racontent	-11075
▁réception	-11076
▁récupérer	-11077
▁seigneurs	-11078
▁stupéfait	-11079
▁supportez	-11080
▁tourments	-11081
▁adversaire	-11082
▁apparaîtra	-11083
▁cathédrale	-11084
▁chroniques	-11085
▁délivrance	-11086
▁exterminer	-11087
▁incapables	-11088
▁instrument	-11089
▁renseigner	-11090
▁retournera	-11091
▁retournons	-11092
▁sauvegarde	-11093
▁supplément	-11094
indépendance	-11095
▁comparaître	-11096
▁constituent	-11097
▁contemplent	-11098
▁inférieures	-11099
▁nourrissons	-11100
environnement	-11101
▁connaissions	-11102
▁relativement	-11103
▁spiritualité	-11104
accompliraient	-11105
▁comportements	-11106
jo	-11107
uz	-11108
aki	-11109
eph	-11110
hél	-11111
jan	-11112
vie	-11113
yat	-11114
ymb	-11115
yss	-11116
▁ds	-11117
▁ga	-11118
▁hd	-11119
▁kg	-11120
arat	-11121
bapt	-11122
ceux	-11123
icol	-11124
ogue	-11125
olat	-11126
uité	-11127
ymes	-11128
▁arc	-11129
▁bél	-11130
▁due	-11131
▁fêt	-11132
▁jaï	-11133
▁joe	-11134
▁ken	-11135
▁mun	-11136
▁pir	-11137
▁rén	-11138
▁vid	-11139
▁wat	-11140
accél	-11141
affût	-11142
agées	-11143
alisé	-11144
athas	-11145
cevez	-11146
croît	-11147
embar	-11148
enues	-11149
hadad	-11150
heurs	-11151
idole	-11152
iméle	-11153
indon	-11154
iront	-11155
itter	-11156
nuque	-11157
optim	-11158
parce	-11159
▁!!!!	-11160
▁astr	-11161
▁bœuf	-11162
▁cens	-11163
▁chim	-11164
▁chlo	-11165
▁clés	-11166
▁cédé	-11167
▁diab	-11168
▁grog	-11169
▁iran	-11170
▁jure	-11171
▁nerv	-11172
▁nier	-11173
▁oint	-11174
▁poil	-11175
▁ravi	-11176
▁sonn	-11177
▁thaï	-11178
▁tony	-11179
▁trép	-11180
▁vins	-11181
▁élég	-11182
▁émue	-11183
alisme	-11184
archie	-11185
attire	-11186
frères	-11187
iaient	-11188
ologue	-11189
outils	-11190
parole	-11191
prends	-11192
ulture	-11193
utilis	-11194
▁biais	-11195
▁bijou	-11196
▁carré	-11197
▁chère	-11198
▁congé	-11199
▁creux	-11200
▁demie	-11201
▁doubl	-11202
▁gamin	-11203
▁gorge	-11204
▁grimp	-11205
▁haïti	-11206
▁impat	-11207
▁impur	-11208
▁inaug	-11209
▁infos	-11210
▁magaz	-11211
▁mette	-11212
▁mince	-11213
▁monts	-11214
▁métal	-11215
▁naomi	-11216
▁nicod	-11217
▁nuées	-11218
▁proté	-11219
▁roues	-11220
▁régné	-11221
▁sangl	-11222
▁taill	-11223
▁trace	-11224
▁tract	-11225
aisance	-11226
aperçut	-11227
homosex	-11228
ouilles	-11229
pection	-11230
édifice	-11231
étendit	-11232
▁abomin	-11233
▁amuser	-11234
▁autrui	-11235
▁bronze	-11236
▁crèche	-11237
▁dissim	-11238
▁durera	-11239
▁décenn	-11240
▁ecoute	-11241
▁emmène	-11242
▁expuls	-11243
▁hébron	-11244
▁irrité	-11245
▁lionne	-11246
▁panier	-11247
▁plongé	-11248
▁pronon	-11249
▁quoiqu	-11250
▁rançon	-11251
▁relais	-11252
▁salles	-11253
▁sortez	-11254
▁tenant	-11255
▁tonnes	-11256
▁tâches	-11257
▁vainqu	-11258
▁vibrer	-11259
▁vraies	-11260
admettre	-11261
enfuient	-11262
exemples	-11263
ignorais	-11264
interdit	-11265
▁agrippa	-11266
▁allions	-11267
▁appropr	-11268
▁arrivez	-11269
▁baptise	-11270
▁battent	-11271
▁charles	-11272
▁chassés	-11273
▁conclut	-11274
▁curieux	-11275
▁défaire	-11276
▁dégueul	-11277
▁détesté	-11278
▁envoyez	-11279
▁fournis	-11280
▁fussent	-11281
▁habitée	-11282
▁inventé	-11283
▁majeure	-11284
▁nicolas	-11285
▁options	-11286
▁oubliés	-11287
▁perdent	-11288
▁perplex	-11289
▁plaines	-11290
▁promise	-11291
▁précédé	-11292
▁prénoms	-11293
▁rentrés	-11294
▁sacrées	-11295
▁silvain	-11296
▁sombres	-11297
▁talitha	-11298
▁touchée	-11299
▁émotion	-11300
▁établir	-11301
alexandre	-11302
australie	-11303
entendais	-11304
nellement	-11305
uffisance	-11306
▁affligés	-11307
▁approuvé	-11308
▁barrière	-11309
▁biblioth	-11310
▁buvaient	-11311
▁ceinture	-11312
▁chanteur	-11313
▁collecte	-11314
▁comptent	-11315
▁conservé	-11316
▁désigner	-11317
▁embrassé	-11318
▁excitant	-11319
▁galaxies	-11320
▁honneurs	-11321
▁incendie	-11322
▁jonathas	-11323
▁ouvrages	-11324
▁parcouru	-11325
▁passages	-11326
▁suivront	-11327
▁supprimé	-11328
▁surcroît	-11329
▁tournant	-11330
▁traduits	-11331
▁traversé	-11332
▁variétés	-11333
▁éditions	-11334
adolescent	-11335
imposition	-11336
▁arrachait	-11337
▁bénévoles	-11338
▁cherchons	-11339
▁comporter	-11340
▁corneille	-11341
▁destinées	-11342
▁doctrines	-11343
▁doucement	-11344
▁enseignes	-11345
▁glorifier	-11346
▁guerriers	-11347
▁habitudes	-11348
▁interromp	-11349
▁mangèrent	-11350
▁modalités	-11351
▁négatives	-11352
▁positions	-11353
▁présentés	-11354
▁souvenirs	-11355
▁symptômes	-11356
▁titulaire	-11357
▁viendrait	-11358
▁évolution	-11359
ambassadeur	-11360
▁assemblées	-11361
▁contrainte	-11362
▁cotisation	-11363
▁décidèrent	-11364
▁malhonnête	-11365
▁perçoivent	-11366
▁rembourser	-11367
▁secrétaire	-11368
▁souhaitait	-11369
▁spécifique	-11370
▁supérieurs	-11371
▁trouveront	-11372
▁appartenant	-11373
▁autochtones	-11374
▁condoléance	-11375
▁consolation	-11376
▁célibataire	-11377
▁domestiques	-11378
▁fantastique	-11379
▁malfaiteurs	-11380
▁raisonnable	-11381
▁rencontrées	-11382
▁récompensés	-11383
▁technologie	-11384
▁utilisation	-11385
▁vulnérables	-11386
▁civilisation	-11387
▁pornographie	-11388
▁restrictions	-11389
▁accomplissant	-11390
▁compatissants	-11391
▁ressemblaient	-11392
:.	-11393
iy	-11394
ni	-11395
alm	-11396
bat	-11397
dom	-11398
emn	-11399
ief	-11400
jah	-11401
oce	-11402
oka	-11403
olo	-11404
▁bâ	-11405
▁ti	-11406
▁to	-11407
ciel	-11408
dias	-11409
ghan	-11410
gène	-11411
ieus	-11412
iran	-11413
ompt	-11414
ourv	-11415
oués	-11416
oûte	-11417
veux	-11418
écéd	-11419
▁bec	-11420
▁cis	-11421
▁ger	-11422
▁gré	-11423
▁hôt	-11424
▁idé	-11425
▁ign	-11426
▁jéz	-11427
▁los	-11428
▁naï	-11429
▁nia	-11430
▁pép	-11431
▁roc	-11432
▁tig	-11433
▁ult	-11434
▁vœu	-11435
▁écr	-11436
agnée	-11437
cette	-11438
espér	-11439
fille	-11440
ouche	-11441
ueuse	-11442
ènera	-11443
▁asie	-11444
▁beer	-11445
▁bern	-11446
▁cain	-11447
▁cymb	-11448
▁dors	-11449
▁empr	-11450
▁ingr	-11451
▁kong	-11452
▁liqu	-11453
▁logo	-11454
▁mété	-11455
▁obsc	-11456
▁paie	-11457
▁sacs	-11458
▁tabl	-11459
▁tion	-11460
▁toul	-11461
▁tuez	-11462
▁vest	-11463
▁york	-11464
▁zeus	-11465
ageait	-11466
agrand	-11467
aimera	-11468
ajoute	-11469
armure	-11470
assist	-11471
assoit	-11472
aumône	-11473
exerce	-11474
illant	-11475
joseph	-11476
othèse	-11477
oucher	-11478
urrent	-11479
utérus	-11480
égayer	-11481
énigme	-11482
▁aidée	-11483
▁avion	-11484
▁baign	-11485
▁bases	-11486
▁coron	-11487
▁débar	-11488
▁excus	-11489
▁faill	-11490
▁farde	-11491
▁human	-11492
▁longs	-11493
▁micro	-11494
▁olymp	-11495
▁posez	-11496
▁recul	-11497
▁rende	-11498
▁ruben	-11499
▁régén	-11500
efforts	-11501
enflent	-11502
extrême	-11503
humains	-11504
italien	-11505
ulaires	-11506
ulgence	-11507
utilité	-11508
échange	-11509
éditeur	-11510
ériques	-11511
éronome	-11512
▁abordé	-11513
▁albums	-11514
▁berlin	-11515
▁billet	-11516
▁buvait	-11517
▁civile	-11518
▁comble	-11519
▁descri	-11520
▁débrou	-11521
▁envies	-11522
▁except	-11523
▁goûter	-11524
▁honoré	-11525
▁issues	-11526
▁jérôme	-11527
▁plaint	-11528
▁rassas	-11529
▁réagit	-11530
▁réfère	-11531
▁savoie	-11532
▁social	-11533
▁venais	-11534
▁vinaig	-11535
▁vivais	-11536
▁élevée	-11537
araignée	-11538
aventure	-11539
huitième	-11540
ouvriers	-11541
▁assisté	-11542
▁automat	-11543
▁cachées	-11544
▁cessent	-11545
▁chinois	-11546
▁diplôme	-11547
▁déconse	-11548
▁dégoûté	-11549
▁désobéi	-11550
▁détenus	-11551
▁détient	-11552
▁entouré	-11553
▁facteur	-11554
▁fausses	-11555
▁fermées	-11556
▁largeur	-11557
▁lecteur	-11558
▁livrais	-11559
▁majeurs	-11560
▁mariées	-11561
▁montage	-11562
▁onzième	-11563
▁peintre	-11564
▁portées	-11565
▁prévoir	-11566
▁retours	-11567
▁risques	-11568
▁sauront	-11569
▁sauvées	-11570
▁sembler	-11571
▁servait	-11572
▁signalé	-11573
▁stérile	-11574
▁trompée	-11575
autrefois	-11576
enveloppe	-11577
expiation	-11578
ieusement	-11579
omination	-11580
évocation	-11581
▁artisans	-11582
▁coureurs	-11583
▁demandai	-11584
▁envelopp	-11585
▁mangeant	-11586
▁marchera	-11587
▁missions	-11588
▁paisible	-11589
▁posséder	-11590
▁privilég	-11591
▁provoqué	-11592
▁rassurer	-11593
▁rassurez	-11594
▁remparts	-11595
▁repoussé	-11596
▁retranch	-11597
▁revenons	-11598
▁répondez	-11599
▁résident	-11600
▁sciences	-11601
▁sincères	-11602
▁écrivain	-11603
ancienneté	-11604
▁championn	-11605
▁cimetière	-11606
▁condamnée	-11607
▁conformer	-11608
▁pacifique	-11609
▁renforcer	-11610
▁retournez	-11611
▁retrouvés	-11612
▁régulière	-11613
▁répondant	-11614
▁répondent	-11615
▁thaïlande	-11616
▁véhicules	-11617
▁bisounours	-11618
▁chaussures	-11619
▁compliquée	-11620
▁continuant	-11621
▁distinguer	-11622
▁générosité	-11623
▁initiative	-11624
▁interprète	-11625
▁intéressés	-11626
▁naturelles	-11627
▁paraissent	-11628
▁patriarche	-11629
▁prestation	-11630
▁promouvoir	-11631
▁réjouirent	-11632
▁réparation	-11633
▁réveillent	-11634
▁souviendra	-11635
▁véritables	-11636
▁électrique	-11637
effondrement	-11638
▁combattants	-11639
▁demanderont	-11640
▁débarrasser	-11641
▁fonctionner	-11642
▁gouvernants	-11643
▁journaliste	-11644
▁puissamment	-11645
▁réjouissait	-11646
▁susceptible	-11647
▁particuliers	-11648
▁ressentiment	-11649
▁collaboration	-11650
▁disparaissent	-11651
▁environnement	-11652
▁caractéristique	-11653
gt	-11654
ho	-11655
rs	-11656
.""	-11657
amé	-11658
aqu	-11659
azz	-11660
ban	-11661
bar	-11662
eme	-11663
erx	-11664
imi	-11665
rem	-11666
ége	-11667
▁gi	-11668
▁hs	-11669
▁ov	-11670
!...	-11671
'...	-11672
abre	-11673
abul	-11674
agon	-11675
anor	-11676
bien	-11677
bret	-11678
emma	-11679
essa	-11680
iere	-11681
illa	-11682
iqua	-11683
land	-11684
lout	-11685
mail	-11686
oies	-11687
ourt	-11688
èges	-11689
▁bit	-11690
▁bru	-11691
▁dra	-11692
▁jav	-11693
▁jez	-11694
▁lil	-11695
▁lue	-11696
▁mam	-11697
▁max	-11698
▁més	-11699
▁nan	-11700
▁nor	-11701
▁rah	-11702
▁riz	-11703
▁tax	-11704
allum	-11705
allâh	-11706
anime	-11707
assez	-11708
aïsme	-11709
eller	-11710
encad	-11711
endez	-11712
errai	-11713
erxès	-11714
ients	-11715
ignés	-11716
odeur	-11717
▁abig	-11718
▁aigu	-11719
▁bran	-11720
▁coch	-11721
▁cote	-11722
▁exil	-11723
▁file	-11724
▁irai	-11725
▁jord	-11726
▁jsus	-11727
▁maig	-11728
▁myth	-11729
▁prél	-11730
▁raté	-11731
▁rech	-11732
▁requ	-11733
▁subi	-11734
▁vote	-11735
▁yens	-11736
▁élab	-11737
dition	-11738
efforc	-11739
enchaî	-11740
encore	-11741
expose	-11742
hydrat	-11743
ifiées	-11744
improv	-11745
invent	-11746
objets	-11747
onnées	-11748
ribles	-11749
yatire	-11750
écoule	-11751
érieux	-11752
▁adult	-11753
▁agric	-11754
▁andre	-11755
▁artif	-11756
▁barbe	-11757
▁berce	-11758
▁brisé	-11759
▁caraï	-11760
▁chloé	-11761
▁costu	-11762
▁dynam	-11763
▁dérob	-11764
▁essai	-11765
▁fixée	-11766
▁grêle	-11767
▁indig	-11768
▁jouir	-11769
▁jules	-11770
▁maill	-11771
▁nazar	-11772
▁plats	-11773
▁poème	-11774
▁pékin	-11775
▁sacre	-11776
▁scell	-11777
▁unité	-11778
aborder	-11779
achèter	-11780
affilée	-11781
algérie	-11782
ercices	-11783
eunuque	-11784
hommage	-11785
illette	-11786
inclina	-11787
▁actuel	-11788
▁allong	-11789
▁allées	-11790
▁ardent	-11791
▁briser	-11792
▁choqué	-11793
▁découp	-11794
▁décour	-11795
▁enchaî	-11796
▁entrez	-11797
▁exprim	-11798
▁fantas	-11799
▁farine	-11800
▁grains	-11801
▁hasard	-11802
▁impéri	-11803
▁invest	-11804
▁lisent	-11805
▁luttes	-11806
▁lèvent	-11807
▁marcha	-11808
▁paraly	-11809
▁perses	-11810
▁posant	-11811
▁pourvu	-11812
▁puiser	-11813
▁retomb	-11814
▁revêtu	-11815
▁romans	-11816
▁romant	-11817
▁rétabl	-11818
▁réunir	-11819
▁soumet	-11820
▁soupir	-11821
▁séduit	-11822
▁vanter	-11823
▁venger	-11824
▁voudra	-11825
▁évitez	-11826
▁évolué	-11827
acquérir	-11828
bretagne	-11829
emporter	-11830
empressa	-11831
habiller	-11832
invoquer	-11833
oppement	-11834
épidémie	-11835
▁attaqué	-11836
▁billets	-11837
▁bénisse	-11838
▁changés	-11839
▁chienne	-11840
▁comprit	-11841
▁comptés	-11842
▁disposé	-11843
▁déchets	-11844
▁dépense	-11845
▁dépourv	-11846
▁détaill	-11847
▁détente	-11848
▁excéder	-11849
▁grandit	-11850
▁grecque	-11851
▁grosses	-11852
▁impasse	-11853
▁jézabel	-11854
▁limitée	-11855
▁mensong	-11856
▁million	-11857
▁occuper	-11858
▁partent	-11859
▁pleurez	-11860
▁profite	-11861
▁redress	-11862
▁rentrez	-11863
▁révolta	-11864
▁statues	-11865
▁surmont	-11866
▁vivront	-11867
▁écrivez	-11868
▁égorgés	-11869
▁éprouvé	-11870
▁étroite	-11871
admirable	-11872
agenouill	-11873
agitation	-11874
effondrer	-11875
▁accourut	-11876
▁anglaise	-11877
▁asservis	-11878
▁assuérus	-11879
▁attribué	-11880
▁bénissez	-11881
▁cantique	-11882
▁comprise	-11883
▁confirme	-11884
▁constant	-11885
▁coquille	-11886
▁douloure	-11887
▁déclarés	-11888
▁employer	-11889
▁enterrer	-11890
▁entraîne	-11891
▁exhortez	-11892
▁ignorait	-11893
▁ignoriez	-11894
▁indiquer	-11895
▁lecteurs	-11896
▁marchait	-11897
▁marchant	-11898
▁maturité	-11899
▁montrant	-11900
▁nicodème	-11901
▁partirai	-11902
▁penserez	-11903
▁pleurent	-11904
▁priaient	-11905
▁périrent	-11906
▁renaître	-11907
▁retentit	-11908
▁réveilla	-11909
▁salamine	-11910
▁systèmes	-11911
▁terrains	-11912
▁transpar	-11913
▁traverse	-11914
▁vertueux	-11915
amendement	-11916
apocalypse	-11917
emparèrent	-11918
immobilier	-11919
instrument	-11920
invocation	-11921
étonnaient	-11922
▁anciennes	-11923
▁assassins	-11924
▁chaldéens	-11925
▁chevalier	-11926
▁ensembles	-11927
▁magiciens	-11928
▁maintient	-11929
▁obstacles	-11930
▁organisée	-11931
▁originale	-11932
▁paragraph	-11933
▁possédons	-11934
▁provenant	-11935
▁retournés	-11936
▁sensibles	-11937
▁signifier	-11938
▁stupidité	-11939
▁vieillard	-11940
▁accomplies	-11941
▁caractères	-11942
▁diagnostic	-11943
▁démoniaque	-11944
▁forteresse	-11945
▁intellectu	-11946
▁longuement	-11947
▁prospérité	-11948
▁présentées	-11949
▁puissantes	-11950
▁retournant	-11951
▁résolution	-11952
▁surveiller	-11953
▁volontiers	-11954
abandonnerai	-11955
erveillement	-11956
▁apportèrent	-11957
▁composition	-11958
▁deutéronome	-11959
▁enseignante	-11960
▁financières	-11961
▁gouverneurs	-11962
▁parviennent	-11963
▁proviennent	-11964
▁réjouissent	-11965
▁sauvegarder	-11966
▁convertissez	-11967
▁pratiquement	-11968
▁purification	-11969
▁stupéfaction	-11970
▁progressivement	-11971
bs	-11972
aca	-11973
adh	-11974
hib	-11975
jud	-11976
las	-11977
oko	-11978
oly	-11979
rom	-11980
zél	-11981
égé	-11982
émi	-11983
ôts	-11984
œux	-11985
▁ip	-11986
▁ul	-11987
...)	-11988
abet	-11989
anes	-11990
atis	-11991
cela	-11992
dict	-11993
dras	-11994
hame	-11995
ihad	-11996
iler	-11997
mons	-11998
obus	-11999
outs	-12000
élix	-12001
ôles	-12002
▁adj	-12003
▁bet	-12004
▁box	-12005
▁gil	-12006
▁han	-12007
▁hyd	-12008
▁jum	-12009
▁kim	-12010
▁laï	-12011
▁mme	-12012
▁myr	-12013
▁mys	-12014
alage	-12015
encre	-12016
enoch	-12017
eture	-12018
forme	-12019
ielle	-12020
itées	-12021
onvén	-12022
ourer	-12023
ousie	-12024
oyant	-12025
rirai	-12026
uaire	-12027
éléph	-12028
étang	-12029
▁attr	-12030
▁basé	-12031
▁bouc	-12032
▁bous	-12033
▁cale	-12034
▁camb	-12035
▁carb	-12036
▁cler	-12037
▁emma	-12038
▁forn	-12039
▁gage	-12040
▁gonf	-12041
▁goth	-12042
▁gras	-12043
▁hiér	-12044
▁join	-12045
▁jung	-12046
▁phén	-12047
▁ranc	-12048
▁rêvé	-12049
▁siég	-12050
▁togo	-12051
▁tuée	-12052
▁vacc	-12053
▁vœux	-12054
▁yann	-12055
▁âges	-12056
▁émis	-12057
▁œufs	-12058
abouss	-12059
adapte	-12060
espèce	-12061
hésion	-12062
ifiant	-12063
illées	-12064
iquées	-12065
offres	-12066
petits	-12067
probre	-12068
propri	-12069
reinte	-12070
ursion	-12071
ustrie	-12072
évêque	-12073
▁achab	-12074
▁alpha	-12075
▁banqu	-12076
▁bouch	-12077
▁calif	-12078
▁cassé	-12079
▁couch	-12080
▁covid	-12081
▁coûté	-12082
▁décis	-12083
▁délib	-12084
▁gourm	-12085
▁infir	-12086
▁islam	-12087
▁jason	-12088
▁joint	-12089
▁joues	-12090
▁kilos	-12091
▁koumi	-12092
▁lingu	-12093
▁moust	-12094
▁phare	-12095
▁phras	-12096
▁porno	-12097
▁prime	-12098
▁rayon	-12099
▁rompu	-12100
▁ronde	-12101
▁récla	-12102
▁tobie	-12103
▁tonne	-12104
▁trott	-12105
▁étinc	-12106
▁évite	-12107
agèrent	-12108
amusant	-12109
appuyer	-12110
ativité	-12111
atoires	-12112
enfonce	-12113
essayez	-12114
idation	-12115
inviter	-12116
izabeth	-12117
laissez	-12118
nements	-12119
échappa	-12120
êtement	-12121
▁attrap	-12122
▁bandes	-12123
▁bourre	-12124
▁brosse	-12125
▁cardia	-12126
▁civils	-12127
▁compté	-12128
▁conven	-12129
▁criant	-12130
▁divise	-12131
▁décret	-12132
▁déform	-12133
▁effond	-12134
▁effort	-12135
▁emparé	-12136
▁fiable	-12137
▁fécond	-12138
▁gestes	-12139
▁gosses	-12140
▁imiter	-12141
▁joints	-12142
▁manusc	-12143
▁motifs	-12144
▁métrop	-12145
▁paître	-12146
▁pertes	-12147
▁prédit	-12148
▁pécher	-12149
▁recrut	-12150
▁renfer	-12151
▁reçois	-12152
▁robert	-12153
▁surnom	-12154
▁tueras	-12155
▁valent	-12156
▁éteint	-12157
abattoir	-12158
appelant	-12159
arrêtent	-12160
baptiste	-12161
empêchez	-12162
envisage	-12163
esclaves	-12164
idemment	-12165
indiquer	-12166
invasion	-12167
orations	-12168
ènements	-12169
épreuves	-12170
▁absolue	-12171
▁adaptés	-12172
▁aimions	-12173
▁angoiss	-12174
▁annales	-12175
▁barques	-12176
▁boiteux	-12177
▁brigand	-12178
▁brouill	-12179
▁central	-12180
▁changée	-12181
▁cigaret	-12182
▁espagne	-12183
▁galatie	-12184
▁gardera	-12185
▁inutile	-12186
▁menaces	-12187
▁méfaits	-12188
▁obtient	-12189
▁procure	-12190
▁quittez	-12191
▁recette	-12192
▁recevez	-12193
▁rupture	-12194
▁résiste	-12195
▁réussit	-12196
▁saluent	-12197
▁sentent	-12198
▁séduite	-12199
▁tension	-12200
▁terreur	-12201
▁trompés	-12202
▁écoutée	-12203
▁épargné	-12204
arisation	-12205
employeur	-12206
exclusion	-12207
intensité	-12208
▁attristé	-12209
▁bouclier	-12210
▁calculer	-12211
▁couverte	-12212
▁cultiver	-12213
▁desquels	-12214
▁dommages	-12215
▁découvre	-12216
▁détendre	-12217
▁entraîné	-12218
▁essayons	-12219
▁européen	-12220
▁facilité	-12221
▁françois	-12222
▁félicité	-12223
▁galiléen	-12224
▁garantir	-12225
▁inscrits	-12226
▁judaïsme	-12227
▁lectures	-12228
▁lointain	-12229
▁malheurs	-12230
▁montrait	-12231
▁nettoyer	-12232
▁négatifs	-12233
▁occident	-12234
▁opinions	-12235
▁poussent	-12236
▁regrette	-12237
▁remplace	-12238
▁revenait	-12239
▁réservée	-12240
▁sociétés	-12241
▁séjourné	-12242
▁taureaux	-12243
▁thyatire	-12244
▁viendras	-12245
▁voyageur	-12246
▁écoutait	-12247
▁écriture	-12248
▁électron	-12249
▁éléphant	-12250
auparavant	-12251
indulgence	-12252
▁adultères	-12253
▁annonçait	-12254
▁antiochus	-12255
▁attributs	-12256
▁battirent	-12257
▁camarades	-12258
▁constante	-12259
▁contribue	-12260
▁dimension	-12261
▁disposons	-12262
▁divinités	-12263
▁déception	-12264
▁enfantera	-12265
▁enseignez	-12266
▁exercices	-12267
▁fermeture	-12268
▁fruitiers	-12269
▁immédiate	-12270
▁israélien	-12271
▁maîtresse	-12272
▁maîtriser	-12273
▁obéissent	-12274
▁ouvrables	-12275
▁préserver	-12276
▁publicité	-12277
▁remboursé	-12278
▁remettrez	-12279
▁résistant	-12280
▁saisissez	-12281
▁servitude	-12282
▁tentative	-12283
▁treizième	-12284
▁violences	-12285
▁éducation	-12286
▁émerveill	-12287
achoppement	-12288
agriculture	-12289
approbation	-12290
▁accueillie	-12291
▁assistance	-12292
▁convaincus	-12293
▁crépuscule	-12294
▁déterminer	-12295
▁grandement	-12296
▁invitation	-12297
▁poursuivit	-12298
▁rassurante	-12299
▁reproduire	-12300
▁retournait	-12301
interdiction	-12302
▁application	-12303
▁conseillers	-12304
▁convoitises	-12305
▁célébration	-12306
▁description	-12307
▁dispositifs	-12308
▁déplacement	-12309
▁entendaient	-12310
▁obligations	-12311
▁officielles	-12312
▁précédentes	-12313
▁prédestinés	-12314
▁touristique	-12315
▁traitements	-12316
homosexualité	-12317
▁conservation	-12318
▁détermination	-12319
▁indispensable	-12320
▁inébranlables	-12321
▁représentants	-12322
▁référencement	-12323
▁fonctionnement	-12324
▁instantanément	-12325
,,	-12326
gy	-12327
ly	-12328
pp	-12329
!."	-12330
bal	-12331
cit	-12332
eac	-12333
ene	-12334
hwh	-12335
iba	-12336
ica	-12337
iya	-12338
uet	-12339
van	-12340
ûte	-12341
▁cs	-12342
▁dv	-12343
▁mr	-12344
▁ze	-12345
aaaa	-12346
abat	-12347
affe	-12348
agis	-12349
ampe	-12350
aris	-12351
atan	-12352
cœur	-12353
dres	-12354
euil	-12355
irus	-12356
ison	-12357
opie	-12358
opér	-12359
oram	-12360
ower	-12361
sour	-12362
souv	-12363
tits	-12364
▁asc	-12365
▁aug	-12366
▁coh	-12367
▁dal	-12368
▁duc	-12369
▁gol	-12370
▁kir	-12371
▁pok	-12372
▁sak	-12373
acher	-12374
aches	-12375
aillé	-12376
chose	-12377
dames	-12378
enter	-12379
iaste	-12380
icale	-12381
infid	-12382
ingén	-12383
isaïe	-12384
nesse	-12385
omnie	-12386
orial	-12387
range	-12388
salut	-12389
uctif	-12390
écume	-12391
érale	-12392
étage	-12393
▁accr	-12394
▁aisé	-12395
▁arra	-12396
▁bomb	-12397
▁buts	-12398
▁caut	-12399
▁delà	-12400
▁enqu	-12401
▁fert	-12402
▁fins	-12403
▁flui	-12404
▁foss	-12405
▁hach	-12406
▁laur	-12407
▁luke	-12408
▁pond	-12409
▁rall	-12410
▁rené	-12411
▁ritu	-12412
▁régl	-12413
▁suse	-12414
allure	-12415
anteur	-12416
expert	-12417
humeur	-12418
oblige	-12419
oniens	-12420
option	-12421
âteaux	-12422
éclate	-12423
écrase	-12424
émique	-12425
épuisé	-12426
étrius	-12427
▁armés	-12428
▁boive	-12429
▁boucs	-12430
▁bénie	-12431
▁cèdre	-12432
▁dansé	-12433
▁dates	-12434
▁défav	-12435
▁déçus	-12436
▁fléau	-12437
▁forcé	-12438
▁félix	-12439
▁greff	-12440
▁illum	-12441
▁jambe	-12442
▁ligue	-12443
▁mages	-12444
▁malin	-12445
▁miles	-12446
▁noirs	-12447
▁percé	-12448
▁poing	-12449
▁punir	-12450
▁punis	-12451
▁périp	-12452
▁ruiss	-12453
▁rêver	-12454
▁saign	-12455
▁sceau	-12456
▁sourc	-12457
▁tapis	-12458
▁trucs	-12459
▁valor	-12460
▁vaste	-12461
▁virtu	-12462
achever	-12463
adultes	-12464
aissait	-12465
anéenne	-12466
apollos	-12467
aîtront	-12468
effacer	-12469
episode	-12470
horaire	-12471
hétique	-12472
ovation	-12473
▁agents	-12474
▁agress	-12475
▁amples	-12476
▁arrang	-12477
▁arrête	-12478
▁astres	-12479
▁aurons	-12480
▁autels	-12481
▁bouton	-12482
▁buvant	-12483
▁bénies	-12484
▁cathol	-12485
▁centen	-12486
▁climat	-12487
▁conclu	-12488
▁cousin	-12489
▁crayon	-12490
▁cuivre	-12491
▁design	-12492
▁déport	-12493
▁dérout	-12494
▁engage	-12495
▁forcer	-12496
▁géants	-12497
▁joshua	-12498
▁jouent	-12499
▁levait	-12500
▁lisait	-12501
▁madian	-12502
▁morale	-12503
▁paille	-12504
▁profil	-12505
▁prêtes	-12506
▁rétrib	-12507
▁sichem	-12508
▁traits	-12509
▁visant	-12510
▁édifie	-12511
effondre	-12512
éclairer	-12513
éthiopie	-12514
▁adopter	-12515
▁adoptée	-12516
▁affecté	-12517
▁banlieu	-12518
▁bâtirai	-12519
▁chèvres	-12520
▁confins	-12521
▁discuté	-12522
▁empêché	-12523
▁entrain	-12524
▁exposer	-12525
▁forfait	-12526
▁injuste	-12527
▁licence	-12528
▁locales	-12529
▁maintes	-12530
▁majesté	-12531
▁marques	-12532
▁montent	-12533
▁mourras	-12534
▁métiers	-12535
▁pensant	-12536
▁phrases	-12537
▁pigeons	-12538
▁planter	-12539
▁plongée	-12540
▁poignée	-12541
▁profité	-12542
▁proport	-12543
▁précept	-12544
▁pétrole	-12545
▁regrets	-12546
▁ressais	-12547
▁retenti	-12548
▁rumeurs	-12549
▁réseaux	-12550
▁savions	-12551
▁scandal	-12552
▁sexuels	-12553
▁sorcier	-12554
▁souriez	-12555
▁touchez	-12556
▁touchés	-12557
▁twitter	-12558
▁vincent	-12559
▁vivions	-12560
▁éclaire	-12561
▁éprouve	-12562
attendent	-12563
humanisme	-12564
▁abordées	-12565
▁appliqué	-12566
▁apportez	-12567
▁artifici	-12568
▁assemble	-12569
▁assister	-12570
▁attaquer	-12571
▁augmente	-12572
▁aventure	-12573
▁blanches	-12574
▁consacre	-12575
▁conserve	-12576
▁contenus	-12577
▁continua	-12578
▁courrier	-12579
▁dirigent	-12580
▁disparut	-12581
▁disposés	-12582
▁décédées	-12583
▁dédicace	-12584
▁favorise	-12585
▁figurent	-12586
▁humilité	-12587
▁imaginer	-12588
▁insectes	-12589
▁inspirée	-12590
▁mettront	-12591
▁meurtres	-12592
▁monument	-12593
▁morceaux	-12594
▁parlerai	-12595
▁positive	-12596
▁primaire	-12597
▁produira	-12598
▁rachetés	-12599
▁refusait	-12600
▁resplend	-12601
▁réalités	-12602
▁sacrifié	-12603
▁sandales	-12604
▁signific	-12605
▁sorcière	-12606
▁souligné	-12607
▁touchées	-12608
▁traduite	-12609
▁troublée	-12610
▁témoigné	-12611
▁veillons	-12612
▁visibles	-12613
adaptation	-12614
architecte	-12615
assassinat	-12616
enorgueill	-12617
excitation	-12618
▁abondante	-12619
▁affranchi	-12620
▁allemande	-12621
▁appellera	-12622
▁bethléhem	-12623
▁confronté	-12624
▁conneries	-12625
▁critiques	-12626
▁disposent	-12627
▁démétrius	-12628
▁développe	-12629
▁fondateur	-12630
▁invisible	-12631
▁juridique	-12632
▁logements	-12633
▁numérique	-12634
▁organisés	-12635
▁participe	-12636
▁poursuive	-12637
▁privilège	-12638
▁présentée	-12639
▁quasiment	-12640
▁recueilli	-12641
▁regretter	-12642
▁reprocher	-12643
▁sacrement	-12644
▁souriante	-12645
▁souvenons	-12646
▁stratégie	-12647
▁terminées	-12648
▁équitable	-12649
abandonnent	-12650
appartement	-12651
hébergement	-12652
▁américaine	-12653
▁blasphémer	-12654
▁cananéenne	-12655
▁catastroph	-12656
▁commencera	-12657
▁comprenais	-12658
▁conférence	-12659
▁continuité	-12660
▁dimensions	-12661
▁evidemment	-12662
▁jouissance	-12663
▁luminosité	-12664
▁mystérieux	-12665
▁obligation	-12666
▁pardonnant	-12667
▁poursuivra	-12668
▁quittèrent	-12669
▁rédempteur	-12670
▁semblerait	-12671
appréciation	-12672
intercession	-12673
▁accessibles	-12674
▁authentique	-12675
▁bénéficient	-12676
▁confortable	-12677
▁construisit	-12678
▁dégueulasse	-12679
▁persécution	-12680
▁recommander	-12681
▁ressuscités	-12682
▁souviendras	-12683
▁ressuscitera	-12684
endurcissement	-12685
▁collectivités	-12686
▁international	-12687
▁supplications	-12688
expérimentation	-12689
▁habituellement	-12690
▁transhumanisme	-12691
▁essentiellement	-12692
'"	-12693
bé	-12694
nt	-12695
pd	-12696
ôm	-12697
???	-12698
ake	-12699
arn	-12700
but	-12701
dès	-12702
ety	-12703
haï	-12704
iko	-12705
ios	-12706
lan	-12707
ona	-12708
sol	-12709
ube	-12710
ush	-12711
vin	-12712
vol	-12713
wan	-12714
▁!)	-12715
▁";	-12716
▁ky	-12717
aibl	-12718
ases	-12719
blou	-12720
ceci	-12721
cter	-12722
ella	-12723
erné	-12724
ilie	-12725
inse	-12726
ling	-12727
mant	-12728
ouci	-12729
paul	-12730
rade	-12731
roid	-12732
sive	-12733
urge	-12734
▁asi	-12735
▁bor	-12736
▁bro	-12737
▁bug	-12738
▁ecc	-12739
▁ete	-12740
▁gir	-12741
▁géh	-12742
▁hey	-12743
▁ier	-12744
▁iii	-12745
▁kev	-12746
▁lig	-12747
▁nev	-12748
▁ost	-12749
▁rio	-12750
▁sph	-12751
▁tai	-12752
▁xvi	-12753
achet	-12754
asaph	-12755
astre	-12756
autoc	-12757
berge	-12758
erine	-12759
ester	-12760
iales	-12761
iants	-12762
ilier	-12763
inaug	-12764
incap	-12765
inité	-12766
ivois	-12767
judas	-12768
levez	-12769
olive	-12770
ollon	-12771
osion	-12772
parle	-12773
riche	-12774
riste	-12775
sieur	-12776
égare	-12777
élanc	-12778
élite	-12779
▁arts	-12780
▁bert	-12781
▁clôt	-12782
▁coco	-12783
▁fiss	-12784
▁froi	-12785
▁gain	-12786
▁hais	-12787
▁hall	-12788
▁imit	-12789
▁insp	-12790
▁iras	-12791
▁lots	-12792
▁marg	-12793
▁micr	-12794
▁naît	-12795
▁pist	-12796
▁pére	-12797
▁revu	-12798
▁règn	-12799
▁sant	-12800
▁semé	-12801
▁vamp	-12802
▁égal	-12803
▁éloï	-12804
▁éner	-12805
ailler	-12806
apogée	-12807
assent	-12808
ceptez	-12809
eacute	-12810
emmena	-12811
enrich	-12812
envole	-12813
immort	-12814
ogance	-12815
orçant	-12816
ouffre	-12817
ressez	-12818
écroul	-12819
élysée	-12820
épines	-12821
▁achev	-12822
▁amies	-12823
▁audit	-12824
▁black	-12825
▁canon	-12826
▁cessa	-12827
▁codes	-12828
▁cuire	-12829
▁exode	-12830
▁fiche	-12831
▁figur	-12832
▁fixer	-12833
▁flots	-12834
▁griff	-12835
▁illég	-12836
▁impar	-12837
▁iront	-12838
▁issue	-12839
▁jurer	-12840
▁linge	-12841
▁lueur	-12842
▁manga	-12843
▁meule	-12844
▁métro	-12845
▁parut	-12846
▁poils	-12847
▁seins	-12848
▁siége	-12849
▁sueur	-12850
▁viole	-12851
▁vétér	-12852
▁vêtus	-12853
accéder	-12854
ampleur	-12855
artisan	-12856
corinth	-12857
héroïne	-12858
indique	-12859
offrent	-12860
ologues	-12861
oquence	-12862
raction	-12863
vitique	-12864
écarter	-12865
élèvent	-12866
éveille	-12867
évoquer	-12868
▁accomp	-12869
▁actifs	-12870
▁advenu	-12871
▁alliés	-12872
▁aurais	-12873
▁ballon	-12874
▁colomb	-12875
▁courag	-12876
▁domine	-12877
▁dragon	-12878
▁déconc	-12879
▁empire	-12880
▁endomm	-12881
▁enlève	-12882
▁faille	-12883
▁faîtes	-12884
▁infirm	-12885
▁lourde	-12886
▁menées	-12887
▁minuit	-12888
▁monast	-12889
▁moquer	-12890
▁mouche	-12891
▁nutrit	-12892
▁parall	-12893
▁partez	-12894
▁percer	-12895
▁présid	-12896
▁rivage	-12897
▁réprim	-12898
▁segond	-12899
▁signer	-12900
▁syrien	-12901
▁thérap	-12902
▁tortue	-12903
▁ventes	-12904
▁écrasé	-12905
abiliser	-12906
antioche	-12907
apparaît	-12908
appuyant	-12909
atteinte	-12910
attraper	-12911
exécuter	-12912
habitais	-12913
héritier	-12914
équation	-12915
évidence	-12916
▁abordés	-12917
▁acquies	-12918
▁adaptée	-12919
▁agressi	-12920
▁ananias	-12921
▁apollos	-12922
▁arrêtée	-12923
▁baisers	-12924
▁balayer	-12925
▁berceau	-12926
▁boucher	-12927
▁brûlées	-12928
▁circuit	-12929
▁commerç	-12930
▁diction	-12931
▁démenti	-12932
▁dérangé	-12933
▁désigné	-12934
▁enfermé	-12935
▁enjoign	-12936
▁enlever	-12937
▁georges	-12938
▁hériter	-12939
▁inquiet	-12940
▁insensé	-12941
▁jettent	-12942
▁mangera	-12943
▁modifié	-12944
▁mosquée	-12945
▁offrira	-12946
▁patrick	-12947
▁planche	-12948
▁possédé	-12949
▁prévenu	-12950
▁purifie	-12951
▁quoique	-12952
▁retiens	-12953
▁revivre	-12954
▁revêtez	-12955
▁rochers	-12956
▁récapit	-12957
▁révélée	-12958
▁samedis	-12959
▁secrète	-12960
▁suscité	-12961
▁séparée	-12962
▁triomph	-12963
▁édifiez	-12964
▁équilib	-12965
augmenter	-12966
efforçait	-12967
envisager	-12968
onnements	-12969
étudiants	-12970
▁apportée	-12971
▁autorisé	-12972
▁blasphém	-12973
▁chocolat	-12974
▁commenté	-12975
▁contacts	-12976
▁dialogue	-12977
▁douzaine	-12978
▁déclarer	-12979
▁déménagé	-12980
▁dépenser	-12981
▁déployés	-12982
▁désobéir	-12983
▁fabriqué	-12984
▁fatalité	-12985
▁feraient	-12986
▁japonais	-12987
▁jésuites	-12988
▁maintenu	-12989
▁maintien	-12990
▁mesdames	-12991
▁médaille	-12992
▁pénétrer	-12993
▁qualifié	-12994
▁restauré	-12995
▁robustes	-12996
▁survient	-12997
▁voyaient	-12998
▁véracité	-12999
▁époustou	-13000
inquiètent	-13001
occupation	-13002
▁atteintes	-13003
▁bénéficie	-13004
▁chauffeur	-13005
▁entrepris	-13006
▁entretien	-13007
▁hypocrite	-13008
▁immédiats	-13009
▁inférieur	-13010
▁innocents	-13011
▁installée	-13012
▁intérieur	-13013
▁manuscrit	-13014
▁permanent	-13015
▁produisit	-13016
▁prosterna	-13017
▁quartiers	-13018
▁racontait	-13019
▁réfléchis	-13020
▁réservoir	-13021
▁sortaient	-13022
▁soumettez	-13023
▁suivaient	-13024
▁supprimer	-13025
▁surmonter	-13026
▁terribles	-13027
▁versement	-13028
corinthiens	-13029
indignation	-13030
▁considérée	-13031
▁construits	-13032
▁distinctes	-13033
▁dépendance	-13034
▁enseignent	-13035
▁exposition	-13036
▁fraternité	-13037
▁gethsémani	-13038
▁gethsémané	-13039
▁officielle	-13040
▁parvenions	-13041
▁procédures	-13042
▁prétention	-13043
▁résistants	-13044
▁transgress	-13045
appréhension	-13046
assemblèrent	-13047
inauguration	-13048
▁accompagnée	-13049
▁annonçaient	-13050
▁compliments	-13051
▁considérait	-13052
▁considérées	-13053
▁disciplines	-13054
▁exemplaires	-13055
▁prestations	-13056
▁publication	-13057
▁ramassèrent	-13058
▁récompenses	-13059
▁travaillant	-13060
▁visiblement	-13061
▁exceptionnel	-13062
▁perspectives	-13063
▁organisations	-13064
▁prochainement	-13065
▁transformation	-13066
▁miraculeusement	-13067
hé	-13068
we	-13069
▁]	-13070
ado	-13071
akh	-13072
arl	-13073
dal	-13074
ere	-13075
gal	-13076
igu	-13077
ika	-13078
ipe	-13079
kah	-13080
oah	-13081
ops	-13082
orp	-13083
osa	-13084
oum	-13085
rid	-13086
udi	-13087
uke	-13088
▁[[	-13089
▁kr	-13090
▁pc	-13091
▁pd	-13092
▁rp	-13093
▁rs	-13094
▁ye	-13095
...,	-13096
aile	-13097
allé	-13098
amon	-13099
aque	-13100
arim	-13101
aste	-13102
ellé	-13103
glom	-13104
host	-13105
nera	-13106
otyp	-13107
ouée	-13108
phib	-13109
rand	-13110
rure	-13111
tour	-13112
écho	-13113
édez	-13114
énie	-13115
érez	-13116
▁apt	-13117
▁céd	-13118
▁enr	-13119
▁ker	-13120
▁maï	-13121
▁meg	-13122
▁nex	-13123
▁pak	-13124
▁pam	-13125
▁rot	-13126
▁soc	-13127
▁sri	-13128
▁sul	-13129
▁suz	-13130
▁tun	-13131
acées	-13132
argne	-13133
avort	-13134
indou	-13135
itulé	-13136
marie	-13137
obéit	-13138
ojada	-13139
oyers	-13140
theos	-13141
uleux	-13142
ustri	-13143
usure	-13144
âtres	-13145
èques	-13146
éalog	-13147
écrie	-13148
▁card	-13149
▁cerf	-13150
▁ethn	-13151
▁foul	-13152
▁féro	-13153
▁goog	-13154
▁goul	-13155
▁idol	-13156
▁inde	-13157
▁josé	-13158
▁jéhu	-13159
▁king	-13160
▁lant	-13161
▁mecs	-13162
▁mits	-13163
▁neph	-13164
▁norv	-13165
▁path	-13166
▁pois	-13167
▁puce	-13168
▁silo	-13169
▁soie	-13170
▁song	-13171
▁stri	-13172
▁tien	-13173
▁tord	-13174
▁traf	-13175
▁trag	-13176
▁vern	-13177
▁vise	-13178
▁voué	-13179
▁édit	-13180
anisme	-13181
demain	-13182
effray	-13183
indice	-13184
mières	-13185
naires	-13186
obiles	-13187
osheth	-13188
quelqu	-13189
▁!!!!!	-13190
▁besti	-13191
▁bilan	-13192
▁bouff	-13193
▁bénir	-13194
▁canal	-13195
▁charl	-13196
▁cible	-13197
▁comté	-13198
▁confr	-13199
▁dontl	-13200
▁dériv	-13201
▁envol	-13202
▁focal	-13203
▁jadis	-13204
▁lanka	-13205
▁marée	-13206
▁mobil	-13207
▁moiss	-13208
▁neutr	-13209
▁parcs	-13210
▁pince	-13211
▁pompe	-13212
▁prior	-13213
▁prédi	-13214
▁rapha	-13215
▁relax	-13216
▁saute	-13217
▁seuil	-13218
▁syndr	-13219
▁tabac	-13220
▁traum	-13221
▁watch	-13222
▁épuis	-13223
agirait	-13224
atricul	-13225
ciation	-13226
cidence	-13227
cidents	-13228
diments	-13229
effraie	-13230
estimer	-13231
iscient	-13232
liction	-13233
ouvrent	-13234
ovision	-13235
urrents	-13236
▁abords	-13237
▁agabus	-13238
▁aimiez	-13239
▁andrew	-13240
▁bouger	-13241
▁budget	-13242
▁bâtons	-13243
▁caisse	-13244
▁carmel	-13245
▁config	-13246
▁coucou	-13247
▁coupes	-13248
▁creuse	-13249
▁dégage	-13250
▁enfans	-13251
▁estimé	-13252
▁fabric	-13253
▁fascin	-13254
▁foutre	-13255
▁froide	-13256
▁fuyait	-13257
▁imprim	-13258
▁incréd	-13259
▁ismaël	-13260
▁julien	-13261
▁levant	-13262
▁métall	-13263
▁pommes	-13264
▁posait	-13265
▁pourch	-13266
▁pourri	-13267
▁reflet	-13268
▁reposa	-13269
▁résolu	-13270
▁sieste	-13271
▁single	-13272
▁sourds	-13273
▁tirage	-13274
▁unités	-13275
▁égarés	-13276
▁épître	-13277
▁étages	-13278
airement	-13279
attarder	-13280
ensibles	-13281
pitalité	-13282
portants	-13283
regardez	-13284
rication	-13285
échanger	-13286
écoutait	-13287
éteindre	-13288
étonnant	-13289
▁aimable	-13290
▁amusant	-13291
▁arrives	-13292
▁aurions	-13293
▁avertis	-13294
▁baisser	-13295
▁cachent	-13296
▁cadavre	-13297
▁chuchot	-13298
▁congrès	-13299
▁dangers	-13300
▁directe	-13301
▁dirigea	-13302
▁défaite	-13303
▁déposer	-13304
▁ecoutez	-13305
▁engagée	-13306
▁espérer	-13307
▁fiancée	-13308
▁géhenne	-13309
▁honorer	-13310
▁marchez	-13311
▁marchés	-13312
▁mourrai	-13313
▁nicanor	-13314
▁occupez	-13315
▁plainte	-13316
▁raconta	-13317
▁retenue	-13318
▁régnera	-13319
▁sachent	-13320
▁statuts	-13321
▁séances	-13322
▁utilité	-13323
▁vierges	-13324
▁visites	-13325
▁énervée	-13326
▁étonnée	-13327
acquitter	-13328
activités	-13329
gardismes	-13330
▁allusion	-13331
▁ateliers	-13332
▁attachée	-13333
▁attaques	-13334
▁attentes	-13335
▁caraïbes	-13336
▁changera	-13337
▁chantres	-13338
▁citation	-13339
▁combattu	-13340
▁converti	-13341
▁convoqua	-13342
▁courante	-13343
▁couverts	-13344
▁cuisiner	-13345
▁distrait	-13346
▁décroché	-13347
▁dépouill	-13348
▁désirait	-13349
▁désireux	-13350
▁enseveli	-13351
▁entourée	-13352
▁gardiens	-13353
▁généalog	-13354
▁honnêtes	-13355
▁horaires	-13356
▁immeuble	-13357
▁institut	-13358
▁jalousie	-13359
▁maternel	-13360
▁muhammad	-13361
▁mécréant	-13362
▁pakistan	-13363
▁prononce	-13364
▁prudence	-13365
▁préciser	-13366
▁publiées	-13367
▁pêcheurs	-13368
▁rentrant	-13369
▁revienne	-13370
▁réaliste	-13371
▁soutient	-13372
▁synonyme	-13373
▁tranches	-13374
▁végétaux	-13375
▁ébranlés	-13376
▁épargnés	-13377
incapacité	-13378
insistance	-13379
équipement	-13380
évacuation	-13381
▁affirment	-13382
▁affligiez	-13383
▁autorisés	-13384
▁baptisait	-13385
▁batailles	-13386
▁blancheur	-13387
▁blasphème	-13388
▁composent	-13389
▁diffèrent	-13390
▁diversité	-13391
▁donneront	-13392
▁défenseur	-13393
▁détresses	-13394
▁entendrez	-13395
▁extérieur	-13396
▁gardèrent	-13397
▁judicieux	-13398
▁livraison	-13399
▁mensonges	-13400
▁mécanique	-13401
▁passerait	-13402
▁perdition	-13403
▁portèrent	-13404
▁recouvert	-13405
▁reviennes	-13406
▁règlement	-13407
▁sanctifié	-13408
▁scolarité	-13409
▁servaient	-13410
▁souffrant	-13411
▁stabilité	-13412
▁succomber	-13413
▁symbolise	-13414
▁sympathie	-13415
▁vaisseaux	-13416
arrestation	-13417
ographiques	-13418
étaitépuisé	-13419
▁arriverait	-13420
▁avantageux	-13421
▁bouleversé	-13422
▁chercheurs	-13423
▁commençons	-13424
▁conversion	-13425
▁différenci	-13426
▁enregistré	-13427
▁entrailles	-13428
▁fortifiées	-13429
▁immobilier	-13430
▁judiciaire	-13431
▁leadership	-13432
▁ordinateur	-13433
▁organismes	-13434
▁raisonnais	-13435
▁simplicité	-13436
▁soumettent	-13437
▁symbolique	-13438
▁transformé	-13439
illustration	-13440
▁comparaison	-13441
▁contiennent	-13442
▁découvertes	-13443
▁intelligent	-13444
▁paralytique	-13445
▁participent	-13446
▁permettrait	-13447
▁représenter	-13448
▁salutations	-13449
▁traductions	-13450
▁universelle	-13451
▁abominations	-13452
▁agriculteurs	-13453
▁continuèrent	-13454
▁départements	-13455
▁impressionné	-13456
▁intervention	-13457
▁intéressants	-13458
▁pareillement	-13459
▁ressemblance	-13460
▁transgresser	-13461
▁transmission	-13462
▁utilisateurs	-13463
▁accomplissait	-13464
▁constructions	-13465
▁interventions	-13466
▁poursuivirent	-13467
▁établissement	-13468
▁correspondance	-13469
▁reconstruction	-13470
gh	-13471
kk	-13472
no	-13473
xx	-13474
aha	-13475
aja	-13476
als	-13477
bri	-13478
chi	-13479
col	-13480
enh	-13481
enz	-13482
hou	-13483
kok	-13484
lon	-13485
mis	-13486
oas	-13487
ory	-13488
oïs	-13489
rus	-13490
tan	-13491
uto	-13492
ycl	-13493
▁-"	-13494
▁câ	-13495
▁ms	-13496
▁nt	-13497
▁rm	-13498
▁râ	-13499
▁sd	-13500
adou	-13501
akim	-13502
aram	-13503
aïde	-13504
berg	-13505
cier	-13506
croy	-13507
ctur	-13508
donc	-13509
itué	-13510
loge	-13511
oler	-13512
oliv	-13513
omri	-13514
outé	-13515
pent	-13516
reau	-13517
rien	-13518
xion	-13519
yrne	-13520
éduc	-13521
éman	-13522
évap	-13523
▁aïe	-13524
▁bir	-13525
▁bér	-13526
▁cah	-13527
▁cup	-13528
▁dau	-13529
▁duo	-13530
▁dut	-13531
▁ell	-13532
▁gog	-13533
▁lol	-13534
▁még	-13535
▁nig	-13536
▁rab	-13537
▁raf	-13538
▁sof	-13539
▁squ	-13540
▁œuv	-13541
about	-13542
aisie	-13543
andré	-13544
apais	-13545
argot	-13546
checs	-13547
expos	-13548
hamed	-13549
haïti	-13550
icopt	-13551
infos	-13552
ituer	-13553
▁abus	-13554
▁aima	-13555
▁amén	-13556
▁bart	-13557
▁bass	-13558
▁bast	-13559
▁cend	-13560
▁dram	-13561
▁durs	-13562
▁figé	-13563
▁gend	-13564
▁jazz	-13565
▁joug	-13566
▁jume	-13567
▁live	-13568
▁loué	-13569
▁mans	-13570
▁mark	-13571
▁merc	-13572
▁nana	-13573
▁narr	-13574
▁news	-13575
▁noun	-13576
▁pant	-13577
▁pavé	-13578
▁pluv	-13579
▁poll	-13580
▁pote	-13581
▁puni	-13582
▁rept	-13583
▁rong	-13584
▁roue	-13585
▁roug	-13586
▁rude	-13587
▁ruis	-13588
▁sony	-13589
▁subl	-13590
▁séir	-13591
▁taxi	-13592
▁trio	-13593
▁tréb	-13594
agonie	-13595
améric	-13596
ariste	-13597
arités	-13598
avirus	-13599
depuis	-13600
enclos	-13601
ergure	-13602
essais	-13603
inspir	-13604
itisme	-13605
onfort	-13606
oublia	-13607
prenez	-13608
rendez	-13609
traire	-13610
upport	-13611
ènerai	-13612
écouta	-13613
élever	-13614
élèves	-13615
ériade	-13616
▁achar	-13617
▁achaz	-13618
▁agréé	-13619
▁amant	-13620
▁azari	-13621
▁aînée	-13622
▁blogs	-13623
▁carol	-13624
▁chili	-13625
▁coinc	-13626
▁color	-13627
▁cuill	-13628
▁cyrus	-13629
▁debut	-13630
▁dotée	-13631
▁drôle	-13632
▁débit	-13633
▁empar	-13634
▁encad	-13635
▁famil	-13636
▁funér	-13637
▁gages	-13638
▁ghana	-13639
▁immig	-13640
▁ingén	-13641
▁judah	-13642
▁kevin	-13643
▁légal	-13644
▁moine	-13645
▁nahor	-13646
▁norme	-13647
▁noémi	-13648
▁perle	-13649
▁pénit	-13650
▁rangs	-13651
▁rosée	-13652
▁récip	-13653
▁récré	-13654
▁score	-13655
▁senti	-13656
▁serge	-13657
▁serve	-13658
▁smith	-13659
▁troph	-13660
▁villa	-13661
▁écran	-13662
▁étonn	-13663
accroup	-13664
ailloté	-13665
anciens	-13666
anticip	-13667
arrache	-13668
athènes	-13669
atteste	-13670
efforce	-13671
emprunt	-13672
ensuite	-13673
enterre	-13674
hygiène	-13675
ilation	-13676
incline	-13677
issions	-13678
ofondir	-13679
ordonne	-13680
versité	-13681
▁albert	-13682
▁allure	-13683
▁analys	-13684
▁bijoux	-13685
▁consum	-13686
▁cornes	-13687
▁courbe	-13688
▁dynast	-13689
▁dégagé	-13690
▁dévast	-13691
▁eglise	-13692
▁emprun	-13693
▁enrich	-13694
▁esdras	-13695
▁exalté	-13696
▁exauce	-13697
▁fondre	-13698
▁formée	-13699
▁foyers	-13700
▁gamine	-13701
▁garage	-13702
▁idiote	-13703
▁impact	-13704
▁itinér	-13705
▁jaunes	-13706
▁jugera	-13707
▁karine	-13708
▁lapsus	-13709
▁lignée	-13710
▁mangea	-13711
▁matchs	-13712
▁mecque	-13713
▁mitspa	-13714
▁natale	-13715
▁nommer	-13716
▁nourri	-13717
▁oblige	-13718
▁plages	-13719
▁plutot	-13720
▁ponctu	-13721
▁poules	-13722
▁rebell	-13723
▁recens	-13724
▁rompre	-13725
▁résume	-13726
▁saines	-13727
▁séance	-13728
▁tendit	-13729
▁tissus	-13730
▁trahir	-13731
▁vertus	-13732
▁vivrai	-13733
▁éclate	-13734
▁épanou	-13735
▁éthiop	-13736
assembla	-13737
assister	-13738
entraide	-13739
iendrons	-13740
illumine	-13741
imposent	-13742
incliner	-13743
institut	-13744
intimité	-13745
opprobre	-13746
éléphant	-13747
▁achevée	-13748
▁antique	-13749
▁archite	-13750
▁bangkok	-13751
▁bouscul	-13752
▁commets	-13753
▁comptez	-13754
▁comédie	-13755
▁connues	-13756
▁courses	-13757
▁dangere	-13758
▁deniers	-13759
▁dispute	-13760
▁déchira	-13761
▁dédaign	-13762
▁excepté	-13763
▁fantôme	-13764
▁fermeté	-13765
▁fromage	-13766
▁insisté	-13767
▁inviter	-13768
▁laideur	-13769
▁lésions	-13770
▁maillot	-13771
▁mathieu	-13772
▁mohamed	-13773
▁montrée	-13774
▁mourons	-13775
▁notable	-13776
▁obtenez	-13777
▁offrait	-13778
▁opérait	-13779
▁organes	-13780
▁ouvrier	-13781
▁perdues	-13782
▁promett	-13783
▁prévoit	-13784
▁publier	-13785
▁rejeter	-13786
▁reproch	-13787
▁rébecca	-13788
▁régnait	-13789
▁savoirs	-13790
▁siégera	-13791
▁sociaux	-13792
▁succède	-13793
▁teintes	-13794
▁tremble	-13795
▁urgents	-13796
▁étrange	-13797
▁évoluer	-13798
attendrai	-13799
centriste	-13800
entourage	-13801
industrie	-13802
occuperai	-13803
quatrième	-13804
▁accorder	-13805
▁apprends	-13806
▁associés	-13807
▁avantage	-13808
▁bouillir	-13809
▁confiant	-13810
▁constate	-13811
▁convives	-13812
▁demandée	-13813
▁divorcée	-13814
▁dérouler	-13815
▁détendue	-13816
▁effrayée	-13817
▁entières	-13818
▁envoyant	-13819
▁exercent	-13820
▁extraits	-13821
▁fenêtres	-13822
▁fontaine	-13823
▁fragiles	-13824
▁félicite	-13825
▁harmonie	-13826
▁illustre	-13827
▁inimitié	-13828
▁langages	-13829
▁littoral	-13830
▁logiciel	-13831
▁méchante	-13832
▁obstacle	-13833
▁outrages	-13834
▁plaignez	-13835
▁policier	-13836
▁prendrai	-13837
▁priorité	-13838
▁prièrent	-13839
▁promener	-13840
▁proposés	-13841
▁précises	-13842
▁prétexte	-13843
▁ptolémée	-13844
▁rapporta	-13845
▁recevons	-13846
▁renvoyer	-13847
▁récupéré	-13848
▁souffler	-13849
▁souligne	-13850
▁sourcils	-13851
▁surabond	-13852
▁surnommé	-13853
▁survenue	-13854
▁syndrome	-13855
▁violente	-13856
▁écoulées	-13857
▁écrivait	-13858
▁écrivons	-13859
▁évidente	-13860
accusation	-13861
avancèrent	-13862
esquissais	-13863
inquiétait	-13864
écoulement	-13865
▁abandonne	-13866
▁attendons	-13867
▁attestait	-13868
▁bénéficié	-13869
▁cardiaque	-13870
▁cessèrent	-13871
▁chronique	-13872
▁collègues	-13873
▁commencez	-13874
▁conservez	-13875
▁continuez	-13876
▁criminels	-13877
▁créations	-13878
▁donnaient	-13879
▁dépouillé	-13880
▁entourage	-13881
▁entourent	-13882
▁esclavage	-13883
▁gentiment	-13884
▁graphique	-13885
▁indiquent	-13886
▁jerusalem	-13887
▁lancement	-13888
▁marchands	-13889
▁saisirent	-13890
▁sanctifie	-13891
▁scolaires	-13892
▁splendeur	-13893
▁subissent	-13894
▁suffisent	-13895
▁séduisent	-13896
▁transféré	-13897
▁utilisant	-13898
▁vaillants	-13899
▁vainqueur	-13900
▁éclabouss	-13901
▁économies	-13902
encadrement	-13903
échantillon	-13904
élimination	-13905
▁appréciées	-13906
▁compliment	-13907
▁confession	-13908
▁constituée	-13909
▁correction	-13910
▁creusèrent	-13911
▁décoration	-13912
▁délicieuse	-13913
▁emmailloté	-13914
▁expédition	-13915
▁expériment	-13916
▁formations	-13917
▁formulaire	-13918
▁imitateurs	-13919
▁intervient	-13920
▁manifester	-13921
▁obtiennent	-13922
▁passionnés	-13923
▁perception	-13924
▁provenance	-13925
▁précédente	-13926
▁ressentent	-13927
▁rédemption	-13928
▁souverains	-13929
▁surprendre	-13930
▁tentations	-13931
▁transition	-13932
▁transporté	-13933
▁évènements	-13934
accompagnent	-13935
▁brutalement	-13936
▁conclusions	-13937
▁coronavirus	-13938
▁développent	-13939
▁fabrication	-13940
▁fréquemment	-13941
▁gouvernance	-13942
▁précédèrent	-13943
▁suggestions	-13944
▁température	-13945
▁transformée	-13946
interrogèrent	-13947
▁autorisation	-13948
▁consultation	-13949
▁continuaient	-13950
▁dictionnaire	-13951
▁interrogeait	-13952
▁introduction	-13953
▁méditerranée	-13954
▁performances	-13955
▁scientifique	-13956
▁téléphonique	-13957
accompagnaient	-13958
émerveillement	-13959
▁concentration	-13960
▁prosternèrent	-13961
▁rassemblement	-13962
▁circonspection	-13963
▁supplémentaire	-13964
▁volontairement	-13965
▁chaleureusement	-13966
);	-13967
aq	-13968
sc	-13969
zi	-13970
awa	-13971
cia	-13972
ech	-13973
ego	-13974
ela	-13975
hôt	-13976
ida	-13977
ido	-13978
ija	-13979
iro	-13980
kel	-13981
lle	-13982
log	-13983
rhe	-13984
rim	-13985
roi	-13986
sif	-13987
ump	-13988
val	-13989
yan	-13990
èch	-13991
émy	-13992
▁bb	-13993
▁rd	-13994
▁up	-13995
----	-13996
ador	-13997
ancy	-13998
angé	-13999
avag	-14000
bath	-14001
beau	-14002
criv	-14003
desc	-14004
elfe	-14005
fort	-14006
idie	-14007
igée	-14008
imer	-14009
ipel	-14010
lier	-14011
nois	-14012
nose	-14013
obés	-14014
ocie	-14015
oira	-14016
opte	-14017
ouni	-14018
ruti	-14019
tera	-14020
thur	-14021
tite	-14022
yles	-14023
▁agé	-14024
▁aig	-14025
▁bid	-14026
▁big	-14027
▁biz	-14028
▁dar	-14029
▁elé	-14030
▁hav	-14031
▁hir	-14032
▁hit	-14033
▁jak	-14034
▁jim	-14035
▁jiz	-14036
▁jun	-14037
▁kat	-14038
▁néo	-14039
▁pud	-14040
▁ric	-14041
▁set	-14042
▁tua	-14043
▁via	-14044
▁ère	-14045
actif	-14046
agira	-14047
agram	-14048
aissé	-14049
arabe	-14050
eleur	-14051
exact	-14052
icône	-14053
idées	-14054
incer	-14055
influ	-14056
inond	-14057
manie	-14058
ollet	-14059
oques	-14060
ueurs	-14061
érant	-14062
évent	-14063
▁aout	-14064
▁asse	-14065
▁beur	-14066
▁broy	-14067
▁carl	-14068
▁chir	-14069
▁cire	-14070
▁cite	-14071
▁clar	-14072
▁cogn	-14073
▁doué	-14074
▁etat	-14075
▁fine	-14076
▁flag	-14077
▁foie	-14078
▁game	-14079
▁gand	-14080
▁gran	-14081
▁horm	-14082
▁judo	-14083
▁lach	-14084
▁mait	-14085
▁mals	-14086
▁mord	-14087
▁nage	-14088
▁nina	-14089
▁omer	-14090
▁ours	-14091
▁paup	-14092
▁piqu	-14093
▁plai	-14094
▁poly	-14095
▁pots	-14096
▁quiz	-14097
▁rebe	-14098
▁sere	-14099
▁sess	-14100
▁seth	-14101
▁sham	-14102
▁styl	-14103
▁surg	-14104
▁urie	-14105
▁voté	-14106
▁ôtez	-14107
affect	-14108
afferm	-14109
aidera	-14110
estomp	-14111
gloire	-14112
hésite	-14113
ialité	-14114
ignait	-14115
imiter	-14116
incert	-14117
ivoire	-14118
ouveau	-14119
écarte	-14120
énoncé	-14121
étroit	-14122
▁abner	-14123
▁abrit	-14124
▁aidés	-14125
▁aspir	-14126
▁babel	-14127
▁bleus	-14128
▁bonus	-14129
▁bouge	-14130
▁burun	-14131
▁caill	-14132
▁chats	-14133
▁citad	-14134
▁couru	-14135
▁crâne	-14136
▁enoch	-14137
▁erron	-14138
▁flatt	-14139
▁flûte	-14140
▁grève	-14141
▁larme	-14142
▁loups	-14143
▁mythe	-14144
▁nadia	-14145
▁peser	-14146
▁piano	-14147
▁porta	-14148
▁rejou	-14149
▁rétor	-14150
▁stars	-14151
▁steph	-14152
▁tissu	-14153
▁tracé	-14154
▁varie	-14155
▁vider	-14156
▁yanke	-14157
▁étage	-14158
abeille	-14159
acteurs	-14160
attirer	-14161
entrera	-14162
essions	-14163
ilement	-14164
insulte	-14165
olement	-14166
tration	-14167
zéchiel	-14168
élevait	-14169
éniture	-14170
équilib	-14171
étrange	-14172
▁abattu	-14173
▁accabl	-14174
▁appréh	-14175
▁attire	-14176
▁avaler	-14177
▁barres	-14178
▁bougie	-14179
▁branch	-14180
▁bricol	-14181
▁chaume	-14182
▁coeurs	-14183
▁combin	-14184
▁coupés	-14185
▁déclen	-14186
▁délire	-14187
▁détect	-14188
▁ecclés	-14189
▁enjeux	-14190
▁eugène	-14191
▁fesses	-14192
▁forest	-14193
▁fusion	-14194
▁google	-14195
▁grille	-14196
▁guyane	-14197
▁hébraï	-14198
▁impure	-14199
▁impôts	-14200
▁intemp	-14201
▁jouets	-14202
▁manche	-14203
▁manuel	-14204
▁marins	-14205
▁menacé	-14206
▁moines	-14207
▁mousse	-14208
▁myrrhe	-14209
▁mécont	-14210
▁noires	-14211
▁obtint	-14212
▁parait	-14213
▁paress	-14214
▁pressé	-14215
▁prouvé	-14216
▁périph	-14217
▁rejoin	-14218
▁satell	-14219
▁sentin	-14220
▁sentit	-14221
▁smyrne	-14222
▁supers	-14223
▁sécher	-14224
▁trains	-14225
▁trônes	-14226
accroiss	-14227
alphabet	-14228
appropri	-14229
embrassa	-14230
escalier	-14231
isateurs	-14232
occupait	-14233
titution	-14234
écration	-14235
égations	-14236
émotions	-14237
éprouver	-14238
▁adorait	-14239
▁affiche	-14240
▁angeles	-14241
▁appuyez	-14242
▁attends	-14243
▁branche	-14244
▁cabinet	-14245
▁caution	-14246
▁centime	-14247
▁chapeau	-14248
▁comprom	-14249
▁conclue	-14250
▁couches	-14251
▁demeuré	-14252
▁dissoci	-14253
▁déchiré	-14254
▁eléazar	-14255
▁enlevée	-14256
▁entoure	-14257
▁excuser	-14258
▁falloir	-14259
▁graisse	-14260
▁gravité	-14261
▁jusques	-14262
▁lourdes	-14263
▁maudits	-14264
▁mendier	-14265
▁obligée	-14266
▁occupée	-14267
▁ouvrait	-14268
▁parenté	-14269
▁partait	-14270
▁pasteur	-14271
▁plaques	-14272
▁pologne	-14273
▁proposa	-14274
▁prêtent	-14275
▁requête	-14276
▁régimes	-14277
▁résulte	-14278
▁secouru	-14279
▁situent	-14280
▁situées	-14281
▁solides	-14282
▁suggéré	-14283
▁supposé	-14284
▁traumat	-14285
▁traîner	-14286
▁écoutés	-14287
▁épouser	-14288
▁épousée	-14289
autonomie	-14290
envergure	-14291
ghanistan	-14292
indonésie	-14293
interdire	-14294
lammation	-14295
obéissent	-14296
onvénient	-14297
orchestre	-14298
utilisent	-14299
éloquence	-14300
▁acceptée	-14301
▁acceptés	-14302
▁amoréens	-14303
▁appareil	-14304
▁arrivant	-14305
▁bretagne	-14306
▁californ	-14307
▁chantier	-14308
▁christos	-14309
▁commanda	-14310
▁comparer	-14311
▁composés	-14312
▁concours	-14313
▁consécut	-14314
▁corporel	-14315
▁croyante	-14316
▁descente	-14317
▁délivrez	-14318
▁démontré	-14319
▁enfermés	-14320
▁essayait	-14321
▁grecques	-14322
▁généraux	-14323
▁habitude	-14324
▁jehojada	-14325
▁localité	-14326
▁machines	-14327
▁massacre	-14328
▁pleurant	-14329
▁possèdes	-14330
▁pratiqué	-14331
▁prescriv	-14332
▁programm	-14333
▁prévenue	-14334
▁quittant	-14335
▁recouvré	-14336
▁remettra	-14337
▁réserver	-14338
▁semblant	-14339
▁standard	-14340
▁terminés	-14341
▁touchent	-14342
▁toulouse	-14343
▁trouvons	-14344
▁vaisseau	-14345
▁veillent	-14346
▁vivantes	-14347
▁échanges	-14348
abonnement	-14349
apercevoir	-14350
avortement	-14351
infidélité	-14352
inondation	-14353
oppression	-14354
ordinateur	-14355
événements	-14356
▁annoncent	-14357
▁apportées	-14358
▁approcher	-14359
▁assassiné	-14360
▁assemblés	-14361
▁assujetti	-14362
▁augmenter	-14363
▁blasphémé	-14364
▁candidats	-14365
▁centenier	-14366
▁circoncit	-14367
▁commandes	-14368
▁conformes	-14369
▁contempor	-14370
▁curiosité	-14371
▁demeurant	-14372
▁disposait	-14373
▁décennies	-14374
▁démontrer	-14375
▁elizabeth	-14376
▁faciliter	-14377
▁fiabilité	-14378
▁fournaise	-14379
▁guérisons	-14380
▁identifié	-14381
▁merveille	-14382
▁montrerai	-14383
▁mécréance	-14384
▁nouveauté	-14385
▁parvenait	-14386
▁peintures	-14387
▁pleurerez	-14388
▁portaient	-14389
▁positives	-14390
▁potentiel	-14391
▁prenaient	-14392
▁précieuse	-14393
▁rapproche	-14394
▁respectés	-14395
▁restaient	-14396
▁retrouvez	-14397
▁rudiments	-14398
▁récapitul	-14399
▁récompens	-14400
▁signature	-14401
▁séjourner	-14402
▁sépulture	-14403
▁tibériade	-14404
▁utilisent	-14405
▁vigilance	-14406
▁vraisembl	-14407
▁évènement	-14408
enterrement	-14409
hospitalité	-14410
immortalité	-14411
interrogent	-14412
intégralité	-14413
intégration	-14414
▁appelèrent	-14415
▁commençant	-14416
▁considérez	-14417
▁convaincue	-14418
▁désolation	-14419
▁enregistre	-14420
[...]
